<unk>	0
<s>	0
</s>	0
▁a	-2.5258
.	-2.71127
▁A	-3.15664
▁in	-3.31596
▁the	-3.65591
▁on	-3.89983
▁and	-3.97819
▁is	-4.01284
▁man	-4.04505
▁of	-4.11702
▁with	-4.1621
s	-4.55922
ing	-4.60211
,	-4.6219
▁woman	-4.75464
▁	-4.77352
▁are	-4.7736
▁to	-4.87195
o	-4.92847
▁at	-4.94214
▁Tw	-4.96574
▁wearing	-4.97943
▁dog	-5.10442
▁white	-5.10815
▁shirt	-5.16449
▁people	-5.175
▁young	-5.19563
▁black	-5.20742
▁boy	-5.23868
▁while	-5.31778
▁blue	-5.32187
▁his	-5.36199
▁girl	-5.37539
▁sitting	-5.38988
▁red	-5.394
▁an	-5.42619
▁standing	-5.49468
▁playing	-5.50374
▁men	-5.63148
-	-5.64283
e	-5.73814
▁front	-5.75245
▁group	-5.76649
▁down	-5.7844
▁holding	-5.79167
▁her	-5.79188
▁water	-5.81143
▁The	-5.85859
ed	-5.87368
▁walking	-5.87971
▁child	-5.90964
▁street	-5.93584
▁little	-6.01019
▁brown	-6.01832
▁by	-6.05127
▁up	-6.07975
▁green	-6.08826
▁through	-6.14989
▁looking	-6.15789
▁one	-6.16054
▁for	-6.16985
▁large	-6.17011
▁outside	-6.17146
▁yellow	-6.18648
▁Thre	-6.24873
▁hat	-6.25191
▁women	-6.26542
▁small	-6.26717
▁two	-6.28776
▁ball	-6.30024
▁running	-6.30737
▁An	-6.30794
▁children	-6.31601
▁person	-6.31887
▁into	-6.34857
ir	-6.35756
▁beach	-6.38655
▁other	-6.39078
▁from	-6.39232
▁next	-6.40508
y	-6.4053
▁orange	-6.41161
▁over	-6.41943
▁grass	-6.44437
▁out	-6.46077
▁near	-6.49178
▁another	-6.50549
▁jacket	-6.51029
▁field	-6.5264
d	-6.53066
▁dogs	-6.55113
▁jumping	-6.58596
▁stands	-6.58648
▁dressed	-6.59512
▁Man	-6.60413
▁building	-6.61201
▁around	-6.61691
▁be	-6.63431
▁table	-6.6381
▁People	-6.65227
▁sits	-6.6731
▁as	-6.67344
▁some	-6.6763
▁snow	-6.68962
▁pink	-6.69206
▁working	-6.69775
▁behind	-6.70563
'	-6.76358
▁top	-6.79133
▁riding	-6.79556
▁background	-6.81412
▁crowd	-6.81593
▁looks	-6.82581
▁gray	-6.83136
▁girls	-6.84879
▁that	-6.84935
▁wall	-6.8605
ly	-6.86084
▁camera	-6.87369
▁t	-6.90591
▁stand	-6.91336
▁talking	-6.92162
▁hand	-6.93297
▁sidewalk	-6.94048
▁shorts	-6.9548
▁guitar	-6.95547
▁rock	-6.95696
▁something	-6.96003
▁boys	-6.96656
▁play	-6.97796
▁park	-6.98821
▁dress	-7.00064
▁car	-7.00692
▁off	-7.00775
▁hair	-7.01368
▁walks	-7.01441
▁blond	-7.02152
▁T	-7.03711
▁has	-7.0391
▁soccer	-7.05139
▁baby	-7.0538
▁plays	-7.05508
▁glasses	-7.07043
▁smiling	-7.07287
▁pants	-7.07469
▁jeans	-7.07695
▁holds	-7.08696
▁him	-7.0896
▁sand	-7.09709
▁picture	-7.10251
▁together	-7.10272
▁it	-7.10509
▁along	-7.11904
▁food	-7.14599
▁air	-7.14885
▁tree	-7.15586
▁bench	-7.1695
▁dark	-7.17183
▁face	-7.18386
▁head	-7.19033
▁construction	-7.19272
▁older	-7.19866
▁side	-7.20555
▁runs	-7.20995
▁tennis	-7.21058
▁city	-7.21225
▁toy	-7.21476
▁game	-7.21793
▁lady	-7.22018
▁road	-7.22501
▁player	-7.22629
▁boat	-7.23321
▁Four	-7.23796
▁sit	-7.23808
▁long	-7.25475
▁hands	-7.26177
▁pool	-7.26503
▁walk	-7.27522
▁mouth	-7.27713
▁train	-7.27903
▁workers	-7.28331
▁each	-7.28834
▁bike	-7.29875
▁them	-7.31138
▁ground	-7.31989
▁watching	-7.32034
▁climbing	-7.32313
▁area	-7.32758
▁room	-7.34002
▁Asian	-7.35014
al	-7.35909
▁football	-7.36382
▁jumps	-7.36777
▁carrying	-7.36988
▁suit	-7.38275
▁under	-7.38596
▁work	-7.39114
▁coat	-7.39136
n	-7.39436
▁its	-7.40092
▁back	-7.41029
shirt	-7.42464
▁who	-7.42721
▁eating	-7.43098
▁Young	-7.43179
▁chair	-7.4753
haired	-7.48198
▁wooden	-7.49534
▁look	-7.49718
▁stage	-7.50278
▁old	-7.5101
▁striped	-7.51311
▁toward	-7.51442
an	-7.5275
▁reading	-7.5427
▁window	-7.54541
▁couple	-7.56397
▁he	-7.56983
▁dirt	-7.57047
▁There	-7.57672
▁female	-7.57786
▁baseball	-7.5851
▁floor	-7.58579
▁three	-7.5926
▁swimming	-7.59271
▁middle	-7.60327
▁tak	-7.61197
▁doing	-7.61242
es	-7.61437
▁guy	-7.61513
▁day	-7.62002
▁ocean	-7.6201
▁cap	-7.62349
▁lake	-7.62514
wo	-7.62915
▁microphone	-7.63616
▁vest	-7.64228
▁watches	-7.64417
▁restaurant	-7.64441
▁kitchen	-7.64506
▁band	-7.64597
▁or	-7.65684
▁sign	-7.65772
▁male	-7.65878
▁stick	-7.66896
▁helmet	-7.67581
▁swing	-7.67732
▁all	-7.68314
▁catch	-7.68462
▁inside	-7.68483
▁store	-7.68715
t	-7.69332
▁tan	-7.69462
▁mountain	-7.69464
▁watch	-7.69742
▁waiting	-7.70287
▁grassy	-7.71555
▁us	-7.71628
▁On	-7.71677
▁purple	-7.72386
▁kids	-7.72534
▁fence	-7.73639
▁worker	-7.73819
▁sunglasses	-7.74001
er	-7.76816
▁path	-7.77008
▁clothing	-7.77087
▁performing	-7.77446
▁wood	-7.77897
▁bicycle	-7.78818
▁hard	-7.78821
▁about	-7.79437
▁uniform	-7.79581
having	-7.79855
▁hats	-7.80893
▁big	-7.80925
▁throw	-7.81407
▁line	-7.81559
▁horse	-7.82854
▁take	-7.83077
▁outdoor	-7.83436
▁sweater	-7.83917
ral	-7.84749
▁making	-7.84979
▁trees	-7.85111
▁bag	-7.85737
▁beside	-7.86338
▁get	-7.86901
▁open	-7.87011
▁go	-7.87146
▁elder	-7.87414
▁rides	-7.8753
▁Seve	-7.876
▁hill	-7.87636
▁colorful	-7.87737
ainst	-7.88114
a	-7.88302
▁light	-7.88809
▁piece	-7.89893
▁rope	-7.90176
▁surround	-7.90307
▁body	-7.90981
▁sleeping	-7.91264
cross	-7.91414
▁truck	-7.91616
▁toddler	-7.92585
▁river	-7.92719
▁pull	-7.93311
▁Some	-7.93505
▁singing	-7.93707
▁drinking	-7.94467
▁covered	-7.94576
▁past	-7.95875
▁rocks	-7.96235
▁music	-7.96375
▁S	-7.96387
▁ride	-7.97569
▁arms	-7.98137
▁subway	-7.98502
▁she	-7.98816
▁"	-7.99507
laying	-7.99584
▁laughing	-7.9962
▁d	-7.99859
▁outfit	-8.00144
▁run	-8.0031
▁busy	-8.00373
▁ag	-8.01154
▁posing	-8.01433
▁slide	-8.01515
▁Men	-8.0174
▁book	-8.01794
▁Wom	-8.01842
▁shirts	-8.04115
▁cross	-8.04154
▁players	-8.04548
▁paper	-8.04919
▁bus	-8.05955
▁metal	-8.06388
▁race	-8.06872
very	-8.07073
▁vests	-8.07152
ve	-8.0756
veral	-8.07799
▁colored	-8.07833
▁they	-8.08064
▁high	-8.08178
▁house	-8.08307
▁outdoors	-8.08398
▁tank	-8.08457
▁try	-8.09214
▁enjoying	-8.09385
▁team	-8.09785
▁painting	-8.09966
▁lot	-8.1063
▁track	-8.10719
▁stone	-8.10757
▁chairs	-8.11452
▁push	-8.1179
"	-8.12007
▁smiles	-8.13004
man	-8.13157
▁others	-8.13366
▁snowy	-8.15633
to	-8.15733
▁cart	-8.15872
▁backpack	-8.16029
▁bright	-8.16182
▁cellphone	-8.16476
▁kid	-8.17644
▁fishing	-8.18074
▁couch	-8.18093
▁above	-8.18206
▁night	-8.18339
▁cooking	-8.19101
▁shoes	-8.20208
▁bar	-8.20295
▁bridge	-8.20299
▁like	-8.205
▁family	-8.20739
▁appear	-8.20967
▁event	-8.21563
▁away	-8.21797
▁Children	-8.21837
uring	-8.21881
▁brick	-8.21913
▁prepar	-8.22155
▁hanging	-8.22581
▁after	-8.23426
▁safety	-8.24157
▁skirt	-8.243
▁Frisbee	-8.24474
▁uniforms	-8.2468
▁machine	-8.25718
▁arm	-8.25955
▁bet	-8.26081
▁what	-8.26177
▁shopping	-8.26415
ch	-8.26613
ween	-8.26676
▁plastic	-8.26721
▁playground	-8.27231
▁f	-8.2731
▁ready	-8.27338
hair	-8.27616
▁photo	-8.27662
▁flowers	-8.28306
▁short	-8.28349
▁motorcycle	-8.29023
▁dancing	-8.29396
▁four	-8.29476
▁ice	-8.29481
▁both	-8.29546
▁gathered	-8.29957
▁woods	-8.30182
▁glass	-8.30497
▁clothes	-8.30556
▁adult	-8.30736
▁steps	-8.3103
▁African	-8.31236
▁concrete	-8.31369
▁object	-8.31732
▁Se	-8.31925
▁market	-8.32404
▁b	-8.32846
▁cowboy	-8.32923
▁bed	-8.32925
▁crowded	-8.33059
▁fish	-8.33255
▁2	-8.33361
▁guys	-8.33402
▁yard	-8.33742
▁view	-8.34197
▁drink	-8.34432
▁climbs	-8.35453
▁beer	-8.36029
▁right	-8.36044
▁equipment	-8.36244
▁shop	-8.36826
▁public	-8.37343
▁pole	-8.3745
st	-8.3745
▁beard	-8.38142
▁show	-8.38815
▁jump	-8.38994
▁setting	-8.39108
▁edge	-8.39179
▁set	-8.39286
▁whi	-8.39645
▁wedding	-8.39704
▁American	-8.4033
▁rocky	-8.40363
▁board	-8.406
▁Construction	-8.40809
▁tall	-8.40809
▁costume	-8.41282
ting	-8.41801
▁seated	-8.41865
▁party	-8.4189
▁cutting	-8.42154
▁shirtless	-8.4227
▁phone	-8.42465
▁forest	-8.4266
▁blow	-8.42708
▁computer	-8.43003
▁fountain	-8.434
▁adults	-8.43504
▁door	-8.43716
▁structure	-8.44017
l	-8.44197
▁hit	-8.44371
across	-8.44789
▁collar	-8.45339
▁g	-8.45475
▁police	-8.45592
▁Girl	-8.46175
▁display	-8.46415
is	-8.46821
▁fire	-8.47367
▁scarf	-8.47781
▁wear	-8.48352
▁grill	-8.48972
▁sunny	-8.49413
▁full	-8.49737
▁lawn	-8.49788
▁have	-8.49977
▁sweatshirt	-8.5064
▁eyes	-8.50797
▁home	-8.50812
▁instruments	-8.51042
▁sky	-8.51118
▁someone	-8.51179
▁mother	-8.51277
▁cliff	-8.51513
leaning	-8.51711
▁mountains	-8.51877
▁gear	-8.52525
▁sun	-8.52823
▁nearby	-8.53396
▁sever	-8.5374
▁shore	-8.5426
▁F	-8.54982
▁Women	-8.55072
▁prepare	-8.55168
▁left	-8.5592
▁roof	-8.57047
▁umbrella	-8.5725
▁vehicle	-8.57252
▁tracks	-8.57435
ive	-8.57817
▁trail	-8.57923
▁cement	-8.58177
▁skateboard	-8.58419
▁kicking	-8.5854
▁basketball	-8.58934
▁dock	-8.59054
▁flag	-8.59065
▁driving	-8.59227
▁pose	-8.59433
in	-8.59994
▁attempt	-8.60143
etting	-8.60315
▁enjoy	-8.60947
▁beautiful	-8.61024
▁s	-8.61877
▁paint	-8.61964
▁among	-8.62054
▁apron	-8.62528
▁friends	-8.62618
▁no	-8.62692
▁stairs	-8.62702
▁chas	-8.63319
▁putt	-8.63729
▁winter	-8.64035
▁Fi	-8.64056
▁bride	-8.64331
▁works	-8.64341
▁selling	-8.64768
▁site	-8.6487
▁station	-8.64999
▁plaid	-8.65726
▁blanket	-8.65829
▁mask	-8.65838
▁L	-8.66198
▁sunset	-8.66418
▁counter	-8.66687
▁bowling	-8.66807
ring	-8.66978
▁pictures	-8.66993
▁cup	-8.67357
▁mud	-8.67399
▁p	-8.68006
▁overlook	-8.6807
▁ladder	-8.68279
▁swinging	-8.68427
▁check	-8.68538
▁smile	-8.68796
▁drinks	-8.6908
▁makes	-8.69345
▁bathing	-8.69504
▁distance	-8.69605
▁graffiti	-8.69855
▁pile	-8.70028
▁poses	-8.70042
▁giv	-8.70208
▁Boy	-8.70286
▁Group	-8.70353
▁flower	-8.70407
▁jersey	-8.70523
▁court	-8.70855
▁coffee	-8.71108
▁number	-8.71615
▁asian	-8.71802
sleeve	-8.72116
▁box	-8.72289
▁facing	-8.72731
▁bags	-8.73013
▁bucket	-8.73099
▁railroad	-8.73155
less	-8.73572
▁tent	-8.73641
▁bikes	-8.73641
▁cake	-8.73649
▁Black	-8.74295
▁jackets	-8.74481
▁cleaning	-8.74502
▁match	-8.74769
▁swim	-8.75159
▁arts	-8.75229
▁stop	-8.75247
▁cut	-8.75266
▁school	-8.75587
▁cigarette	-8.76276
aged	-8.76356
▁ladies	-8.76565
where	-8.76755
▁dance	-8.76813
▁volleyball	-8.77103
lying	-8.77324
▁bottle	-8.77623
his	-8.77857
▁cow	-8.78163
▁B	-8.78287
▁conversation	-8.78486
▁Th	-8.78615
▁corner	-8.78741
▁gentleman	-8.78747
▁put	-8.78954
▁wet	-8.78957
▁mirror	-8.79283
▁fix	-8.79285
▁painted	-8.79576
▁instrument	-8.79811
▁boots	-8.79871
▁bubbles	-8.7992
▁statue	-8.8011
▁Kid	-8.80215
▁reach	-8.80564
▁younger	-8.80622
one	-8.80826
▁stream	-8.8096
▁m	-8.80985
▁life	-8.81553
▁fill	-8.81882
▁parked	-8.8192
▁C	-8.8213
▁hold	-8.82529
▁picnic	-8.82618
▁flip	-8.82952
▁reads	-8.83072
▁drums	-8.83158
just	-8.83167
▁kneeling	-8.83313
▁meal	-8.83597
▁practic	-8.8372
▁hiking	-8.84105
▁audience	-8.84372
▁parking	-8.84478
▁leaps	-8.84491
▁bowl	-8.845
▁animal	-8.848
▁staring	-8.84971
▁showing	-8.85053
▁balloon	-8.85249
▁talk	-8.85524
▁talks	-8.85565
▁Wo	-8.85591
▁can	-8.85978
▁speaking	-8.86227
▁electric	-8.86619
▁legs	-8.86662
▁goggles	-8.86686
▁smoking	-8.86701
▁there	-8.87076
▁net	-8.87104
▁fun	-8.8731
en	-8.87441
▁plate	-8.87446
▁desert	-8.88158
▁pour	-8.88199
▁video	-8.8906
▁canoe	-8.89341
▁cream	-8.89638
ew	-8.89794
ittle	-8.89859
▁sandals	-8.90008
▁dresses	-8.90024
▁pick	-8.9049
▁suits	-8.91634
r	-8.91912
rying	-8.91935
▁gold	-8.92456
▁Workers	-8.92576
▁listening	-8.92685
▁racket	-8.92777
▁trunks	-8.93008
▁sort	-8.93267
▁different	-8.93393
▁Person	-8.93707
▁feet	-8.94058
▁float	-8.9433
▁ski	-8.94473
▁pointing	-8.94511
▁P	-8.94611
▁son	-8.94752
▁trampoline	-8.95034
▁concert	-8.95307
▁break	-8.95389
▁bird	-8.95446
▁cat	-8.95607
▁meat	-8.96368
▁wait	-8.96479
aking	-8.97154
▁du	-8.97688
▁desk	-8.97747
▁shallow	-8.97916
▁empty	-8.98247
▁hole	-8.98258
▁leaves	-8.98301
▁carrie	-8.98581
▁sports	-8.9865
▁writing	-8.99197
▁perform	-8.99563
▁shoulder	-8.99755
▁platform	-8.9978
▁tunnel	-8.99918
ix	-8.99964
▁tie	-9.00141
▁turn	-9.00254
▁held	-9.00444
▁gathering	-9.0069
▁gather	-9.00757
ers	-9.00793
▁doorway	-9.00941
▁same	-9.01021
▁leash	-9.0105
▁place	-9.01112
▁fruit	-9.01469
▁does	-9.018
out	-9.01914
▁gloves	-9.02519
▁karate	-9.03
▁hug	-9.03491
▁screen	-9.0372
on	-9.039
▁Dog	-9.04441
▁make	-9.04659
▁Old	-9.0492
▁art	-9.04926
▁time	-9.04969
▁parade	-9.05111
▁lap	-9.05346
▁tongue	-9.05348
▁th	-9.05362
▁ramp	-9.05539
top	-9.05551
▁climb	-9.05615
▁cars	-9.05844
ic	-9.06062
▁items	-9.06189
tting	-9.06193
▁trick	-9.06806
▁lit	-9.06886
▁tables	-9.07236
▁performs	-9.07531
▁dinner	-9.07627
▁swings	-9.08047
▁lift	-9.08149
▁basket	-9.0822
g	-9.08319
▁ledge	-9.08349
▁business	-9.08637
▁silver	-9.08737
re	-9.09107
▁buildings	-9.0912
▁kick	-9.09337
▁waves	-9.09713
▁rain	-9.09946
▁hang	-9.10073
▁racing	-9.10282
▁golf	-9.10682
▁pier	-9.10822
▁opening	-9.10857
▁wheel	-9.10986
▁foot	-9.11063
▁crying	-9.11098
▁books	-9.11172
▁before	-9.11339
▁foreground	-9.11721
▁slid	-9.12337
▁happy	-9.12495
▁pond	-9.12628
▁helping	-9.12682
▁resting	-9.12791
▁stuff	-9.12905
▁stroller	-9.13204
▁com	-9.13281
▁rodeo	-9.13283
▁way	-9.1354
▁do	-9.13566
▁vendor	-9.13576
tries	-9.13737
▁newspaper	-9.13962
▁van	-9.14164
▁give	-9.14541
▁onlookers	-9.14964
▁garden	-9.15238
▁barbecue	-9.15357
dy	-9.15395
▁flying	-9.15453
▁kissing	-9.15532
▁In	-9.15647
▁father	-9.16028
▁seem	-9.16157
up	-9.16172
unch	-9.16264
▁repair	-9.16343
▁midair	-9.16382
▁living	-9.16406
▁stadium	-9.16777
▁males	-9.16887
▁asleep	-9.17069
ng	-9.17266
▁scaffolding	-9.17496
▁Indian	-9.18006
▁helmets	-9.18075
▁seat	-9.18153
▁barefoot	-9.1818
▁church	-9.18386
▁un	-9.18801
▁booth	-9.18804
▁bat	-9.18899
ese	-9.19704
▁sings	-9.20014
▁trash	-9.20029
▁shovel	-9.20132
ther	-9.206
▁c	-9.20727
▁shaving	-9.20825
▁festival	-9.20857
▁horses	-9.21236
▁leg	-9.21764
se	-9.22028
▁beam	-9.22286
▁brightly	-9.22346
▁sea	-9.22408
▁sleeps	-9.22409
▁walkway	-9.22558
▁railing	-9.22704
▁new	-9.22895
▁headphones	-9.2342
▁heavy	-9.23436
▁leaping	-9.23587
▁straw	-9.24232
▁golden	-9.24264
▁bearded	-9.24342
▁scene	-9.24359
▁wine	-9.24464
▁Thi	-9.24622
▁fighting	-9.24638
▁lean	-9.24744
▁coats	-9.24748
▁v	-9.24774
ous	-9.24844
▁class	-9.25051
▁sculpture	-9.25099
▁backyard	-9.25109
▁brunette	-9.25533
▁W	-9.25562
▁log	-9.25588
▁balance	-9.25589
▁whil	-9.25683
▁se	-9.25884
▁fight	-9.26064
▁image	-9.26406
▁cafe	-9.26454
▁rest	-9.26568
▁nose	-9.26921
▁officer	-9.2695
▁attire	-9.27014
w	-9.27031
▁digging	-9.27294
▁well	-9.27384
▁windows	-9.27438
▁relaxing	-9.27572
▁vegetables	-9.27626
▁deep	-9.27664
▁cloth	-9.27684
▁eat	-9.27756
▁project	-9.27761
▁scooter	-9.27838
▁toys	-9.27911
▁upside	-9.27951
▁faces	-9.2813
▁type	-9.28468
▁alone	-9.28532
▁pavement	-9.2863
▁purse	-9.28705
▁clear	-9.29024
▁balloons	-9.29027
▁office	-9.29044
▁made	-9.29138
▁harness	-9.2927
▁five	-9.29549
▁pot	-9.29576
▁below	-9.29579
▁kicks	-9.29749
▁closed	-9.29903
▁moving	-9.30211
▁brush	-9.30266
▁close	-9.30436
▁Small	-9.30447
▁jogging	-9.30469
▁diving	-9.3051
▁balanc	-9.30887
▁camouflage	-9.30904
▁kind	-9.30914
▁groom	-9.31026
▁sweeping	-9.31159
▁dirty	-9.31332
▁M	-9.31476
▁welding	-9.31484
▁says	-9.31502
▁climber	-9.31525
▁part	-9.3154
▁eats	-9.31746
▁help	-9.31756
▁attached	-9.31886
▁waits	-9.32197
▁tractor	-9.32291
▁shoulders	-9.32525
▁tire	-9.32755
▁fallen	-9.32769
▁wide	-9.32796
▁violin	-9.32828
▁kayak	-9.33432
▁keyboard	-9.3381
arious	-9.33817
▁rider	-9.34082
▁deck	-9.34228
▁bicycles	-9.34299
▁pass	-9.34538
▁laptop	-9.34779
leans	-9.34847
▁hoodie	-9.35163
▁bikini	-9.35251
▁bald	-9.35487
▁waterfall	-9.35719
▁tile	-9.35882
▁seen	-9.36024
▁garbage	-9.36093
▁end	-9.362
▁balls	-9.36365
▁ma	-9.36368
lays	-9.36414
▁flags	-9.36427
▁photograph	-9.36438
▁White	-9.36577
▁block	-9.36844
▁overalls	-9.36908
▁balcony	-9.37068
▁course	-9.37122
▁banner	-9.37263
▁passing	-9.37267
▁dry	-9.37364
▁country	-9.37372
▁device	-9.37554
▁hugging	-9.3761
▁traffic	-9.37632
▁D	-9.37701
▁use	-9.37955
▁students	-9.3796
▁hot	-9.3803
▁Guy	-9.38046
▁fe	-9.38498
▁teenage	-9.38978
▁angel	-9.39236
▁speaks	-9.3931
▁wave	-9.39397
▁bend	-9.39476
A	-9.39509
▁paved	-9.39732
▁sled	-9.3981
▁chest	-9.39896
▁Child	-9.40045
▁spectators	-9.40614
▁hooded	-9.40826
▁kneel	-9.41026
▁photographer	-9.41295
▁alley	-9.41756
▁cane	-9.41847
hree	-9.41871
▁classroom	-9.42083
▁w	-9.42133
▁microscope	-9.42276
▁inflatable	-9.42596
▁saw	-9.42741
▁center	-9.43112
▁performer	-9.43403
▁pair	-9.43458
▁string	-9.43717
▁neck	-9.43803
▁individuals	-9.44193
▁hose	-9.44284
▁splashing	-9.44471
▁ear	-9.44645
▁nice	-9.44682
▁costumes	-9.44923
▁grilling	-9.45026
▁performance	-9.45216
▁sh	-9.45254
▁sheet	-9.45489
▁teams	-9.45801
▁how	-9.46095
at	-9.46187
▁circle	-9.46231
▁de	-9.46247
▁porch	-9.46278
▁sticks	-9.46348
▁bandanna	-9.46816
▁pajamas	-9.46877
▁dances	-9.469
▁computers	-9.47015
decorated	-9.47062
▁skiing	-9.47073
▁present	-9.47314
▁puppy	-9.47358
▁swims	-9.47484
▁gym	-9.47619
▁lone	-9.47663
▁points	-9.47674
▁hay	-9.47856
ish	-9.47858
▁Blond	-9.47897
▁machinery	-9.47913
▁steep	-9.47916
▁bottom	-9.48047
covered	-9.48111
▁German	-9.48507
▁Brown	-9.48996
▁himself	-9.49003
▁underneath	-9.49012
▁puddle	-9.49265
▁figure	-9.49327
▁piano	-9.49568
▁drawing	-9.49576
▁also	-9.4958
▁lay	-9.49836
▁spray	-9.49924
▁stack	-9.50028
▁see	-9.50049
▁gravel	-9.50124
▁bull	-9.50377
▁obstacle	-9.50389
▁giant	-9.50663
▁stove	-9.50672
▁multicolored	-9.50678
▁crew	-9.5073
▁cold	-9.5075
▁rail	-9.50797
▁hiker	-9.50979
▁post	-9.51093
▁drives	-9.51112
▁grocer	-9.51781
▁surf	-9.52061
▁fair	-9.52155
skinned	-9.52318
▁curly	-9.52386
▁feed	-9.5246
▁laughs	-9.52496
▁print	-9.52885
▁birthday	-9.52929
▁jean	-9.53201
ical	-9.53465
▁bathroom	-9.53505
▁robe	-9.53618
▁reflecti	-9.54069
▁traditional	-9.54089
▁swimmer	-9.54304
▁swimsuit	-9.54413
▁outfits	-9.54473
▁h	-9.54656
▁chain	-9.54829
▁lea	-9.54888
▁chase	-9.55206
▁squatting	-9.55289
ity	-9.55471
▁sleeve	-9.55711
▁biker	-9.55842
▁produce	-9.55861
▁tool	-9.56055
▁friend	-9.56509
▁bread	-9.56518
▁row	-9.56827
▁inspect	-9.56982
▁boats	-9.57021
▁blouse	-9.57022
▁chew	-9.57371
▁practice	-9.57714
▁finger	-9.57986
▁surfboard	-9.57999
▁fenced	-9.58185
▁thrown	-9.58571
▁khaki	-9.58594
▁accordion	-9.58626
▁hockey	-9.58828
▁patio	-9.58837
▁waving	-9.58892
▁ears	-9.59004
▁infant	-9.59208
▁town	-9.59264
ying	-9.59391
▁themselves	-9.59441
ige	-9.59463
▁button	-9.59524
▁not	-9.60145
▁stare	-9.60236
▁competition	-9.60674
▁money	-9.61289
▁carnival	-9.61291
▁navy	-9.61912
▁plants	-9.61947
▁indoor	-9.61957
▁signs	-9.62125
chases	-9.62146
▁hikers	-9.62233
▁fans	-9.62255
▁bubble	-9.62324
▁sell	-9.62381
▁animals	-9.62498
▁casual	-9.62544
▁roller	-9.62735
ple	-9.63173
urban	-9.63227
▁daughter	-9.63251
▁drill	-9.63348
▁gate	-9.63405
and	-9.6344
uses	-9.63454
▁covering	-9.63714
▁ship	-9.64128
▁touching	-9.64209
artial	-9.64313
▁landscape	-9.64315
▁sport	-9.64406
▁conference	-9.64458
▁fresh	-9.64466
▁candy	-9.6452
ttle	-9.64866
▁hammer	-9.64882
▁paddl	-9.64904
▁castle	-9.64927
▁plant	-9.65009
▁l	-9.65025
▁military	-9.65103
▁Sooner	-9.6511
▁choir	-9.65142
▁conversing	-9.65181
▁artist	-9.6524
▁raised	-9.6555
▁maroon	-9.65748
▁courtyard	-9.65755
▁shoe	-9.65998
▁towel	-9.66246
▁umbrellas	-9.66273
▁I	-9.66328
▁goal	-9.6635
▁formal	-9.66531
sized	-9.66577
▁mid	-9.6692
▁bit	-9.67116
ding	-9.67159
▁ring	-9.67495
▁sword	-9.67542
▁st	-9.67589
men	-9.67611
like	-9.67639
or	-9.67741
▁lab	-9.67778
▁guitars	-9.67988
▁round	-9.68027
▁teenagers	-9.68126
▁rolling	-9.68192
▁low	-9.68245
▁fille	-9.68359
▁tattoo	-9.68677
▁hula	-9.69057
▁garage	-9.6906
▁ge	-9.69092
▁shak	-9.69105
▁indoors	-9.69147
▁H	-9.69254
▁skateboarding	-9.69331
▁cheerleaders	-9.69341
ge	-9.69342
▁lights	-9.69346
▁poles	-9.69446
▁cook	-9.69584
▁jumpsuit	-9.69595
▁raise	-9.69645
▁chef	-9.69655
▁podium	-9.69735
▁shade	-9.69865
▁knee	-9.69964
▁re	-9.7008
▁hood	-9.70085
▁shot	-9.70247
▁container	-9.70289
▁move	-9.70413
▁polka	-9.70414
▁third	-9.70426
▁females	-9.70467
▁pan	-9.70474
▁sewing	-9.70475
onto	-9.70496
▁bite	-9.7073
▁follow	-9.70957
▁guard	-9.70957
▁reache	-9.71131
▁loom	-9.71167
▁star	-9.71269
▁helps	-9.71597
▁surrounding	-9.71676
▁ponytail	-9.71792
▁passes	-9.71982
▁dust	-9.72208
▁raft	-9.72548
▁mustache	-9.72691
▁taken	-9.72855
▁sheep	-9.73185
▁Christmas	-9.73186
▁summer	-9.73191
▁cast	-9.7324
▁coach	-9.73258
▁crawl	-9.73334
▁hi	-9.7342
▁nap	-9.73715
▁but	-9.73773
▁stool	-9.73875
▁examine	-9.73875
▁staircase	-9.7389
flops	-9.73912
▁dig	-9.74107
lies	-9.74127
▁blocks	-9.74403
▁motorcycles	-9.74606
▁wheelchair	-9.74606
▁cloudy	-9.74628
▁including	-9.74819
▁O	-9.74887
▁so	-9.74888
king	-9.75233
▁officers	-9.75251
▁belt	-9.75277
▁wrappe	-9.75406
▁fur	-9.75688
▁walls	-9.758
▁heads	-9.75895
▁mix	-9.75943
▁fluffy	-9.76032
▁wetsuit	-9.76041
▁barrel	-9.76126
stic	-9.76128
▁mound	-9.76149
▁leaf	-9.7615
▁laugh	-9.76238
▁knees	-9.76276
looking	-9.76638
▁base	-9.76754
▁orchestra	-9.76758
▁necklace	-9.7676
▁wash	-9.7685
▁weather	-9.76862
▁meeting	-9.76932
▁polo	-9.76964
▁musicians	-9.77441
▁carpet	-9.77514
▁shovels	-9.77521
▁socks	-9.77534
▁underwater	-9.77558
▁splashes	-9.77563
▁eye	-9.77811
▁engine	-9.77838
▁square	-9.7812
▁falling	-9.78156
▁speech	-9.78221
▁possibl	-9.78222
▁redhead	-9.78454
▁lead	-9.7881
▁wagon	-9.78962
▁caught	-9.78965
▁dining	-9.79
▁surface	-9.79013
▁tray	-9.79025
▁mat	-9.79037
▁juggling	-9.79043
▁frame	-9.79092
▁surfing	-9.79257
▁slides	-9.79488
▁most	-9.79567
tle	-9.79667
▁half	-9.79702
▁frisbee	-9.79708
▁naked	-9.79709
▁teeth	-9.79715
▁bottles	-9.79766
▁shadow	-9.79826
▁space	-9.799
▁wire	-9.80186
▁shoveling	-9.80331
▁hallway	-9.80462
▁six	-9.80653
▁moves	-9.80682
im	-9.80727
▁handstand	-9.80749
▁G	-9.81193
▁load	-9.81199
▁silhouette	-9.81219
▁makeup	-9.81257
▁formation	-9.81268
▁wading	-9.81308
▁mom	-9.81336
▁secur	-9.81424
cou	-9.81841
▁clean	-9.8185
amp	-9.81952
▁good	-9.81968
▁creek	-9.81979
▁pattern	-9.81982
▁barber	-9.81991
▁operat	-9.82001
▁knitting	-9.82124
▁streets	-9.82356
ies	-9.82369
▁marti	-9.82706
▁greyhound	-9.82751
▁headscarf	-9.82761
▁weaving	-9.82778
m	-9.82808
▁snowboarder	-9.82897
▁fall	-9.82898
▁pumpkin	-9.83459
▁skier	-9.83661
▁boxes	-9.83758
▁was	-9.84086
colored	-9.84214
▁orienta	-9.84338
▁dune	-9.84341
▁competing	-9.84347
▁bounc	-9.84712
▁backpacks	-9.84883
▁pitch	-9.84972
▁Lit	-9.85017
▁ceiling	-9.85095
▁fabric	-9.85118
▁lounge	-9.85122
▁bank	-9.85123
▁adjust	-9.85137
▁E	-9.85177
▁skating	-9.8529
ted	-9.85348
▁examin	-9.85486
▁Li	-9.85755
▁chicken	-9.85842
▁Crowd	-9.85885
▁transportation	-9.85891
▁neon	-9.85964
▁Lad	-9.86459
▁mini	-9.86594
▁pit	-9.86604
▁sale	-9.86774
."	-9.87204
▁individual	-9.87457
▁pen	-9.87605
▁pipe	-9.87612
▁buckets	-9.87678
▁Boys	-9.87754
▁fast	-9.87833
▁herself	-9.88347
▁shoot	-9.88408
▁skateboarder	-9.88452
▁bow	-9.88667
▁gun	-9.88723
▁multi	-9.8895
▁branch	-9.89049
▁stump	-9.89158
▁heart	-9.89266
▁bricks	-9.89419
▁palm	-9.89949
▁item	-9.89956
▁lunch	-9.89989
S	-9.89998
▁pieces	-9.90232
▁tackle	-9.90655
▁gymnast	-9.90774
▁luggage	-9.90785
▁visible	-9.90897
▁members	-9.91386
rtial	-9.91417
▁shape	-9.91427
ized	-9.91634
▁boardwalk	-9.91637
▁attend	-9.9173
side	-9.91774
unny	-9.91826
▁papers	-9.92013
us	-9.92053
▁professional	-9.9248
▁tube	-9.92695
▁co	-9.92748
▁caps	-9.92967
▁birds	-9.92969
▁read	-9.92993
▁crouche	-9.93177
▁happily	-9.93327
▁married	-9.93329
▁crosswalk	-9.93344
▁kiss	-9.93398
▁bushes	-9.93418
red	-9.93664
▁warm	-9.94154
▁Chin	-9.94253
▁song	-9.9447
by	-9.94764
▁folding	-9.94838
▁skis	-9.94894
▁objects	-9.94938
▁museum	-9.95066
▁magazine	-9.95089
▁lamp	-9.95227
▁lane	-9.95269
nim	-9.95278
▁jerseys	-9.9534
▁hike	-9.95363
▁bei	-9.95576
le	-9.95757
musement	-9.95894
▁sniff	-9.95933
▁bouquet	-9.95936
▁library	-9.95936
▁television	-9.95938
▁club	-9.95947
▁haircut	-9.95957
▁tricycle	-9.95976
▁direction	-9.95983
▁clouds	-9.96139
▁bu	-9.96173
▁opposi	-9.96231
▁driver	-9.96268
▁cooks	-9.9627
▁start	-9.96509
▁colors	-9.96688
▁similar	-9.96821
▁teach	-9.9688
▁hillside	-9.96896
▁trailer	-9.97016
▁doll	-9.97138
▁customers	-9.97271
▁youth	-9.97684
▁crane	-9.97726
▁spread	-9.97734
▁tub	-9.97747
▁pretend	-9.97841
shirts	-9.98022
▁bars	-9.98363
▁coloring	-9.98404
▁presentation	-9.98622
▁airplane	-9.98635
▁musician	-9.98694
▁liquid	-9.98742
▁opposit	-9.99049
th	-9.99129
▁sets	-9.99218
▁vehicles	-9.99329
▁marketplace	-9.9953
▁me	-9.99532
▁wind	-9.99546
ped	-9.99565
▁suitcase	-9.99597
▁buy	-9.9962
▁american	-9.99694
▁rais	-9.99775
▁paddle	-10.0012
▁rug	-10.0013
of	-10.0029
▁dish	-10.0036
▁roll	-10.0039
▁advertisement	-10.0054
▁reflection	-10.0061
▁african	-10.008
▁watched	-10.008
▁you	-10.0111
▁fetch	-10.0128
▁pack	-10.0134
▁still	-10.0138
▁headband	-10.0139
ten	-10.0139
it	-10.0144
▁job	-10.0145
▁beverage	-10.0146
▁seats	-10.0155
▁wings	-10.0184
▁candles	-10.0194
▁knit	-10.0207
▁waters	-10.0229
▁outstretched	-10.0235
▁arena	-10.0255
▁checker	-10.0273
▁farm	-10.0282
▁bounce	-10.0284
▁drum	-10.0287
▁i	-10.031
▁direct	-10.0313
▁stroll	-10.0322
▁escalator	-10.0325
▁dimly	-10.0326
x	-10.0328
▁closeup	-10.0329
▁pillow	-10.0335
▁shake	-10.0337
▁saxophone	-10.0337
▁shin	-10.0337
▁airport	-10.0355
▁robes	-10.0363
▁crosses	-10.0383
▁thumbs	-10.0384
▁lines	-10.0405
▁rough	-10.0407
▁rural	-10.0421
▁observing	-10.0424
▁backdrop	-10.0424
▁wheelbarrow	-10.0431
teal	-10.0442
▁backwards	-10.0445
▁converse	-10.0456
able	-10.0476
▁rainbow	-10.0516
▁factory	-10.0516
▁intersection	-10.0516
▁power	-10.0517
▁catcher	-10.0531
▁slope	-10.0532
▁order	-10.0535
▁scaffold	-10.0537
▁Larg	-10.0551
▁cheek	-10.0557
ts	-10.0596
▁spoon	-10.0628
▁bucking	-10.0641
▁marching	-10.0645
down	-10.0705
▁cone	-10.0705
▁K	-10.0706
▁clown	-10.0711
▁strange	-10.0713
▁position	-10.0714
▁wrestling	-10.0717
▁dot	-10.0719
▁r	-10.0719
▁singer	-10.0731
▁fingers	-10.075
▁den	-10.0752
▁joy	-10.0769
ree	-10.0785
▁stripes	-10.0794
▁bowls	-10.0805
h	-10.081
▁step	-10.0816
▁begin	-10.0816
▁paddles	-10.0827
▁scub	-10.0829
▁hall	-10.084
▁rowing	-10.0844
▁plates	-10.0877
▁cards	-10.0894
▁cricket	-10.091
▁cardboard	-10.091
▁forward	-10.0912
▁flo	-10.0914
▁poster	-10.0935
▁cover	-10.0955
▁patch	-10.0958
round	-10.0963
▁participat	-10.0963
▁larger	-10.0967
serving	-10.0997
▁York	-10.101
▁steel	-10.1012
▁serve	-10.102
ty	-10.1022
▁iron	-10.1035
▁tattoos	-10.1037
▁smoke	-10.1061
▁goat	-10.107
▁cheering	-10.1072
▁Football	-10.1113
▁telescope	-10.1113
▁coaster	-10.1116
▁though	-10.1121
▁turned	-10.1182
▁link	-10.1184
▁ha	-10.1186
▁knife	-10.1216
▁messy	-10.1222
▁student	-10.1235
apan	-10.1236
▁evening	-10.1247
▁tools	-10.1254
▁first	-10.1267
▁runner	-10.1304
ent	-10.1312
▁pushe	-10.1324
▁employee	-10.1347
▁rows	-10.1394
▁bear	-10.1394
▁strip	-10.14
ake	-10.142
▁bicyclist	-10.1421
▁entertain	-10.1424
▁jungle	-10.1425
▁jewelry	-10.1425
▁juice	-10.1426
▁softball	-10.1426
▁flute	-10.1434
▁skiers	-10.1439
▁name	-10.144
▁apply	-10.1453
▁carry	-10.1462
▁doors	-10.1465
▁gown	-10.1478
▁duck	-10.1479
▁drive	-10.1484
▁jeep	-10.1531
▁Oklahoma	-10.1532
▁monument	-10.1532
▁intently	-10.1532
▁approach	-10.154
itting	-10.1544
▁sink	-10.1553
▁follows	-10.1555
▁kilt	-10.1556
nding	-10.1556
▁chefs	-10.1556
▁fan	-10.1584
line	-10.1614
▁tug	-10.162
▁interact	-10.163
▁neighborhood	-10.164
▁Caucasian	-10.164
▁ceremony	-10.164
▁sofa	-10.164
▁clay	-10.1648
▁tower	-10.1648
▁tea	-10.1654
▁tee	-10.1659
▁flight	-10.1659
▁pedestrians	-10.1662
▁skate	-10.1663
▁trunk	-10.1663
▁ropes	-10.1665
▁broom	-10.1676
▁Dogs	-10.1736
▁babies	-10.1748
▁puppies	-10.1748
▁partially	-10.1748
▁soda	-10.1749
▁leav	-10.1778
▁garb	-10.1857
▁sandwich	-10.1858
▁racetrack	-10.1858
▁finish	-10.1868
f	-10.1868
▁taxi	-10.1891
▁parachute	-10.1893
▁kite	-10.1896
▁stir	-10.195
▁share	-10.1961
▁writ	-10.1967
▁attention	-10.1971
▁tulips	-10.1974
▁playfully	-10.1975
▁collect	-10.1979
▁disc	-10.1985
▁suspende	-10.2024
▁places	-10.2025
▁camping	-10.2037
go	-10.2042
▁reflect	-10.2055
▁chalk	-10.2081
▁laundry	-10.2081
▁hotel	-10.2082
▁squats	-10.2098
▁enter	-10.21
▁skirts	-10.2105
▁electronic	-10.2109
▁vegetable	-10.211
▁brother	-10.2113
ated	-10.2127
▁contain	-10.2152
▁support	-10.216
ter	-10.2186
▁suspenders	-10.2197
▁goods	-10.2203
▁called	-10.2207
▁snowboard	-10.2223
▁sprinkler	-10.2228
▁bay	-10.2231
ered	-10.2233
▁operate	-10.2238
i	-10.2249
nt	-10.2287
▁expression	-10.2311
▁demonstration	-10.2312
▁bath	-10.2315
▁cows	-10.2318
▁gymnastics	-10.2319
▁underground	-10.2319
▁stirr	-10.232
▁broken	-10.2326
▁corn	-10.2327
▁tourist	-10.2342
▁pigeons	-10.2353
▁cape	-10.2369
▁dancers	-10.237
▁motion	-10.2382
▁plane	-10.2394
▁trop	-10.2406
eign	-10.2426
▁narrow	-10.2426
▁shepherd	-10.2426
▁driveway	-10.2427
▁college	-10.2428
▁branches	-10.2437
co	-10.2454
▁firefighter	-10.2458
▁monitor	-10.2459
rubber	-10.2465
▁fa	-10.2476
▁apartment	-10.2486
▁passengers	-10.2488
▁map	-10.2492
▁lifted	-10.2496
▁balding	-10.2497
▁tied	-10.2499
▁arch	-10.2512
▁odd	-10.2522
ce	-10.2536
▁plaza	-10.2544
▁Her	-10.2558
dust	-10.2567
▁member	-10.2578
▁bound	-10.2578
▁peers	-10.2578
▁gift	-10.2579
▁bagpipes	-10.2586
▁baskets	-10.2586
wards	-10.2593
war	-10.2618
rs	-10.2635
▁pots	-10.2639
ither	-10.2651
▁excited	-10.2655
▁curb	-10.2662
▁fisherman	-10.2665
▁unicycle	-10.2666
▁lo	-10.2674
▁wrestle	-10.2682
▁hugs	-10.2684
▁cleans	-10.2693
▁parents	-10.2693
▁drummer	-10.2697
▁oven	-10.2709
if	-10.2711
▁case	-10.2724
▁kayaking	-10.2735
▁listen	-10.2737
▁flipp	-10.2747
rial	-10.2766
▁touch	-10.2778
▁complete	-10.2778
▁single	-10.2785
▁highway	-10.2786
▁sneakers	-10.2788
▁camp	-10.2795
▁beads	-10.2799
▁nature	-10.2803
▁surfer	-10.2817
▁exit	-10.282
▁motorbike	-10.282
ist	-10.2822
▁bridesmaids	-10.2824
nd	-10.283
▁mall	-10.2833
▁fruits	-10.2836
▁range	-10.2836
c	-10.2843
ll	-10.2859
▁splash	-10.2875
▁live	-10.2882
▁slacks	-10.2905
▁chainsaw	-10.2905
▁discussion	-10.2906
▁carefully	-10.2906
▁keep	-10.2912
▁steam	-10.2915
▁heels	-10.2925
ping	-10.2925
▁descend	-10.2927
▁pins	-10.2934
te	-10.2936
▁studio	-10.294
▁camel	-10.2951
▁guitarist	-10.2952
▁land	-10.2955
▁benches	-10.2962
▁pitcher	-10.2979
ment	-10.3005
▁routine	-10.3029
▁dreadlocks	-10.3029
cy	-10.304
▁gas	-10.304
▁crown	-10.3044
▁jet	-10.3053
▁hoop	-10.3059
▁style	-10.309
▁performers	-10.3112
▁smokes	-10.312
▁bare	-10.3125
▁medium	-10.3154
▁rings	-10.3161
▁Mother	-10.3162
▁information	-10.3173
▁vari	-10.3185
▁mannequin	-10.3195
▁cobblestone	-10.3195
▁protest	-10.3197
▁mop	-10.32
▁cave	-10.3214
▁we	-10.3216
▁crouching	-10.3217
▁grand	-10.3238
▁variet	-10.3241
▁scen	-10.3269
flies	-10.3278
▁menu	-10.3279
▁army	-10.3289
▁AT	-10.3312
▁hind	-10.3335
▁done	-10.3345
▁pre	-10.3346
▁tires	-10.3377
▁cones	-10.3378
awaii	-10.3381
▁tend	-10.3389
▁dusk	-10.3408
▁grab	-10.3411
▁draw	-10.3421
▁discussing	-10.3437
▁tricks	-10.3449
▁highchair	-10.3454
▁blankets	-10.3468
▁tiles	-10.3476
▁sweep	-10.3477
▁creat	-10.3486
ant	-10.35
▁record	-10.3504
▁control	-10.3509
▁directions	-10.3533
▁wife	-10.3538
▁campfire	-10.3538
▁beanie	-10.354
▁celebrating	-10.3542
▁curve	-10.3545
wood	-10.3551
▁ornate	-10.3577
▁stretching	-10.3583
▁teacher	-10.3587
E	-10.3597
▁aprons	-10.3614
▁fu	-10.3614
▁laptops	-10.3638
▁marathon	-10.367
▁dumpster	-10.367
▁furniture	-10.367
▁pe	-10.3671
▁yarn	-10.3671
▁peace	-10.3692
▁carts	-10.3698
age	-10.3703
▁embrace	-10.3708
▁turban	-10.371
▁cage	-10.3715
▁design	-10.3723
▁athlete	-10.3726
▁bass	-10.3734
▁perche	-10.3741
American	-10.3749
▁cheer	-10.3756
▁form	-10.3765
▁gaze	-10.3775
▁skateboards	-10.3779
▁protecti	-10.3785
▁sad	-10.379
▁beverages	-10.3791
born	-10.38
▁tripod	-10.3803
▁goalie	-10.3804
▁ta	-10.3805
▁pigtails	-10.3809
▁Blue	-10.3809
ian	-10.3811
▁rapids	-10.3812
▁furr	-10.3818
▁Famil	-10.3828
▁ages	-10.3834
▁barrier	-10.3853
▁owner	-10.3853
id	-10.3857
▁nail	-10.3861
▁pause	-10.3885
▁athlet	-10.3885
▁wakeboard	-10.3891
▁sleep	-10.3899
▁point	-10.3917
▁stopp	-10.3929
▁frozen	-10.3938
▁elephant	-10.3938
▁pathway	-10.3943
▁color	-10.3956
▁tents	-10.3961
▁machines	-10.3965
▁candle	-10.3991
▁exercise	-10.3991
neath	-10.3992
▁punching	-10.3995
▁stripe	-10.4022
▁peek	-10.4043
▁retriev	-10.4046
▁climbers	-10.4056
▁tight	-10.4066
▁exhibit	-10.4075
▁bleachers	-10.4075
▁mechanic	-10.4075
▁pale	-10.4085
sh	-10.4112
▁tackled	-10.4123
p	-10.4126
▁Polic	-10.4132
▁loca	-10.4151
▁hut	-10.4162
weight	-10.417
▁tag	-10.4171
ead	-10.418
▁photographs	-10.4182
▁wi	-10.4213
▁statues	-10.4213
▁shawl	-10.4214
▁entrance	-10.4214
▁shaggy	-10.4214
▁blood	-10.4218
▁build	-10.4235
▁pin	-10.426
▁need	-10.4265
▁medi	-10.4265
▁billboard	-10.4269
▁motorcyclist	-10.427
▁cool	-10.4306
▁ahead	-10.4328
▁canvas	-10.4355
▁Shepherd	-10.4355
▁crab	-10.4358
▁cans	-10.4365
▁compete	-10.4365
▁riders	-10.4367
▁act	-10.4368
▁jogs	-10.4368
▁participate	-10.438
▁autumn	-10.4387
▁glove	-10.4391
▁theater	-10.4401
▁wheels	-10.4402
▁thin	-10.4409
▁boulder	-10.4409
▁retriever	-10.4411
▁It	-10.4429
▁observes	-10.4432
▁craft	-10.4439
ature	-10.4439
▁placed	-10.4442
▁backs	-10.4453
ar	-10.447
▁purses	-10.4478
▁flat	-10.4483
▁motor	-10.4493
▁notebook	-10.4498
▁carriage	-10.4498
▁slightly	-10.4499
▁calm	-10.45
▁trumpet	-10.45
▁downtown	-10.4501
▁tr	-10.4515
▁interest	-10.4521
▁fold	-10.4526
▁photos	-10.4526
▁indian	-10.4528
▁beers	-10.4547
▁tri	-10.4561
▁presents	-10.4568
▁fly	-10.458
▁bundle	-10.4609
▁engag	-10.4609
▁razor	-10.4642
▁terrain	-10.4643
▁smooth	-10.4643
▁relax	-10.4646
▁moment	-10.4647
▁overhead	-10.4659
▁learn	-10.4664
▁bik	-10.4681
▁action	-10.4684
▁stars	-10.4691
▁teen	-10.4701
2	-10.4711
▁storefront	-10.4714
▁crafts	-10.4728
treet	-10.4731
▁crossed	-10.4731
▁write	-10.4738
▁midst	-10.4739
▁pet	-10.4758
▁drag	-10.4761
▁scooters	-10.4772
▁call	-10.4772
▁film	-10.4785
aring	-10.4788
▁cotton	-10.479
▁telephone	-10.479
▁stilts	-10.4791
▁kisses	-10.4804
▁hoops	-10.4815
▁waterway	-10.4826
▁burn	-10.4832
▁toss	-10.4833
▁card	-10.4855
▁teenager	-10.4871
▁farmer	-10.4877
▁observe	-10.4885
▁tuba	-10.4908
▁tricycles	-10.4933
▁contest	-10.4938
▁sync	-10.4938
lit	-10.4939
▁banjo	-10.4939
▁visor	-10.4939
▁butterfly	-10.494
ation	-10.4942
▁yo	-10.4948
▁repairs	-10.4954
▁Friend	-10.4958
▁aisle	-10.4975
▁venue	-10.4977
▁firetruck	-10.5005
▁muzzle	-10.5005
nny	-10.501
▁almost	-10.5017
▁deliver	-10.5024
ative	-10.5025
▁lips	-10.5029
▁landing	-10.5032
▁diver	-10.5086
▁portrait	-10.5091
▁upon	-10.5107
▁mountainside	-10.5109
aby	-10.5113
▁microphones	-10.5134
▁crates	-10.5138
▁waist	-10.5159
▁Ba	-10.5159
▁pu	-10.5169
▁real	-10.518
▁wild	-10.5205
▁sides	-10.5215
camera	-10.5219
▁mouths	-10.5222
▁loung	-10.5241
▁soft	-10.5244
▁chalkboard	-10.5245
▁Male	-10.5256
▁newspapers	-10.5269
▁huddle	-10.5279
▁fireman	-10.5301
▁masks	-10.5308
▁stepp	-10.531
▁po	-10.5311
▁hurdle	-10.5315
midst	-10.5317
▁hotdog	-10.5318
ack	-10.5334
▁checkers	-10.5352
cal	-10.537
ight	-10.537
mobile	-10.5393
▁meadow	-10.54
▁Market	-10.54
▁modern	-10.5402
▁nighttime	-10.5402
erous	-10.5413
▁mo	-10.5414
▁sing	-10.5426
▁scale	-10.5451
▁photographed	-10.547
▁cups	-10.5471
▁material	-10.5474
▁training	-10.5481
▁include	-10.5502
zzy	-10.5508
sses	-10.5518
▁shops	-10.5525
gets	-10.5526
▁dump	-10.5548
▁doctor	-10.5559
▁auditorium	-10.5559
▁canyon	-10.5559
▁City	-10.5562
▁mural	-10.5562
▁breakdancing	-10.5563
finished	-10.5573
▁seven	-10.5575
▁involv	-10.5589
▁stall	-10.5597
▁sprays	-10.5606
▁gathers	-10.5667
▁carv	-10.5667
▁angels	-10.5695
▁tackl	-10.5699
▁foggy	-10.572
▁target	-10.572
▁snake	-10.572
▁identical	-10.5721
▁semi	-10.5721
▁Spider	-10.5722
▁quickly	-10.5722
▁process	-10.5724
▁robot	-10.5725
▁chopp	-10.573
▁protection	-10.573
▁We	-10.5731
hron	-10.5732
▁flood	-10.5741
▁zone	-10.5749
▁punch	-10.575
▁bush	-10.5756
▁treat	-10.576
▁bib	-10.5761
▁teammates	-10.5776
um	-10.5777
▁spots	-10.5791
▁passenger	-10.58
▁upward	-10.5809
C	-10.5819
▁maintenance	-10.5884
▁stairway	-10.5885
▁native	-10.5885
▁toilet	-10.5885
▁crib	-10.5885
▁rollerblading	-10.589
▁cries	-10.589
▁village	-10.5891
▁shadows	-10.5904
▁traveling	-10.5939
ee	-10.5942
op	-10.5949
▁cho	-10.596
▁pie	-10.5966
▁construct	-10.597
W	-10.5984
▁pa	-10.5994
▁flora	-10.5997
▁leap	-10.6007
▁word	-10.6014
▁rack	-10.6015
leading	-10.6027
▁pret	-10.6049
▁vacuum	-10.6051
▁squirt	-10.6051
▁religio	-10.6051
▁homemade	-10.6052
▁sunlight	-10.6052
▁arcade	-10.6053
▁measuring	-10.6056
▁dragon	-10.6059
▁drain	-10.6069
eather	-10.607
▁Green	-10.6073
▁moped	-10.6073
uck	-10.6075
▁league	-10.6089
▁lick	-10.6089
country	-10.609
▁chin	-10.6096
▁folded	-10.6096
ite	-10.6116
▁tuxedo	-10.6135
▁customer	-10.6136
▁thick	-10.6147
▁faci	-10.6155
▁games	-10.6161
▁dancer	-10.6174
▁tourists	-10.6175
▁wires	-10.6214
▁pizza	-10.622
▁marble	-10.622
▁School	-10.622
▁puppet	-10.622
▁stomach	-10.622
▁airborne	-10.622
▁railway	-10.6221
▁pottery	-10.6226
▁rally	-10.6227
▁rollerskating	-10.6232
ustic	-10.6234
▁letters	-10.6241
▁Wii	-10.6245
▁built	-10.6251
▁shaves	-10.6266
▁shar	-10.6277
▁search	-10.6278
▁notes	-10.6278
▁ben	-10.6279
▁stunt	-10.631
▁protesting	-10.6323
▁hav	-10.6324
▁trip	-10.6325
▁advertis	-10.6351
▁gentlem	-10.6388
▁Elder	-10.6393
▁bulldozer	-10.6393
▁straight	-10.6393
▁While	-10.6393
▁clapping	-10.6393
▁conductor	-10.6393
▁shoreline	-10.6396
▁tablecloth	-10.6396
▁tomatoes	-10.6398
▁chatting	-10.64
▁beat	-10.6401
▁shaved	-10.6404
▁batter	-10.6428
▁wh	-10.6448
▁wrap	-10.6461
ie	-10.6471
▁Lo	-10.648
▁cab	-10.6496
▁cyclist	-10.65
▁teens	-10.6512
▁painter	-10.6526
▁tail	-10.6539
▁scal	-10.6549
▁speak	-10.6562
▁Multi	-10.6568
▁valley	-10.6568
▁parasail	-10.657
▁wares	-10.6576
▁scrubs	-10.6586
▁task	-10.6608
▁Asia	-10.6616
ion	-10.6616
▁jumped	-10.6622
▁fishes	-10.6655
▁engage	-10.667
ny	-10.6676
de	-10.668
▁rod	-10.6683
▁apples	-10.6693
▁own	-10.6721
▁brid	-10.6727
▁bell	-10.6739
▁rose	-10.6746
▁bamboo	-10.6747
▁monkey	-10.6747
▁hammock	-10.6747
▁leotard	-10.6747
▁bathtub	-10.6747
▁reception	-10.6747
▁briefcase	-10.6747
▁eyeglasses	-10.6748
the	-10.6757
▁knock	-10.6758
▁lecture	-10.6765
▁circu	-10.6765
▁emergency	-10.6773
▁panel	-10.6773
▁belly	-10.6778
▁columns	-10.678
▁strollers	-10.6782
iny	-10.6782
▁woode	-10.6798
▁mill	-10.6806
▁soldiers	-10.6819
▁cabinet	-10.6842
▁trot	-10.6843
akes	-10.6848
▁organ	-10.6851
▁demonstrat	-10.6861
▁bra	-10.6868
▁listens	-10.6882
▁ja	-10.6906
▁Dee	-10.6921
▁chisel	-10.6928
▁celebration	-10.6929
▁butcher	-10.6929
▁trashcan	-10.6929
▁company	-10.693
▁trench	-10.6934
▁burger	-10.6946
▁crash	-10.6946
▁rink	-10.6952
▁burg	-10.696
▁crayons	-10.6961
hirtless	-10.6962
▁Band	-10.698
▁bring	-10.6984
ular	-10.7002
▁He	-10.7011
▁barefooted	-10.7023
▁guide	-10.7027
▁snack	-10.7031
▁marker	-10.7034
wn	-10.7037
▁tour	-10.7037
et	-10.7044
und	-10.7048
▁logs	-10.7079
ning	-10.7092
▁piggyback	-10.7114
▁environment	-10.7114
▁sculptor	-10.7114
▁warehouse	-10.7114
▁covers	-10.7115
▁lush	-10.712
▁install	-10.7126
▁mixer	-10.7127
▁protect	-10.7134
▁coast	-10.7143
▁ex	-10.7153
▁snowball	-10.7156
cart	-10.716
▁cookie	-10.7183
▁rag	-10.7184
u	-10.7188
▁words	-10.7197
▁kiosk	-10.7214
▁turkey	-10.7216
▁hotdogs	-10.7216
▁opponent	-10.7216
▁boards	-10.7222
way	-10.7235
▁di	-10.7251
nning	-10.7258
▁test	-10.7271
ith	-10.7278
oddler	-10.7281
▁ei	-10.7287
▁catche	-10.7288
ohn	-10.729
▁'	-10.7291
ipping	-10.7298
▁slic	-10.7299
▁Cafe	-10.7302
▁Dark	-10.7302
▁foliage	-10.7302
▁yawning	-10.7303
▁pocket	-10.7304
▁rooftop	-10.7318
▁descent	-10.732
▁separate	-10.733
▁will	-10.7341
▁scarves	-10.7351
▁paws	-10.7353
▁foam	-10.7356
▁yelling	-10.7369
▁artists	-10.7395
▁tired	-10.7404
▁praying	-10.7405
▁fr	-10.7407
▁elevator	-10.7409
▁dive	-10.7412
k	-10.7417
▁mug	-10.743
▁strike	-10.7433
▁snowboarding	-10.7434
▁march	-10.7451
▁crouch	-10.7453
ily	-10.7456
▁o	-10.7465
▁apart	-10.7477
▁hospital	-10.7495
▁gymnasium	-10.7495
▁salad	-10.7495
▁Customer	-10.7499
▁underwear	-10.75
▁grabb	-10.7504
▁zip	-10.751
ried	-10.7511
▁su	-10.7518
more	-10.7519
▁steer	-10.7527
▁closely	-10.753
▁whole	-10.7531
▁tv	-10.7538
▁plac	-10.7554
▁shower	-10.7556
▁sipp	-10.7564
▁shi	-10.7566
▁gestures	-10.7577
▁plain	-10.7613
▁goe	-10.7613
▁weld	-10.7621
▁free	-10.7632
T	-10.7641
▁Close	-10.7649
▁retrieve	-10.7655
▁Ma	-10.7667
▁quarterback	-10.7691
▁Musician	-10.7692
▁signing	-10.7694
▁skyline	-10.7694
▁socializing	-10.7695
▁blurry	-10.7696
ving	-10.7699
▁barbecuing	-10.7701
▁label	-10.7703
ling	-10.7708
▁speed	-10.7732
▁containers	-10.774
▁feather	-10.7742
▁artwork	-10.7743
▁guards	-10.7757
▁stones	-10.7764
▁receiv	-10.7771
▁ra	-10.7773
▁spinn	-10.7779
▁designs	-10.7804
▁ribbon	-10.7804
▁pancake	-10.7805
▁pillar	-10.7828
▁pig	-10.783
lar	-10.7836
ex	-10.7845
▁peak	-10.787
▁hills	-10.7887
▁flu	-10.7889
▁horizon	-10.789
▁alcohol	-10.789
▁resort	-10.7891
▁maneuver	-10.7891
▁forehead	-10.7891
▁injured	-10.7892
▁pipes	-10.7904
▁stay	-10.7909
▁section	-10.7918
▁sight	-10.7918
▁approaches	-10.7919
▁remove	-10.7926
as	-10.7936
▁n	-10.7947
▁bung	-10.7957
▁fell	-10.798
style	-10.7984
I	-10.8001
b	-10.8003
rench	-10.8006
ace	-10.8037
▁focus	-10.8048
▁remov	-10.8051
▁guns	-10.8055
ather	-10.8059
ike	-10.8073
▁booths	-10.8089
KitchenAid	-10.8091
▁avoid	-10.8094
▁intense	-10.8095
▁binoculars	-10.8095
▁graduation	-10.8095
▁may	-10.8096
▁scenery	-10.8096
▁groceries	-10.8097
▁relay	-10.8097
▁soap	-10.8097
▁Mc	-10.8099
▁belongings	-10.8101
Don	-10.8107
▁grills	-10.8109
▁adorn	-10.8125
▁things	-10.8132
▁stoop	-10.8139
▁rafting	-10.8148
▁model	-10.817
un	-10.8176
▁mass	-10.8178
▁wrapp	-10.8183
▁spike	-10.8198
▁patient	-10.8205
stern	-10.8221
▁sack	-10.8263
▁singers	-10.8276
▁tops	-10.8291
▁gallery	-10.8303
▁aquarium	-10.8303
▁elaborate	-10.8303
▁merchandise	-10.8303
▁pressure	-10.8303
▁backseat	-10.8304
▁mower	-10.8305
▁shelf	-10.8306
▁daytime	-10.8306
enga	-10.8306
▁twirl	-10.8308
▁paw	-10.8313
▁downhill	-10.8315
▁missing	-10.8316
▁baked	-10.8316
▁stocking	-10.832
▁sidelines	-10.8321
▁formally	-10.8358
▁gaz	-10.8361
oman	-10.8361
tter	-10.8377
▁struggle	-10.8379
▁baton	-10.8381
▁aim	-10.8389
▁ballet	-10.8391
▁assist	-10.8397
▁waterfront	-10.8408
ga	-10.8415
▁stretch	-10.8427
▁handle	-10.843
▁referee	-10.843
▁cheerleader	-10.843
▁soldier	-10.843
▁apple	-10.8458
▁gesture	-10.8458
▁spotte	-10.8471
tuck	-10.8483
▁stores	-10.8497
▁speaker	-10.8508
▁railings	-10.8509
▁far	-10.851
▁progress	-10.8516
▁Greyhound	-10.8516
▁ingredients	-10.8516
▁cityscape	-10.8516
▁staff	-10.8516
▁cherry	-10.8516
▁riverbank	-10.8516
▁Orange	-10.8517
▁footballer	-10.8523
white	-10.8524
▁extended	-10.8526
▁sip	-10.853
▁pulley	-10.8538
▁braid	-10.854
▁utilit	-10.8556
▁visit	-10.8577
▁spot	-10.86
den	-10.8619
▁Worker	-10.865
▁clearing	-10.8651
▁gri	-10.8653
▁saying	-10.8656
▁attack	-10.8674
▁lower	-10.868
▁numbered	-10.8691
▁stre	-10.8718
▁toddlers	-10.8721
eep	-10.8722
▁umpire	-10.8733
▁heavily	-10.8733
▁companion	-10.8733
▁hamburger	-10.8733
▁review	-10.8734
▁buffet	-10.8735
▁overpass	-10.8736
▁pony	-10.8737
▁patiently	-10.8742
tic	-10.8744
▁soup	-10.8757
▁olive	-10.8758
▁transit	-10.8759
ke	-10.8765
O	-10.8767
▁screaming	-10.8768
ded	-10.8774
▁studying	-10.8786
ful	-10.879
▁dragg	-10.8794
▁canal	-10.8797
▁watermelons	-10.8797
rass	-10.8803
▁sha	-10.8852
▁tags	-10.8853
▁weave	-10.8857
▁banana	-10.887
▁complet	-10.8877
▁receive	-10.8882
▁parka	-10.889
▁fist	-10.8907
▁pad	-10.8922
▁wand	-10.8924
▁colli	-10.8926
il	-10.893
▁clut	-10.8948
▁opened	-10.8949
▁Chi	-10.8954
▁pinata	-10.8955
▁jockey	-10.8955
▁spatula	-10.8955
▁Muslim	-10.8955
▁harmonica	-10.8955
▁contraption	-10.8955
▁dolphin	-10.8955
▁newlywed	-10.8955
▁sundress	-10.8957
▁goatee	-10.8958
▁bedroom	-10.8959
▁terrier	-10.8963
▁sculpting	-10.8965
▁travel	-10.8967
▁mark	-10.8981
▁pr	-10.8982
▁stained	-10.8984
cast	-10.8985
▁peer	-10.9013
▁poor	-10.9015
suit	-10.9018
ental	-10.9021
▁lion	-10.9022
ball	-10.9029
▁products	-10.903
▁bananas	-10.9041
▁attractive	-10.9042
▁horns	-10.9044
▁soak	-10.9058
ald	-10.9086
▁headdress	-10.9087
▁sound	-10.9092
ries	-10.9093
▁chat	-10.9093
▁pigeon	-10.9097
▁jackhammer	-10.9097
▁washer	-10.9104
ck	-10.9105
▁canoes	-10.9126
▁greet	-10.9127
ear	-10.9154
B	-10.9165
▁magazines	-10.9175
▁e	-10.9177
▁Santa	-10.9182
▁morning	-10.9183
▁answer	-10.9183
▁wheelie	-10.9185
ally	-10.9185
▁sparks	-10.9186
▁raincoat	-10.9188
▁projector	-10.919
▁cartwheel	-10.919
eval	-10.9191
▁else	-10.9193
▁wade	-10.9197
▁decorations	-10.9198
waiting	-10.9199
▁Si	-10.9199
▁upright	-10.9205
▁sketch	-10.9212
▁aqua	-10.9216
▁split	-10.9221
▁businessman	-10.9229
▁recent	-10.9261
om	-10.9263
▁ladders	-10.9263
▁drop	-10.9287
▁shield	-10.9288
▁classic	-10.9301
last	-10.931
▁fashion	-10.9321
ift	-10.9331
▁package	-10.9337
▁Work	-10.9352
ine	-10.9357
were	-10.936
▁pans	-10.9369
P	-10.9383
edestrians	-10.9409
▁sail	-10.9413
▁Couple	-10.9415
▁awning	-10.9415
▁lipstick	-10.9415
▁breakfast	-10.9415
▁convention	-10.9415
▁lobby	-10.9415
▁Smiling	-10.9415
▁consist	-10.9415
bee	-10.9416
▁cheerleading	-10.9417
▁Hu	-10.9421
▁found	-10.9425
▁flor	-10.9427
▁China	-10.943
▁typ	-10.9436
▁roadside	-10.9453
▁sunhat	-10.9479
▁grin	-10.9493
▁slip	-10.9502
wheel	-10.9504
body	-10.9513
▁score	-10.9527
▁tape	-10.9528
▁cellphones	-10.9537
sing	-10.9539
▁chip	-10.9556
▁Female	-10.9565
▁question	-10.9567
▁bagpipe	-10.9568
▁plank	-10.9577
▁photographers	-10.9577
led	-10.9578
▁product	-10.9596
▁Da	-10.9617
▁skates	-10.9645
▁pop	-10.9649
▁metro	-10.9653
▁harbor	-10.9653
▁christmas	-10.9653
▁excitement	-10.9653
▁harvest	-10.9653
▁paintbrush	-10.9653
▁capture	-10.966
▁apparent	-10.966
▁surprised	-10.9664
tion	-10.9666
▁bronco	-10.9668
dressed	-10.967
▁greenery	-10.967
▁sausages	-10.9683
▁early	-10.9697
▁served	-10.9706
▁cords	-10.9712
▁bo	-10.9717
ary	-10.9725
▁tongs	-10.973
▁waterskiing	-10.973
▁la	-10.9731
▁tattooed	-10.9732
▁relaxe	-10.9734
▁focuse	-10.9738
▁system	-10.9748
▁marking	-10.9753
▁fork	-10.9777
▁rid	-10.979
▁con	-10.98
▁jack	-10.9807
▁scoop	-10.9808
▁sailboat	-10.9811
▁embrac	-10.9826
▁picks	-10.9847
▁sp	-10.9848
el	-10.985
illy	-10.9854
▁assembl	-10.988
five	-10.9887
▁quiet	-10.9888
▁milk	-10.9896
▁mascot	-10.9897
▁fatigue	-10.9897
▁unusual	-10.9897
▁hopscotch	-10.9897
▁innertube	-10.9897
▁laboratory	-10.9897
▁footprints	-10.9897
▁fireplace	-10.9898
▁basement	-10.9898
▁headset	-10.9905
▁cylinder	-10.9911
▁circuit	-10.9914
▁cargo	-10.9919
▁skills	-10.9919
▁en	-10.9921
▁sca	-10.9925
▁guests	-10.9925
cial	-10.9929
▁join	-10.993
▁roast	-10.9933
cular	-10.9934
▁moss	-10.9936
rid	-10.9936
ility	-10.994
pider	-10.9942
echnician	-10.9942
▁jumpsuits	-10.9958
▁goof	-10.9962
▁got	-10.9964
▁cooked	-10.9978
▁sailing	-10.9978
pplies	-10.9979
▁Adults	-10.9987
erry	-10.999
dot	-11.0015
▁retai	-11.0026
andy	-11.0037
▁poodle	-11.0061
▁teammate	-11.0062
▁mount	-11.0064
▁spin	-11.0066
▁lining	-11.0068
▁bale	-11.0072
▁antique	-11.0072
▁buck	-11.0073
▁waterski	-11.008
▁juggle	-11.0082
▁nets	-11.0085
▁late	-11.0099
house	-11.0104
▁natur	-11.0109
turned	-11.0111
▁sharp	-11.0139
▁k	-11.0145
▁skull	-11.0146
▁interview	-11.0147
▁level	-11.0147
▁doberman	-11.0149
▁num	-11.0151
▁claw	-11.0158
▁violinist	-11.016
▁hung	-11.0165
▁earrings	-11.0174
▁dropp	-11.0176
be	-11.0176
▁current	-11.0178
▁mime	-11.018
▁ba	-11.0183
com	-11.0185
▁amount	-11.0195
iling	-11.021
otic	-11.0219
ppy	-11.0226
▁snowman	-11.0248
▁handles	-11.0269
stretched	-11.0297
▁ticket	-11.032
L	-11.0323
▁snowsuit	-11.0341
▁kayaker	-11.0345
▁backpacker	-11.0364
owing	-11.038
▁horn	-11.0391
▁prepared	-11.0394
▁logo	-11.0403
▁flannel	-11.0403
▁turtle	-11.0403
▁backhoe	-11.0403
▁seafood	-11.0404
▁region	-11.0404
▁dye	-11.0404
▁pirate	-11.0404
▁Bush	-11.0404
▁beret	-11.0404
▁instructor	-11.0405
▁itself	-11.0407
▁pastries	-11.0411
▁bakery	-11.0416
▁woodworking	-11.0417
▁upper	-11.0418
room	-11.0418
cott	-11.0422
▁platter	-11.0423
▁eggs	-11.0429
▁mountaintop	-11.0436
▁shades	-11.0447
▁scratch	-11.0449
▁bin	-11.0459
▁length	-11.0461
▁dishes	-11.0466
▁fountains	-11.0481
▁camper	-11.0489
▁played	-11.0506
▁sweat	-11.0507
lic	-11.0513
▁barre	-11.0531
hat	-11.0534
▁mus	-11.0549
▁curtain	-11.058
▁bridesmaid	-11.0581
▁sister	-11.0581
▁crate	-11.0585
▁ea	-11.06
▁mow	-11.0607
own	-11.0607
▁nurse	-11.0618
▁padd	-11.0637
▁flam	-11.0662
▁racquet	-11.0666
▁complex	-11.0666
▁establishment	-11.0666
▁spotlight	-11.0666
▁whistle	-11.0667
▁sushi	-11.0667
▁tiger	-11.0668
▁tram	-11.0672
▁blindfolded	-11.0675
▁picket	-11.0678
ky	-11.0683
▁dryer	-11.0691
ut	-11.0693
▁find	-11.0702
▁clasp	-11.0719
▁fairy	-11.0737
▁slow	-11.0737
▁seagulls	-11.0748
icy	-11.0752
handling	-11.0755
▁wrapping	-11.0765
▁Tourist	-11.0778
▁curious	-11.0781
▁Do	-11.0781
▁strapp	-11.0785
▁wa	-11.0788
▁cla	-11.0797
ne	-11.0836
▁powder	-11.0849
▁gifts	-11.0857
▁upwards	-11.0866
▁Ha	-11.089
ma	-11.089
▁posters	-11.0899
▁types	-11.0906
▁tow	-11.0928
G	-11.0936
▁depict	-11.0936
▁Middle	-11.0936
▁calf	-11.0936
▁afternoon	-11.0936
▁illuminate	-11.0936
▁shelter	-11.0937
▁potato	-11.0937
heerleaders	-11.0937
▁heavyset	-11.0937
▁location	-11.0937
▁Firefighter	-11.0938
▁backstroke	-11.0938
▁horseback	-11.0939
▁le	-11.0942
▁jars	-11.0944
▁torches	-11.0956
▁inflated	-11.0958
▁hauling	-11.097
▁comb	-11.0971
▁expans	-11.0974
▁fl	-11.0988
enaissance	-11.0998
▁dug	-11.1004
▁spar	-11.1004
▁drift	-11.1006
ond	-11.1017
▁comes	-11.104
▁stor	-11.1044
▁racer	-11.1048
board	-11.1063
▁barn	-11.1086
▁couches	-11.1088
unk	-11.1089
▁flowing	-11.1095
▁camels	-11.1112
▁suspend	-11.1123
▁bracelet	-11.1126
▁seagull	-11.1128
▁lime	-11.1142
▁say	-11.1142
▁violins	-11.1156
jump	-11.1164
▁bun	-11.1177
▁meet	-11.1179
▁America	-11.1195
▁ATM	-11.1214
▁proud	-11.1214
▁casino	-11.1214
▁crystal	-11.1214
▁connect	-11.1214
▁seesaw	-11.1214
▁earmuffs	-11.1214
▁knives	-11.1214
▁laundromat	-11.1214
▁unhappy	-11.1214
▁rowboat	-11.1215
▁helicopter	-11.1215
▁social	-11.1215
▁cartoon	-11.1216
▁border	-11.122
▁plush	-11.1222
▁stretches	-11.1231
▁sta	-11.1232
▁Army	-11.1232
omeone	-11.1237
▁tell	-11.1238
▁seeds	-11.124
▁youngster	-11.1247
▁Spectator	-11.125
M	-11.1252
▁gloved	-11.1253
▁rollerskates	-11.1255
ock	-11.1256
▁cor	-11.1275
ned	-11.1302
▁sweet	-11.1319
▁stance	-11.1346
▁deli	-11.1363
ice	-11.1364
▁sat	-11.137
▁pine	-11.1412
▁want	-11.1418
▁file	-11.1426
▁handicap	-11.1434
▁ankle	-11.1439
wear	-11.145
▁vend	-11.1458
ose	-11.1458
▁da	-11.1461
made	-11.1469
▁main	-11.147
ground	-11.1476
▁cameraman	-11.1483
road	-11.1488
▁second	-11.15
▁debris	-11.15
▁asphalt	-11.15
▁gazebo	-11.15
▁SpongeBob	-11.15
▁substance	-11.15
▁enclosure	-11.15
▁return	-11.15
▁breast	-11.1503
▁reclin	-11.1503
▁geese	-11.1504
▁much	-11.1505
▁skillet	-11.1505
▁zoo	-11.1506
▁silk	-11.1508
ry	-11.1508
▁Food	-11.151
▁shelves	-11.1511
▁uphill	-11.1512
▁Wall	-11.1517
▁Mi	-11.1522
▁gentle	-11.1526
▁fog	-11.1531
▁nun	-11.1532
▁Bikers	-11.1534
▁extreme	-11.154
▁Gentlem	-11.1541
▁sw	-11.1541
▁survey	-11.1542
green	-11.155
▁juggler	-11.1558
▁conducting	-11.1579
▁wield	-11.1589
ray	-11.1601
▁barking	-11.1602
▁shack	-11.1605
▁snorkel	-11.1619
cyclists	-11.1628
▁mess	-11.1647
▁ro	-11.1658
ssage	-11.1674
▁pail	-11.1675
olate	-11.168
▁win	-11.1684
▁pi	-11.1691
tage	-11.1708
▁watermelon	-11.1708
▁sari	-11.1725
▁ducks	-11.1726
▁jumper	-11.174
▁spott	-11.1749
all	-11.176
▁asking	-11.1761
▁Ele	-11.1774
▁locat	-11.1785
▁elbow	-11.1793
▁leggings	-11.1794
▁canopy	-11.1794
▁world	-11.1794
▁strong	-11.1796
▁alleyway	-11.1796
▁submerged	-11.1796
▁mitt	-11.1797
▁wineglasses	-11.1799
ven	-11.18
▁hoist	-11.1802
▁reddish	-11.1802
▁storm	-11.1805
▁shines	-11.1813
▁cigarettes	-11.1821
▁Car	-11.1821
▁cleaner	-11.1827
ad	-11.1828
▁bunny	-11.1833
▁snap	-11.1836
▁curl	-11.1853
▁ca	-11.1854
▁Bo	-11.187
▁wor	-11.1875
ncy	-11.1883
▁arti	-11.1884
▁His	-11.19
▁khakis	-11.1909
▁Skii	-11.1942
▁collecti	-11.1947
▁forms	-11.1963
▁suburb	-11.1966
▁holes	-11.1969
ommuter	-11.1977
▁butter	-11.1993
▁clothed	-11.2
aked	-11.2007
▁guid	-11.2019
▁rugs	-11.2028
▁arrange	-11.2029
▁pou	-11.2048
▁vin	-11.2058
▁gestur	-11.2067
▁phones	-11.2072
▁featur	-11.2082
▁cautio	-11.2087
▁derby	-11.2097
▁bonnet	-11.2097
▁easel	-11.2097
▁Brunette	-11.2097
▁Segway	-11.2097
▁rooster	-11.2097
▁archway	-11.2097
▁shaft	-11.2098
▁everyone	-11.2098
▁workshop	-11.2099
▁Easter	-11.2101
ficial	-11.2105
▁utensils	-11.2117
▁rehearsing	-11.2117
▁vendors	-11.2142
▁Can	-11.2154
▁somewhere	-11.2156
▁hips	-11.2171
panes	-11.2176
escent	-11.218
▁races	-11.2181
▁sacks	-11.2185
▁leashes	-11.2187
ance	-11.2192
▁trains	-11.2195
▁tongues	-11.2198
▁trimm	-11.2199
▁poodles	-11.2203
ay	-11.2211
▁ho	-11.2214
▁official	-11.2238
▁toast	-11.2245
uffy	-11.2255
▁come	-11.2262
▁gre	-11.2269
▁text	-11.2296
piece	-11.2299
rimme	-11.2302
▁comm	-11.2313
▁labor	-11.2318
▁sponge	-11.2322
▁garment	-11.2323
▁br	-11.2348
▁hook	-11.235
▁beds	-11.236
know	-11.2364
▁legged	-11.2372
▁pillows	-11.2373
▁congregat	-11.2373
air	-11.239
▁baker	-11.2397
▁angle	-11.2405
ating	-11.2407
▁pitbull	-11.2409
▁scissors	-11.2409
▁ensemble	-11.2409
▁pacifier	-11.2409
▁activity	-11.2409
▁incline	-11.2409
▁crocodile	-11.2409
▁elevated	-11.2409
▁Monopoly	-11.2409
▁earphones	-11.2409
▁supplies	-11.2409
▁Spanish	-11.241
▁lizard	-11.241
▁snowbank	-11.2411
▁bookstore	-11.2412
▁abandoned	-11.2412
▁playpen	-11.2413
▁travers	-11.2413
▁transport	-11.2417
▁even	-11.242
▁cattle	-11.2425
▁Co	-11.2426
▁scared	-11.2432
▁donuts	-11.2441
legged	-11.2444
▁fencing	-11.2446
▁shave	-11.2447
▁str	-11.2448
▁straps	-11.2461
▁service	-11.2461
▁stools	-11.2465
▁Train	-11.2466
iffe	-11.2469
▁rush	-11.248
▁snorkeling	-11.2495
▁chips	-11.2504
▁dangl	-11.2507
fully	-11.2514
falls	-11.2534
▁puck	-11.2546
▁whiteboard	-11.2546
▁swimsuits	-11.2551
▁wheeler	-11.2553
▁sprinkle	-11.2577
▁blank	-11.259
are	-11.2638
▁cash	-11.2644
▁ascend	-11.265
gged	-11.2651
▁surg	-11.2652
▁human	-11.2658
▁remo	-11.2662
▁study	-11.2667
▁downward	-11.2673
shape	-11.2682
▁spring	-11.2689
▁recline	-11.2731
▁Square	-11.2732
▁fleece	-11.2732
▁donkey	-11.2732
▁science	-11.2732
▁cardigan	-11.2732
▁console	-11.2732
▁spaghetti	-11.2732
▁turquoise	-11.2732
▁wilderness	-11.2732
▁husband	-11.2732
▁consult	-11.2732
▁simultaneously	-11.2732
▁sweatpants	-11.2732
▁Cowboy	-11.2733
▁breath	-11.2735
▁propped	-11.2735
▁Cure	-11.2736
▁dough	-11.2737
▁chaps	-11.2738
▁countryside	-11.2738
▁change	-11.2738
zy	-11.274
▁flour	-11.2742
▁houses	-11.2743
▁pedal	-11.2744
▁sledding	-11.2746
▁drape	-11.2751
▁handlebars	-11.2753
▁cruise	-11.2754
▁patrons	-11.2756
head	-11.2758
▁happening	-11.2764
hose	-11.2767
cag	-11.2772
neck	-11.2783
▁explaining	-11.2788
▁stair	-11.2788
xica	-11.2789
▁cameras	-11.2797
▁used	-11.28
▁island	-11.2803
chines	-11.2808
▁floors	-11.2813
▁wander	-11.2814
▁rear	-11.2817
tie	-11.2843
res	-11.2844
her	-11.2848
woman	-11.2851
ign	-11.2856
▁lands	-11.2857
▁boarding	-11.2859
▁dumps	-11.2881
▁desks	-11.2896
▁loc	-11.2906
mentary	-11.2908
▁whe	-11.2915
▁spi	-11.2917
▁respond	-11.2934
ican	-11.2939
lot	-11.2941
▁admir	-11.296
▁clos	-11.2964
teen	-11.2971
time	-11.2973
▁waffle	-11.2977
▁overhang	-11.2983
ure	-11.2991
▁moto	-11.3002
▁explore	-11.303
▁noses	-11.3033
▁beams	-11.3035
ssing	-11.3038
▁emerg	-11.3039
▁trib	-11.3043
▁purchase	-11.3056
▁tomato	-11.3057
▁recipe	-11.3065
▁ballerina	-11.3065
▁Game	-11.3065
▁princess	-11.3065
▁lampshade	-11.3065
▁dangerous	-11.3066
▁tarp	-11.3066
▁South	-11.3066
▁gr	-11.3066
▁architecture	-11.3067
▁cello	-11.3068
▁salon	-11.3069
▁shrubs	-11.3077
▁End	-11.3081
▁attendant	-11.3084
opping	-11.3089
▁bored	-11.3093
▁peach	-11.3105
▁ch	-11.3107
niversity	-11.3119
▁flames	-11.3129
▁dried	-11.3135
▁Bald	-11.3148
ard	-11.3151
▁garments	-11.3157
▁nu	-11.3164
▁decorat	-11.3185
▁sweaters	-11.3198
▁pillars	-11.3209
▁styled	-11.3213
▁sift	-11.3216
▁blocked	-11.3217
occer	-11.3219
▁dad	-11.323
▁growl	-11.3253
ins	-11.3261
cting	-11.3269
▁Ca	-11.3271
▁pant	-11.329
▁tether	-11.3295
▁banners	-11.3307
▁rails	-11.3312
▁monitors	-11.3313
laid	-11.3322
▁treadmill	-11.3323
▁Arabi	-11.3336
▁fat	-11.3343
▁kayaks	-11.3343
▁breed	-11.335
▁slopes	-11.3366
K	-11.3389
▁cultur	-11.339
▁rifle	-11.3409
▁favor	-11.341
▁poverty	-11.341
▁mascara	-11.341
▁acrobatic	-11.341
▁technique	-11.341
▁tournament	-11.341
▁girder	-11.341
▁Island	-11.341
▁cancer	-11.341
▁exhibition	-11.3411
▁department	-11.3411
▁walked	-11.3412
▁restroom	-11.3412
▁saddle	-11.3413
▁Outdoor	-11.3414
▁wonder	-11.3415
▁accompanie	-11.3415
▁radio	-11.3416
▁adolescent	-11.3417
▁sharpen	-11.3421
▁torch	-11.3422
▁hairnet	-11.3422
ds	-11.3423
▁shoppers	-11.3427
▁Look	-11.3429
▁overcoat	-11.343
▁quilt	-11.3433
pan	-11.3438
▁cashi	-11.3443
▁kabobs	-11.3451
▁bulldog	-11.3452
▁waiter	-11.3453
eautiful	-11.3457
▁cutout	-11.3459
▁rises	-11.3461
▁shap	-11.3473
▁loaded	-11.3475
▁moon	-11.3476
▁carve	-11.3479
▁mail	-11.3484
▁bi	-11.3494
▁harnesses	-11.3494
▁pro	-11.3497
▁dr	-11.3534
▁cop	-11.3552
▁canoeing	-11.3555
ug	-11.3566
▁marke	-11.3579
▁signal	-11.3581
▁tuxedos	-11.3587
▁dis	-11.3597
▁capes	-11.3616
▁exercises	-11.3629
▁sa	-11.3636
▁skin	-11.3647
▁discuss	-11.3688
▁lighted	-11.3703
locked	-11.3703
▁cheeks	-11.3716
▁ethnic	-11.3724
▁lie	-11.3738
ps	-11.3744
▁musica	-11.3753
▁sauce	-11.376
over	-11.3761
▁skeleton	-11.3767
▁important	-11.3767
▁megaphone	-11.3767
▁chopsticks	-11.3767
▁intricate	-11.3767
▁rubble	-11.3768
▁Louis	-11.3768
▁woodland	-11.3768
▁teeter	-11.3768
rienta	-11.3769
▁cutoff	-11.3769
▁cannon	-11.377
▁knight	-11.377
▁earth	-11.3773
▁rising	-11.3773
▁grasp	-11.3774
ssenger	-11.3776
▁hide	-11.3778
▁decorati	-11.3794
▁firemen	-11.3799
▁pump	-11.3806
▁Hiker	-11.3815
▁unfold	-11.382
▁barks	-11.3824
▁exchange	-11.3837
▁hid	-11.3844
▁instruction	-11.3848
▁para	-11.385
▁Every	-11.3851
▁ram	-11.3853
cked	-11.3853
utting	-11.3862
▁swords	-11.3866
▁swallow	-11.3869
▁boxers	-11.3872
▁sl	-11.3877
▁cl	-11.3882
▁Pre	-11.3892
▁perch	-11.3898
▁distan	-11.3903
▁cakes	-11.391
▁wool	-11.391
for	-11.3911
▁address	-11.3924
inder	-11.3937
▁projected	-11.3937
▁scout	-11.3944
▁materials	-11.3964
▁rust	-11.3983
▁watering	-11.3999
our	-11.4015
▁ties	-11.4023
▁butt	-11.4031
Man	-11.4033
▁leis	-11.4048
▁parachutes	-11.4053
▁welder	-11.4067
▁Gray	-11.4069
ital	-11.4075
▁ob	-11.4095
▁Park	-11.41
▁India	-11.4115
▁peaceful	-11.413
cut	-11.4131
▁cuddl	-11.4132
▁ribs	-11.4135
▁Brazil	-11.4137
▁ruler	-11.4137
▁clarinet	-11.4137
▁scantily	-11.4137
▁accident	-11.4137
▁sunshine	-11.4137
▁passersby	-11.4137
▁pencil	-11.4138
▁excavation	-11.4139
▁shouting	-11.4139
▁skipping	-11.4142
▁mouse	-11.4143
▁hooping	-11.4144
▁bystanders	-11.4154
▁Mar	-11.4158
▁warmers	-11.416
▁tasting	-11.4174
▁li	-11.4178
rumming	-11.4179
▁perhaps	-11.4179
▁hip	-11.4182
▁Teenager	-11.4185
▁touche	-11.4198
▁belts	-11.4202
▁launch	-11.4206
▁newly	-11.4208
▁solder	-11.4217
ja	-11.4218
deep	-11.4227
▁brownish	-11.4233
ton	-11.4235
▁cord	-11.4237
▁manual	-11.4249
hi	-11.4251
▁scrubb	-11.4256
▁dome	-11.4256
▁bales	-11.4258
▁rafts	-11.4259
▁note	-11.4263
▁enclos	-11.4263
▁Ten	-11.4278
▁glider	-11.431
bal	-11.4322
▁engineer	-11.4335
▁lin	-11.4336
aucasian	-11.4337
▁unwrap	-11.4339
ched	-11.435
ligent	-11.436
▁ga	-11.4362
▁motorcyclists	-11.4368
▁cloud	-11.4415
▁bikinis	-11.4423
▁j	-11.4426
▁feel	-11.4429
tan	-11.4431
▁handbag	-11.4443
ow	-11.4451
litary	-11.4465
▁cabin	-11.4466
▁oranges	-11.4473
▁docked	-11.4479
ri	-11.4501
▁boxer	-11.4517
▁dummy	-11.4521
▁brochure	-11.4522
▁hydrant	-11.4522
▁activities	-11.4522
▁determined	-11.4522
▁Grouch	-11.4522
▁supermarket	-11.4522
▁automobile	-11.4522
▁register	-11.4522
▁nightclub	-11.4522
▁skyscraper	-11.4522
▁bigger	-11.4522
▁swamp	-11.4522
▁unison	-11.4523
▁Europe	-11.4526
▁pasture	-11.4527
▁mesh	-11.4531
▁quad	-11.4534
▁quietly	-11.4535
▁recreation	-11.4535
▁visitor	-11.4538
▁smock	-11.4539
▁businessmen	-11.4541
The	-11.4542
▁dozen	-11.4545
▁excitedly	-11.4549
▁interior	-11.455
▁weeds	-11.4552
exas	-11.4553
▁sold	-11.4556
lly	-11.4559
▁offering	-11.4564
▁express	-11.4565
▁Student	-11.4566
▁windbreaker	-11.4566
▁Motorcycle	-11.4569
▁every	-11.457
▁sleepy	-11.4576
▁ar	-11.4586
▁bicycling	-11.4587
▁Snow	-11.4588
▁mur	-11.4603
▁chains	-11.4606
▁St	-11.4621
▁hammers	-11.4621
▁eight	-11.4634
▁audi	-11.4644
▁list	-11.4649
etty	-11.4651
▁sisters	-11.4652
▁skies	-11.4663
▁residen	-11.4673
▁meter	-11.4696
▁snacks	-11.4698
▁posts	-11.4699
▁stunts	-11.4711
▁strum	-11.4723
▁decorate	-11.4746
▁blocking	-11.4749
▁circles	-11.4754
▁necks	-11.4758
▁admire	-11.477
panel	-11.4779
▁gi	-11.4781
ends	-11.4785
▁motorbikes	-11.4799
▁nin	-11.4815
▁monk	-11.4831
▁penguin	-11.4833
eries	-11.4845
lace	-11.4854
▁gardening	-11.4874
▁advertisements	-11.4888
▁Adult	-11.4895
ft	-11.4909
▁lip	-11.491
▁mats	-11.4917
▁double	-11.492
▁mohawk	-11.492
▁trophy	-11.492
▁Coca	-11.492
vation	-11.4921
Barney	-11.4921
▁onesie	-11.4921
▁Bank	-11.4921
▁Dancers	-11.4921
▁marriage	-11.4921
▁cemetery	-11.4921
▁pretzels	-11.4921
▁crutches	-11.4921
▁Halloween	-11.4922
▁blowtorch	-11.4922
▁toothbrush	-11.4922
▁convertible	-11.4922
▁tightrope	-11.4922
▁displayed	-11.4922
▁flex	-11.4922
▁rice	-11.4927
urry	-11.4928
▁handrail	-11.4932
▁shingles	-11.4938
▁spill	-11.494
▁ke	-11.494
▁locker	-11.4944
▁bookbag	-11.4944
▁assembly	-11.4945
ider	-11.4949
▁diapers	-11.4952
▁pebble	-11.4954
▁cere	-11.4955
▁drunk	-11.4966
▁snarl	-11.4969
▁height	-11.498
scarves	-11.4984
▁active	-11.4994
▁leader	-11.4995
▁dribbl	-11.5001
▁workout	-11.5022
▁must	-11.5037
▁saws	-11.5038
american	-11.504
▁spir	-11.504
pping	-11.5053
here	-11.5056
bed	-11.5062
▁port	-11.5063
▁thread	-11.5065
▁picker	-11.5074
▁ditch	-11.5087
▁litter	-11.5088
▁elevators	-11.5104
game	-11.5108
ewis	-11.5111
sailor	-11.5123
girl	-11.5125
ified	-11.5128
▁crack	-11.5131
▁Sal	-11.5133
▁workman	-11.5145
ress	-11.5146
its	-11.5153
striped	-11.5183
D	-11.5198
▁kites	-11.5218
oad	-11.5223
▁que	-11.5229
ill	-11.523
▁size	-11.5231
boy	-11.5235
▁dinosaur	-11.5249
▁character	-11.525
▁starts	-11.5257
▁backward	-11.5259
▁veil	-11.5259
lad	-11.5262
ra	-11.5283
ome	-11.5296
▁flyer	-11.5302
▁extend	-11.5318
ird	-11.5324
ennis	-11.5325
▁You	-11.5329
ston	-11.5335
▁Labrador	-11.5336
▁Pizza	-11.5336
▁conveyor	-11.5336
▁eyeliner	-11.5336
▁crochet	-11.5336
▁forklift	-11.5336
▁mailbox	-11.5336
▁avail	-11.5336
▁judges	-11.5337
▁accept	-11.5337
▁cobble	-11.5337
▁facility	-11.5337
▁jelly	-11.5337
▁Pe	-11.5337
▁alligator	-11.5338
▁political	-11.5338
▁community	-11.5338
▁everything	-11.5338
▁Picture	-11.5338
▁repelling	-11.5338
▁pharmacist	-11.5339
▁ginger	-11.5339
▁cleats	-11.5339
▁exercising	-11.5339
▁Stone	-11.534
▁Fire	-11.534
▁selection	-11.5341
▁Tower	-11.5348
▁tracksuit	-11.5348
▁clothesline	-11.5349
▁deaths	-11.5353
▁Crocs	-11.5353
▁lanterns	-11.5353
testing	-11.5355
▁straddl	-11.5356
▁chess	-11.5357
▁page	-11.5358
▁Swimmer	-11.5361
▁upset	-11.5361
▁snowshoes	-11.5362
▁chickens	-11.5363
▁matt	-11.5365
▁piercings	-11.5366
▁snowmobile	-11.5369
▁schoolgirl	-11.5371
berry	-11.5377
▁crops	-11.5381
▁concerned	-11.5385
▁function	-11.5386
▁carrots	-11.5387
▁filmed	-11.5391
▁jug	-11.54
rt	-11.5402
▁blurr	-11.5408
opsicle	-11.5413
▁lemons	-11.5416
▁snowmobiles	-11.5421
▁peel	-11.5423
▁devil	-11.5424
wearing	-11.5429
▁lighting	-11.5431
▁frolic	-11.5435
ness	-11.544
▁pasta	-11.5441
nces	-11.545
▁planted	-11.5451
▁don	-11.5459
iting	-11.5463
▁waitress	-11.5465
▁strings	-11.5472
▁sprayed	-11.5474
▁stroke	-11.5478
▁attacking	-11.5479
romp	-11.5488
he	-11.5488
▁fo	-11.5506
taught	-11.552
▁topic	-11.5521
▁Cent	-11.5527
▁Teen	-11.5548
ster	-11.5564
▁mi	-11.5577
▁ste	-11.5581
▁slum	-11.5586
ckey	-11.5586
▁chested	-11.563
▁mock	-11.563
▁struggl	-11.5637
▁performed	-11.5649
▁secure	-11.565
iding	-11.568
▁pedestrian	-11.5685
ouse	-11.5688
▁care	-11.5691
▁trim	-11.5691
▁explain	-11.5696
▁cable	-11.5721
▁saxophones	-11.5724
▁ye	-11.5727
▁presen	-11.573
▁mist	-11.5733
fro	-11.5759
yard	-11.5765
▁Florida	-11.5771
▁cushion	-11.5771
▁problem	-11.5771
▁terminal	-11.5771
▁barricade	-11.5771
▁escort	-11.5771
▁bookshelf	-11.5771
▁profile	-11.5771
▁attraction	-11.5771
▁muscle	-11.5773
▁fliers	-11.5774
▁rectang	-11.5775
▁amaz	-11.5777
▁master	-11.5778
other	-11.5779
▁article	-11.578
▁loose	-11.5782
▁hawk	-11.5783
▁badge	-11.5785
▁begging	-11.579
▁Fr	-11.579
▁frown	-11.5802
▁roadway	-11.5803
▁movi	-11.5804
uts	-11.5805
ves	-11.5806
▁pain	-11.5808
bab	-11.5808
▁ne	-11.5809
▁shined	-11.581
▁Singer	-11.5812
▁weapons	-11.5815
LE	-11.5832
▁polish	-11.5832
▁tooth	-11.5837
▁desserts	-11.5843
▁angry	-11.5844
cka	-11.5856
▁festiv	-11.5856
▁resembl	-11.5865
▁Buddh	-11.5873
olden	-11.5884
ons	-11.5886
▁ends	-11.5886
▁col	-11.5887
iew	-11.5891
col	-11.5904
▁fists	-11.5919
cycling	-11.5926
▁folder	-11.5939
▁infants	-11.5939
▁mule	-11.594
▁glid	-11.5944
ept	-11.5951
▁Skier	-11.5951
▁press	-11.5953
water	-11.5961
▁medal	-11.5968
self	-11.5984
ator	-11.6
▁Skateboard	-11.6015
▁awaits	-11.6017
tty	-11.602
▁painters	-11.6024
▁muzzles	-11.6024
▁siting	-11.6027
▁seve	-11.603
hammering	-11.604
ortable	-11.6051
azz	-11.6058
▁dim	-11.6066
gn	-11.6072
gain	-11.6082
▁Bright	-11.6083
▁For	-11.6085
▁Y	-11.6087
▁clutch	-11.6098
▁Summ	-11.6107
▁char	-11.6122
▁strik	-11.6126
▁fil	-11.6132
▁column	-11.614
▁lemon	-11.614
▁clap	-11.6143
▁diner	-11.6146
▁keg	-11.6147
rry	-11.6151
▁shell	-11.6155
▁Latin	-11.6158
▁demonstrate	-11.6166
ims	-11.6171
tial	-11.6174
▁lego	-11.6177
▁spe	-11.6204
▁surprise	-11.6207
▁sorts	-11.6207
▁kn	-11.6215
▁comfort	-11.6221
cient	-11.6221
▁percussion	-11.6226
▁sponsor	-11.6226
ietnam	-11.6226
▁Mohawk	-11.6226
▁champagne	-11.6226
▁corridor	-11.6226
▁jewelery	-11.6226
▁pamphlet	-11.6226
▁igloo	-11.6226
▁trolley	-11.6226
▁cocktail	-11.6226
▁Elmo	-11.6226
▁random	-11.6226
▁cluster	-11.6226
▁carpentry	-11.6226
▁prevent	-11.6226
▁France	-11.6226
▁snowstorm	-11.6226
▁napkin	-11.6226
▁kitten	-11.6226
▁footbridge	-11.6226
▁physical	-11.6226
▁marsh	-11.6227
▁surgeon	-11.6228
▁disk	-11.6228
▁tilted	-11.6229
▁Youth	-11.6229
▁partner	-11.623
▁Bride	-11.6232
▁watercraft	-11.6233
▁paperwork	-11.6233
▁oar	-11.6236
▁cookout	-11.6236
▁lens	-11.6239
▁glowing	-11.6242
▁Har	-11.6246
▁playhouse	-11.6251
arrior	-11.6251
▁tightly	-11.6252
▁conditions	-11.6256
▁tambourines	-11.626
bby	-11.6268
▁joke	-11.6274
rish	-11.6275
ately	-11.6284
ward	-11.6284
son	-11.6286
▁damage	-11.6293
▁defens	-11.6301
▁diners	-11.631
▁cr	-11.6316
ur	-11.6323
▁fisherm	-11.6326
pard	-11.6327
▁bagg	-11.6384
▁wakeboarder	-11.639
▁questions	-11.6394
zz	-11.6397
fashion	-11.6407
▁too	-11.6416
▁skater	-11.6429
▁wit	-11.6429
▁opponents	-11.6438
blue	-11.6451
▁unwrapp	-11.6452
▁tide	-11.6465
▁took	-11.6478
▁stem	-11.648
▁pads	-11.6481
▁Shop	-11.6497
mic	-11.6502
ckled	-11.6515
▁paintings	-11.6532
Mom	-11.6539
▁limb	-11.6543
▁our	-11.6559
▁axe	-11.6567
▁purchas	-11.6579
▁She	-11.6584
▁keyboards	-11.6586
▁grooms	-11.6589
lookers	-11.6593
▁dentist	-11.6613
▁dribble	-11.6615
▁wrist	-11.6616
▁mic	-11.6622
▁crayon	-11.6623
▁te	-11.6626
▁shutt	-11.6629
▁slipper	-11.663
mp	-11.6639
▁sweatshirts	-11.6646
tly	-11.6659
hand	-11.6666
illed	-11.6666
▁rake	-11.6673
▁skip	-11.6673
▁golfer	-11.6679
▁mirrors	-11.668
wheele	-11.668
▁love	-11.6681
▁attach	-11.6685
▁girlfriend	-11.6686
▁Walmart	-11.6702
▁elegant	-11.6702
olkswag	-11.6702
▁contents	-11.6702
▁reveal	-11.6702
▁clipboard	-11.6702
▁petals	-11.6702
▁rickshaw	-11.6702
▁strawberries	-11.6702
▁arrangement	-11.6702
▁figurine	-11.6702
▁swung	-11.6703
▁Ko	-11.6703
ates	-11.6704
▁comforter	-11.6707
▁globe	-11.6709
▁hurt	-11.671
▁entertainer	-11.671
▁participant	-11.6711
▁operation	-11.6715
MA	-11.6716
▁policem	-11.6718
▁dec	-11.6719
▁creation	-11.6724
▁travelers	-11.6738
▁sweaty	-11.6739
▁protesters	-11.6742
▁jogger	-11.6751
▁spell	-11.6753
▁knitt	-11.6757
▁Washington	-11.6758
▁seasoning	-11.6762
▁cha	-11.6768
▁solo	-11.677
dora	-11.6771
▁futur	-11.6776
▁equ	-11.6785
▁fireworks	-11.6785
▁plugg	-11.6799
▁gender	-11.6806
▁oversee	-11.6814
erial	-11.6817
▁signals	-11.682
▁cells	-11.6831
▁Walk	-11.6834
wheeler	-11.6837
▁bowing	-11.6838
had	-11.684
▁know	-11.6841
uch	-11.6849
een	-11.6858
person	-11.6863
bread	-11.6871
ore	-11.6872
▁strap	-11.6878
▁flash	-11.6891
▁markers	-11.6941
▁serious	-11.6947
▁drap	-11.696
▁ran	-11.6988
▁rappel	-11.6993
climbing	-11.6997
▁billboards	-11.7002
▁trucks	-11.7023
▁hound	-11.7026
▁highchairs	-11.703
ate	-11.7039
ess	-11.7056
▁firefighters	-11.7063
ened	-11.7066
rd	-11.7068
eat	-11.7084
▁bark	-11.709
▁Me	-11.7093
nion	-11.7106
▁possession	-11.7112
oberman	-11.7115
▁nails	-11.712
▁firework	-11.7121
▁goats	-11.7125
▁stud	-11.7126
cent	-11.7134
▁squeez	-11.7152
high	-11.7171
▁seeming	-11.7177
▁flame	-11.7181
▁bust	-11.7184
▁fed	-11.7184
overalls	-11.7185
▁cry	-11.7196
▁Euro	-11.7196
ots	-11.7198
▁enthusiast	-11.7199
▁arrow	-11.7202
▁holiday	-11.7202
▁ornament	-11.7202
▁English	-11.7202
▁Speedo	-11.7202
▁casserole	-11.7202
▁ferret	-11.7202
▁javelin	-11.7202
▁magnif	-11.7202
▁stethoscope	-11.7202
▁incense	-11.7202
▁slingshot	-11.7202
▁Sallie	-11.7202
▁ritual	-11.7202
▁tiara	-11.7202
▁clerk	-11.7202
▁crotch	-11.7202
uitton	-11.7202
▁Surfer	-11.7202
▁saber	-11.7202
▁Orphans	-11.7202
▁Ocean	-11.7202
▁assistance	-11.7202
▁Deli	-11.7202
▁passerby	-11.7203
▁corndogs	-11.7203
▁buggy	-11.7205
▁custody	-11.7206
▁limo	-11.7207
▁mon	-11.7211
▁lumber	-11.7211
hur	-11.7212
▁grate	-11.7216
▁applied	-11.7221
▁darker	-11.7234
▁fabrics	-11.7235
▁gum	-11.7237
creaming	-11.7239
▁thatched	-11.7241
▁peppers	-11.7258
▁lettering	-11.7259
▁sparklers	-11.726
▁detector	-11.7261
▁divers	-11.7262
▁scr	-11.7263
▁comfortable	-11.7268
▁litera	-11.7269
▁celebrate	-11.7271
▁harp	-11.7272
▁creamer	-11.729
▁claps	-11.7301
▁numbers	-11.7301
ssed	-11.7306
▁stew	-11.7317
▁handbags	-11.732
▁greenish	-11.7324
▁prim	-11.7325
▁tin	-11.7335
▁fi	-11.7339
▁bats	-11.735
▁vault	-11.735
▁trans	-11.7358
▁Bri	-11.738
▁decide	-11.7383
▁sailboats	-11.7383
choke	-11.7388
▁respon	-11.7404
gar	-11.741
point	-11.7411
rowing	-11.7429
▁pigs	-11.7431
elve	-11.7438
held	-11.7442
▁bells	-11.7459
medic	-11.7461
▁crop	-11.7471
▁Mac	-11.7474
▁scrap	-11.7475
with	-11.7476
Alaska	-11.7478
work	-11.7485
▁hurdles	-11.7486
▁snowmen	-11.7492
aded	-11.7518
▁cliffs	-11.7519
▁chor	-11.7523
nch	-11.7525
field	-11.7527
▁barriers	-11.7531
each	-11.755
light	-11.7551
▁cobblestones	-11.7554
▁laps	-11.7565
▁rafter	-11.7566
▁Teenage	-11.7569
▁Time	-11.7579
▁brooms	-11.7583
▁brothers	-11.7587
▁kilts	-11.7612
▁ref	-11.7623
▁taste	-11.7633
▁onlooker	-11.7638
▁dessert	-11.7642
▁tutu	-11.7642
▁mallet	-11.7643
▁At	-11.7651
ious	-11.7662
▁scream	-11.7663
no	-11.768
▁snaps	-11.768
▁pay	-11.7685
▁suitcases	-11.7689
udio	-11.7704
▁loves	-11.771
ible	-11.7717
▁measure	-11.7718
ID	-11.7726
▁California	-11.7728
▁Liverpool	-11.7728
▁improvement	-11.7728
▁locomotive	-11.7728
▁London	-11.7728
▁vacation	-11.7728
▁apparel	-11.7729
▁croquet	-11.7729
▁excavator	-11.7729
▁seashore	-11.7729
▁unload	-11.7729
▁studies	-11.7729
▁ruins	-11.773
▁sewer	-11.773
▁trie	-11.773
▁sym	-11.773
▁captain	-11.7732
▁beaut	-11.7733
▁gorge	-11.7733
▁homework	-11.7733
▁attentively	-11.7734
itation	-11.7735
phon	-11.7738
ro	-11.7741
TO	-11.7742
▁vibra	-11.7748
▁sledge	-11.7748
▁citizens	-11.7748
▁drawer	-11.7749
▁donation	-11.7751
uitar	-11.7757
▁access	-11.776
▁preserve	-11.7761
▁reflector	-11.7763
▁thro	-11.7764
▁smell	-11.7789
▁ceremoni	-11.7802
IC	-11.7805
▁potter	-11.7807
▁So	-11.781
▁patroll	-11.7817
▁grins	-11.7817
▁safe	-11.7822
▁carrier	-11.7822
seen	-11.7824
▁controlle	-11.7825
ellow	-11.783
ways	-11.7833
▁stride	-11.7835
ready	-11.7835
▁led	-11.7838
▁washe	-11.7846
▁pl	-11.7859
▁Ch	-11.7863
▁squa	-11.7871
me	-11.7876
crowded	-11.7881
▁eager	-11.7882
▁blaz	-11.7884
▁viewer	-11.7894
▁grappl	-11.7897
cious	-11.7901
▁bundl	-11.7919
nds	-11.7922
act	-11.7924
▁whist	-11.7925
▁kayakers	-11.7933
▁graz	-11.7934
▁rolle	-11.7936
▁referees	-11.7948
rests	-11.7954
▁speakers	-11.7955
▁lei	-11.7961
gym	-11.7963
▁renovat	-11.7965
pped	-11.7967
▁euro	-11.7969
▁Win	-11.7974
▁nea	-11.7974
▁Mic	-11.7974
▁limbs	-11.7985
quet	-11.7987
▁grip	-11.7999
▁drawings	-11.8007
arrot	-11.8023
ement	-11.804
▁vine	-11.8061
▁onward	-11.8065
hoops	-11.8066
▁microscopes	-11.8068
▁par	-11.8091
▁mixe	-11.8104
▁cell	-11.8129
que	-11.8145
ker	-11.8153
▁cheers	-11.8156
▁peri	-11.8161
aying	-11.8163
ade	-11.8165
mber	-11.8166
cola	-11.8182
▁fin	-11.8187
▁Garden	-11.8196
▁caricature	-11.8196
▁thumb	-11.8199
icken	-11.8204
dog	-11.8213
▁rollerskate	-11.8233
▁grade	-11.8236
old	-11.8238
ki	-11.8243
▁parent	-11.8245
▁hear	-11.8253
▁comp	-11.8256
ash	-11.8261
illager	-11.8268
▁vertical	-11.8275
▁lav	-11.8279
them	-11.828
▁worship	-11.8282
▁sibling	-11.8284
▁technology	-11.8284
▁shampoo	-11.8284
▁trouble	-11.8284
▁vivid	-11.8284
▁crevice	-11.8284
▁Snowboarder	-11.8284
▁campsite	-11.8284
▁twenties	-11.8284
▁speedboat	-11.8284
▁confused	-11.8284
▁challenge	-11.8284
▁freeway	-11.8284
▁pizzeria	-11.8285
▁yawns	-11.8285
▁grownup	-11.8285
▁Terri	-11.8285
▁broadly	-11.8285
▁horizontally	-11.8285
mergency	-11.8285
▁halfway	-11.8286
▁Water	-11.8288
▁nothing	-11.8288
▁cupcake	-11.8288
▁Individual	-11.829
▁combat	-11.8292
▁twist	-11.8292
▁spout	-11.8292
▁add	-11.8292
▁buoy	-11.8292
▁husky	-11.8293
▁Soldier	-11.8294
▁lunges	-11.8296
apid	-11.8298
ollerblades	-11.83
ocal	-11.8302
▁forrest	-11.8305
▁prayer	-11.8306
▁Protesters	-11.8307
▁waste	-11.831
raw	-11.8313
▁hurry	-11.832
▁wig	-11.8324
▁carpent	-11.8325
les	-11.8326
▁twins	-11.8326
▁Lab	-11.8329
▁Lite	-11.833
▁warmly	-11.833
▁features	-11.8332
▁structures	-11.8333
▁spool	-11.8336
▁mountaineer	-11.8339
▁organiz	-11.834
▁lid	-11.8343
ugging	-11.8351
ap	-11.8367
mel	-11.837
ti	-11.838
▁ask	-11.8384
▁Fam	-11.8391
▁texting	-11.84
▁loud	-11.8405
hoop	-11.8406
▁sparkl	-11.8417
zes	-11.8422
▁airline	-11.8423
▁cra	-11.8424
▁instruct	-11.8425
▁rise	-11.8436
▁whip	-11.8443
▁towels	-11.8446
▁dil	-11.8447
wing	-11.8448
▁Ben	-11.8455
▁lovely	-11.8458
▁curtains	-11.8471
▁totter	-11.8472
▁prize	-11.8478
▁checke	-11.8482
▁rags	-11.8486
▁Pupp	-11.8498
erv	-11.8499
▁brows	-11.85
▁mugs	-11.8501
▁draft	-11.8505
cred	-11.8512
▁Gre	-11.8524
▁concentrat	-11.8524
circle	-11.853
▁pancakes	-11.8531
▁Cho	-11.8535
▁amid	-11.8537
▁che	-11.8539
button	-11.854
▁overall	-11.8542
▁slot	-11.8549
thumbs	-11.8557
first	-11.856
▁historic	-11.8561
▁flow	-11.8561
▁bump	-11.8562
cause	-11.8577
▁puddles	-11.8581
▁bead	-11.8583
ere	-11.8588
▁frog	-11.8602
▁si	-11.8609
stand	-11.8609
rimm	-11.8627
▁ten	-11.8636
free	-11.8639
ough	-11.8646
inted	-11.8648
▁mike	-11.8649
▁squat	-11.8653
▁trails	-11.8655
ipped	-11.8658
▁al	-11.8665
▁capped	-11.8666
▁war	-11.8666
apped	-11.8678
▁guitarists	-11.8694
▁gowns	-11.8705
ench	-11.8708
▁sho	-11.8715
la	-11.8721
▁ponder	-11.8722
ot	-11.8723
ending	-11.8724
utumn	-11.8737
riest	-11.874
sure	-11.8743
tric	-11.8748
▁classical	-11.8757
▁twin	-11.8764
▁diam	-11.8768
▁boot	-11.8777
▁conduct	-11.8794
▁Ge	-11.88
▁brace	-11.88
▁haul	-11.8801
F	-11.8801
▁hopping	-11.8803
▁state	-11.8811
llow	-11.8828
▁pat	-11.8839
view	-11.8841
▁mos	-11.8842
day	-11.8863
▁parachut	-11.8868
▁Gra	-11.8869
itizens	-11.8869
▁Employee	-11.8872
▁Yankee	-11.8872
▁cafeteria	-11.8872
▁perplexed	-11.8872
▁skewers	-11.8872
▁obliv	-11.8872
▁rabbit	-11.8872
▁yacht	-11.8872
▁shrubbery	-11.8872
▁exterior	-11.8872
▁ravine	-11.8872
▁Hockey	-11.8872
▁daycare	-11.8872
▁unique	-11.8872
▁minivan	-11.8872
▁tussl	-11.8872
▁lacrosse	-11.8873
▁sideburns	-11.8873
▁Bicyclists	-11.8873
▁beetle	-11.8874
▁household	-11.8874
▁bluish	-11.8875
▁Coke	-11.8875
▁Border	-11.8875
▁Barefoot	-11.8876
▁entry	-11.8876
▁sedan	-11.8877
▁paus	-11.8877
▁congregation	-11.8877
▁Parent	-11.8878
▁Climber	-11.8878
▁Standing	-11.8879
Secur	-11.888
▁detail	-11.888
▁handsaw	-11.8881
▁rustic	-11.8881
▁sheepdog	-11.8881
▁streamer	-11.8882
▁riot	-11.8885
▁coals	-11.8886
▁exposed	-11.889
▁u	-11.889
▁anchor	-11.8892
culi	-11.8893
▁communicating	-11.8894
reign	-11.8894
▁blinds	-11.8894
▁grating	-11.8896
▁assort	-11.8901
▁swirl	-11.8901
▁blower	-11.8904
▁scare	-11.8906
▁Farm	-11.8929
▁incom	-11.893
▁hilltop	-11.8935
rubs	-11.8936
▁ethnicit	-11.8944
▁cure	-11.8966
▁nuts	-11.897
ery	-11.8975
▁age	-11.8975
▁baking	-11.8975
▁unit	-11.8981
lin	-11.8992
model	-11.9016
▁peruse	-11.9018
▁prom	-11.9021
okemon	-11.9022
▁populate	-11.9023
▁Hous	-11.9028
▁ascends	-11.9031
cla	-11.9034
▁va	-11.9037
lling	-11.9064
▁tribe	-11.9066
▁screens	-11.9069
▁Well	-11.907
▁tickets	-11.9074
▁copy	-11.9101
▁caul	-11.9105
ution	-11.9107
▁chi	-11.9111
wall	-11.9112
▁rocker	-11.912
▁route	-11.9126
▁Dr	-11.9147
▁sprinkl	-11.9147
unning	-11.9153
▁wo	-11.9155
▁sous	-11.9156
brown	-11.9163
▁battl	-11.9165
▁weight	-11.9174
serves	-11.9181
▁dip	-11.9181
elling	-11.9182
historic	-11.9204
Cub	-11.9212
fork	-11.9219
▁hope	-11.9223
imate	-11.9239
ments	-11.9248
kart	-11.9251
▁cages	-11.9253
coal	-11.9262
ong	-11.9269
ountain	-11.928
▁spik	-11.9284
▁mannequins	-11.929
▁Con	-11.9307
ari	-11.9307
▁fit	-11.9315
hit	-11.9326
▁Col	-11.9335
▁sprinklers	-11.9336
ged	-11.9336
▁ever	-11.9357
oom	-11.9359
athered	-11.9384
icks	-11.9386
▁refreshment	-11.9409
rash	-11.9428
▁season	-11.9429
▁orders	-11.9435
▁lanes	-11.9466
▁steadie	-11.948
▁news	-11.9485
▁mean	-11.949
innie	-11.9493
▁pharmac	-11.9497
HSBC	-11.9497
esquik	-11.9497
▁ambulance	-11.9497
▁centipede	-11.9497
▁falcon	-11.9497
▁lobster	-11.9497
▁canister	-11.9497
▁icicle	-11.9497
▁potential	-11.9497
▁seaweed	-11.9497
▁Corp	-11.9497
▁prescription	-11.9497
▁teepee	-11.9497
▁surgery	-11.9497
lumin	-11.9497
▁machete	-11.9497
▁copper	-11.9498
▁puzzle	-11.9499
▁hunting	-11.9501
▁foil	-11.9504
▁Belly	-11.9506
▁Light	-11.9507
MC	-11.9507
▁goose	-11.9514
▁Cubs	-11.9517
▁toenails	-11.9517
▁roadwork	-11.952
hua	-11.9528
▁trek	-11.9531
▁bury	-11.9534
▁darts	-11.9536
▁steaks	-11.9538
▁tatt	-11.9539
errier	-11.9541
▁Kara	-11.955
▁emerge	-11.9551
▁plan	-11.9553
jo	-11.9555
▁sales	-11.9569
▁language	-11.957
▁restrain	-11.957
▁closes	-11.9571
▁programs	-11.9573
▁prey	-11.9584
scar	-11.9588
▁volunteer	-11.9589
▁Bus	-11.9597
▁Thr	-11.9599
▁genera	-11.9601
alter	-11.9606
▁Heavy	-11.9606
▁talkie	-11.9608
▁awe	-11.9612
▁sno	-11.9624
ming	-11.9631
▁beans	-11.9634
land	-11.9637
▁sill	-11.9645
earded	-11.9658
▁treadmills	-11.9659
fill	-11.9662
writ	-11.9673
ching	-11.9673
ehind	-11.9674
▁eyelash	-11.9677
▁Las	-11.9678
▁adj	-11.9685
rong	-11.9693
what	-11.9699
low	-11.9712
eologi	-11.9712
▁High	-11.9719
▁layer	-11.9734
▁release	-11.9744
▁cooler	-11.9746
▁Artist	-11.9757
▁platforms	-11.977
▁soar	-11.9779
elly	-11.9782
▁parts	-11.9789
cept	-11.979
hammer	-11.979
▁ver	-11.9798
▁sol	-11.9798
acing	-11.9803
▁cause	-11.9832
aseball	-11.9834
▁owl	-11.9839
▁inflat	-11.9845
▁cling	-11.9852
anitor	-11.9852
▁beards	-11.987
mer	-11.9875
ouches	-11.9882
ute	-11.9885
▁mad	-11.9886
▁tanks	-11.9894
action	-11.9895
▁dra	-11.9902
▁frost	-11.9911
eating	-11.9912
od	-11.9921
black	-11.9925
rise	-11.9925
ood	-11.9959
hooping	-11.9964
walk	-11.997
izard	-11.9971
stone	-11.9974
▁Cost	-11.9977
playing	-11.9984
front	-11.9986
▁Cycl	-11.9994
▁Cook	-12.0002
▁expos	-12.0005
capped	-12.0009
ier	-12.0013
▁sunflower	-12.0025
▁orang	-12.0026
▁snapp	-12.0029
▁occurr	-12.0037
▁Di	-12.0039
resident	-12.0051
▁liner	-12.0055
dding	-12.0057
des	-12.0063
ould	-12.0065
▁Be	-12.007
ora	-12.007
▁sausage	-12.0077
lock	-12.0079
▁Farmer	-12.0082
istic	-12.0086
tation	-12.0104
▁parachuti	-12.0109
ked	-12.0113
▁lad	-12.0114
vin	-12.0123
▁sc	-12.0123
oven	-12.0125
onal	-12.0132
Col	-12.0137
▁beg	-12.0152
Mari	-12.0163
estrian	-12.0163
▁SquarePants	-12.0164
▁celery	-12.0164
▁leapfrog	-12.0164
▁rucksack	-12.0164
▁ukulele	-12.0164
▁embroider	-12.0164
▁Democra	-12.0164
▁breastfeed	-12.0164
Deleon	-12.0164
▁Target	-12.0164
▁bathrobe	-12.0164
▁gadget	-12.0164
▁Mockingbird	-12.0164
▁rigging	-12.0164
▁creature	-12.0164
▁murder	-12.0164
▁maintain	-12.0164
▁cloak	-12.0165
▁graveyard	-12.0165
▁families	-12.0165
▁squid	-12.0165
▁snail	-12.0166
▁banister	-12.0166
▁mariachi	-12.0166
▁Guest	-12.0166
▁anticipation	-12.0166
▁confront	-12.0167
▁Tech	-12.0168
crabble	-12.0169
▁cupboard	-12.0171
▁thi	-12.0172
▁Sole	-12.0173
▁darkness	-12.0175
▁grave	-12.0176
▁hipster	-12.0176
rn	-12.0179
▁sunbathing	-12.0182
▁reporter	-12.0183
AL	-12.0183
▁slate	-12.0184
ollie	-12.0184
▁Sh	-12.0184
▁contestants	-12.0186
▁discover	-12.019
ndy	-12.0191
IL	-12.0192
▁growls	-12.0217
▁bills	-12.022
▁barbecues	-12.0221
▁inspector	-12.0225
▁contemplat	-12.0225
Y	-12.0225
horse	-12.0227
ab	-12.0227
▁Photographer	-12.0231
▁kickboxing	-12.0232
▁my	-12.0233
▁setup	-12.0234
run	-12.0236
▁ideas	-12.0236
addresses	-12.0243
▁afar	-12.0244
▁greenhouse	-12.025
▁horseshoes	-12.0251
▁bur	-12.0253
ox	-12.0255
▁patches	-12.0255
▁trained	-12.0261
▁pensive	-12.0262
▁caricatures	-12.027
▁Ok	-12.0271
▁tutus	-12.0274
ver	-12.0275
appy	-12.0279
▁sam	-12.0281
antic	-12.0283
▁ripp	-12.0285
itten	-12.0293
ridesmaids	-12.0293
▁spare	-12.0306
▁barb	-12.0314
loseup	-12.0315
▁plow	-12.0318
long	-12.0326
right	-12.0329
▁normal	-12.0332
▁donat	-12.0349
endy	-12.0355
yo	-12.0355
▁foods	-12.0358
sion	-12.0362
▁heel	-12.037
▁melt	-12.038
boxing	-12.0383
▁hun	-12.039
ropped	-12.0403
▁clock	-12.041
ble	-12.0412
box	-12.042
cement	-12.0424
mate	-12.0429
▁Arab	-12.043
while	-12.0441
school	-12.0447
orge	-12.0452
▁treats	-12.0452
▁sal	-12.0453
hing	-12.0454
▁Pota	-12.0457
▁rode	-12.0463
arter	-12.0477
▁super	-12.0502
▁operated	-12.0507
mming	-12.0518
▁dea	-12.0523
iving	-12.0528
weather	-12.0548
ainters	-12.055
argo	-12.0584
▁san	-12.0585
▁propa	-12.0586
ottery	-12.0592
reeds	-12.0608
▁scar	-12.0608
▁seating	-12.0608
ea	-12.0611
rm	-12.0628
▁busi	-12.0635
▁tote	-12.065
ude	-12.0671
▁Br	-12.0678
▁med	-12.0679
face	-12.0685
▁battle	-12.0687
▁electronics	-12.0697
sign	-12.0709
▁letter	-12.0711
▁cong	-12.0719
sia	-12.0725
House	-12.0731
▁zooms	-12.0735
▁ridd	-12.0741
▁launche	-12.0754
▁spoons	-12.0772
▁kno	-12.0785
▁spectator	-12.0787
key	-12.0788
▁competitor	-12.0791
▁horseshoe	-12.0791
▁kabob	-12.0791
▁guest	-12.0793
▁program	-12.0793
▁Biker	-12.0796
ami	-12.0801
▁carrot	-12.0802
▁idea	-12.0808
▁fir	-12.0818
▁rescue	-12.082
▁Over	-12.0822
vest	-12.0825
▁bone	-12.0854
▁hors	-12.0863
era	-12.0868
▁ox	-12.0869
▁attentive	-12.087
▁streetlight	-12.087
▁tun	-12.0871
▁wineglass	-12.0871
▁repel	-12.0877
▁Festival	-12.0878
▁accessories	-12.0878
▁appropriate	-12.0878
▁asparagus	-12.0878
▁dalmatian	-12.0878
▁faucet	-12.0878
▁glacier	-12.0878
▁occasion	-12.0878
▁seminar	-12.0878
▁experienc	-12.0878
▁manipulat	-12.0878
▁occupied	-12.0878
▁charades	-12.0878
▁investigat	-12.0878
▁stairwell	-12.0878
▁contact	-12.0878
▁ruffle	-12.0878
▁trinket	-12.0878
▁shanty	-12.0878
▁notepad	-12.0878
▁Corgi	-12.0878
▁elevation	-12.0878
▁Seattle	-12.0878
▁supervision	-12.0878
▁victory	-12.0878
▁health	-12.0878
▁vocali	-12.0878
▁terrace	-12.0878
▁Horse	-12.0878
▁novel	-12.0878
▁preschool	-12.0878
▁Priest	-12.0879
▁major	-12.0879
▁memorial	-12.0879
▁folk	-12.0879
▁pallet	-12.0879
▁strawberry	-12.0879
▁manager	-12.088
▁animated	-12.088
▁reason	-12.088
▁seahorse	-12.088
▁western	-12.088
▁gallo	-12.0881
▁Pink	-12.0881
▁Officer	-12.0882
▁stationary	-12.0883
▁script	-12.0884
enthusiastically	-12.0884
▁tunes	-12.0886
▁alert	-12.0886
▁Fisherm	-12.0887
▁Gate	-12.0887
▁promoti	-12.0887
▁vertically	-12.0889
▁Beer	-12.0889
▁ferry	-12.089
▁wrangl	-12.0891
▁describe	-12.0892
▁fishnet	-12.0894
▁blender	-12.0894
▁workbench	-12.0896
▁mingle	-12.0896
▁steady	-12.0896
▁pub	-12.0899
▁fling	-12.09
▁runway	-12.09
▁rival	-12.0904
▁onions	-12.0905
▁backhand	-12.0907
odeo	-12.0908
▁hippie	-12.0908
▁outward	-12.0912
▁loader	-12.0913
▁smear	-12.0913
▁prun	-12.0916
ul	-12.0917
▁billow	-12.0921
▁boarded	-12.0924
▁banks	-12.0924
▁mason	-12.0928
▁latin	-12.0928
▁movements	-12.0928
ensive	-12.0928
▁thinking	-12.0931
▁snowfalls	-12.0932
cking	-12.0936
▁prays	-12.0939
▁drumsticks	-12.094
▁props	-12.0941
▁alarm	-12.0942
▁attende	-12.0944
beater	-12.0945
ties	-12.0947
niform	-12.0948
HE	-12.0948
tal	-12.0949
▁squeeze	-12.095
▁web	-12.0963
▁socialize	-12.0964
▁culture	-12.0967
▁humo	-12.0976
▁quarter	-12.0977
intend	-12.0979
▁vase	-12.0981
glider	-12.0985
▁prizes	-12.0986
▁manhole	-12.0988
seeing	-12.0989
acks	-12.0993
▁toothp	-12.0996
iff	-12.1002
▁hous	-12.1006
▁dolly	-12.1006
▁highlight	-12.1013
▁cables	-12.1013
▁barge	-12.1026
table	-12.1028
pit	-12.104
▁monks	-12.1043
▁loop	-12.1045
▁cob	-12.1049
MP	-12.1052
racks	-12.1058
▁escape	-12.106
▁controll	-12.1069
▁rummag	-12.1075
▁Farmers	-12.108
oes	-12.1093
ung	-12.1095
▁Go	-12.1095
▁weathered	-12.1101
▁potty	-12.1105
car	-12.1107
▁thre	-12.1119
▁met	-12.1124
composed	-12.1125
▁snowsuits	-12.1137
▁Ski	-12.1144
mps	-12.1153
▁jackhammers	-12.1162
▁accordions	-12.1163
▁grown	-12.1165
orm	-12.1177
▁gig	-12.1179
ior	-12.1183
earing	-12.1185
▁wrestler	-12.1191
opped	-12.1194
▁ribbons	-12.1202
▁panels	-12.1211
▁fri	-12.1226
▁cabinets	-12.1235
▁mission	-12.1245
screen	-12.1245
tis	-12.1266
v	-12.1271
ze	-12.1276
▁dai	-12.128
type	-12.1283
paved	-12.1286
mon	-12.1299
▁explor	-12.1299
rgu	-12.13
▁grandm	-12.1318
Tube	-12.1349
▁desp	-12.136
▁diag	-12.1371
▁chant	-12.1372
speaker	-12.1382
ank	-12.1386
draw	-12.1399
▁spec	-12.1416
grown	-12.1416
size	-12.1421
mes	-12.1427
▁let	-12.1432
▁weed	-12.1436
z	-12.1443
▁glob	-12.1448
▁alike	-12.1466
▁names	-12.1471
▁ka	-12.1475
▁miss	-12.1476
▁shad	-12.148
ence	-12.149
bell	-12.1494
ship	-12.1496
aggy	-12.1501
▁Hind	-12.1503
▁San	-12.1538
▁mine	-12.1544
▁happen	-12.1548
▁han	-12.1551
tte	-12.1551
▁stock	-12.1554
▁pajama	-12.1557
▁coconut	-12.1559
▁pepper	-12.1562
▁chil	-12.1563
▁spa	-12.1565
▁supervis	-12.1566
▁weigh	-12.1566
▁sparkler	-12.1567
▁bridges	-12.1572
▁egg	-12.1576
▁squint	-12.1582
▁earring	-12.1589
▁grow	-12.1592
▁rubb	-12.1599
▁deal	-12.1607
raci	-12.1611
▁knits	-12.1619
▁Teh	-12.1623
▁videotap	-12.1625
▁blindfold	-12.1626
▁kickbox	-12.1628
▁thr	-12.1634
▁thrill	-12.1635
▁Poo	-12.1636
▁East	-12.1639
▁quick	-12.164
▁should	-12.1642
▁kill	-12.1643
▁lightly	-12.1646
ewlywed	-12.1646
▁refrigerat	-12.1647
▁Drayton	-12.1647
▁Hebrew	-12.1647
▁Samsung	-12.1647
▁interrupt	-12.1647
▁perfect	-12.1647
▁symbol	-12.1647
▁trombone	-12.1647
▁xylophone	-12.1647
▁bmx	-12.1647
▁pyramid	-12.1647
▁Capris	-12.1647
▁Broadway	-12.1647
▁crisp	-12.1647
▁karaoke	-12.1647
▁plywood	-12.1647
▁rainstorm	-12.1647
▁burlap	-12.1647
▁representative	-12.1647
▁situation	-12.1647
▁research	-12.1647
▁Metro	-12.1647
▁mittens	-12.1647
▁College	-12.1647
▁version	-12.1647
▁property	-12.1647
spiration	-12.1648
▁Motorcyclist	-12.1648
▁depart	-12.1648
▁forearm	-12.1648
▁veteran	-12.1648
▁compound	-12.1648
▁headlamp	-12.1648
▁dustpan	-12.1648
▁preservers	-12.1648
▁oxen	-12.1649
▁outcropping	-12.1649
▁lasso	-12.1649
▁statute	-12.1649
▁junk	-12.1649
▁welcome	-12.165
▁boiled	-12.1651
▁Olympic	-12.1651
▁forefront	-12.1651
▁textile	-12.1653
▁demolish	-12.1653
▁relative	-12.1654
▁Goo	-12.1654
▁arrive	-12.1658
▁passage	-12.1659
pong	-12.166
▁joking	-12.1662
▁Ki	-12.1663
▁bangs	-12.1663
▁happened	-12.1669
▁contemplate	-12.1669
▁noise	-12.1669
▁crust	-12.1669
▁jaw	-12.1673
cass	-12.1674
▁scary	-12.1676
▁throne	-12.1676
▁japan	-12.1678
dur	-12.1679
▁crush	-12.168
sant	-12.1681
tress	-12.1685
▁pill	-12.1691
▁emotion	-12.1691
▁rig	-12.1692
▁vast	-12.1696
▁Dirt	-12.1697
▁bake	-12.1709
▁Ital	-12.171
▁buddh	-12.1712
▁rays	-12.1718
▁spher	-12.172
▁hops	-12.1724
▁armor	-12.1726
▁stain	-12.1726
▁years	-12.1734
▁tips	-12.1736
▁coconuts	-12.1736
▁Toys	-12.1737
▁competitors	-12.1743
completed	-12.175
▁roping	-12.175
▁streetlights	-12.1753
▁refreshments	-12.1757
lowers	-12.1758
▁squares	-12.1763
▁thigh	-12.1763
▁paraglide	-12.1766
▁prow	-12.1767
▁slices	-12.1769
truck	-12.177
screw	-12.1772
tively	-12.1773
ricket	-12.1777
▁sour	-12.1778
▁spur	-12.1783
▁fighters	-12.1785
ault	-12.1786
▁Marl	-12.1787
▁spend	-12.1788
▁tumbl	-12.1791
SL	-12.1806
▁Grill	-12.1811
▁Sun	-12.1821
▁netting	-12.1825
aving	-12.1827
▁click	-12.1833
▁glance	-12.1834
▁husk	-12.1841
▁springs	-12.1844
vy	-12.1851
▁unto	-12.187
▁purchases	-12.1874
▁hugg	-12.1874
rill	-12.1879
formed	-12.1882
prised	-12.1883
▁soil	-12.1901
ought	-12.1919
tilts	-12.1922
▁captiv	-12.1929
lama	-12.1932
▁Kil	-12.1933
eli	-12.1934
proof	-12.1939
▁adventure	-12.1941
▁triang	-12.1944
▁fro	-12.1948
nel	-12.1952
▁packages	-12.1954
acked	-12.1963
fire	-12.1976
▁wal	-12.1991
▁castles	-12.1993
▁War	-12.2005
locking	-12.202
ooded	-12.202
ook	-12.2023
▁Kit	-12.2025
▁ban	-12.2027
▁obstacles	-12.2046
ns	-12.2048
▁sprint	-12.2049
▁rat	-12.206
away	-12.2078
▁tread	-12.208
golf	-12.2085
▁examined	-12.2092
▁Long	-12.2098
▁herd	-12.2102
let	-12.2102
▁sheets	-12.211
orange	-12.2115
▁cuff	-12.212
atching	-12.2125
opy	-12.2128
▁imitat	-12.2129
▁await	-12.213
omele	-12.2134
tip	-12.2134
▁strand	-12.2141
▁wheelers	-12.2146
berries	-12.2154
▁boulders	-12.2155
aura	-12.2167
▁tro	-12.2169
▁walker	-12.2173
▁bulls	-12.2175
▁fringe	-12.2175
▁Cal	-12.218
▁cot	-12.2184
▁extra	-12.2192
pies	-12.2199
▁glide	-12.22
rous	-12.2216
atter	-12.2224
▁rea	-12.2233
ience	-12.2238
▁crowds	-12.2257
▁vi	-12.2262
▁sex	-12.2267
▁provide	-12.227
▁consume	-12.2271
We	-12.2278
ondol	-12.23
▁skill	-12.2309
▁bad	-12.2315
ulate	-12.2317
vil	-12.2324
ux	-12.2337
▁Fo	-12.2339
inned	-12.2348
bound	-12.2363
▁shapes	-12.2371
di	-12.2378
▁contemplati	-12.2381
▁wheelbarrows	-12.2384
flop	-12.2385
▁pineapple	-12.2392
▁weapon	-12.2394
▁donut	-12.2395
▁qu	-12.2398
▁jobs	-12.2399
ashes	-12.2407
▁bea	-12.241
▁Firem	-12.2411
▁fram	-12.2429
laps	-12.2431
▁tosse	-12.2448
amused	-12.2456
randfather	-12.2457
icated	-12.2459
ransport	-12.2461
▁videotape	-12.2462
sue	-12.2468
Ex	-12.247
▁custom	-12.2476
▁Carnival	-12.248
▁Chevrolet	-12.248
▁Mormon	-12.248
▁cathedral	-12.248
▁demanding	-12.248
▁improvise	-12.248
▁kimono	-12.248
▁navigat	-12.248
▁roulette	-12.248
▁extinguish	-12.248
▁reptile	-12.248
▁Doctor	-12.248
▁carousel	-12.248
▁goodbye	-12.2481
▁urinal	-12.2481
▁Lounge	-12.2481
▁classmates	-12.2481
▁sprawl	-12.2481
▁crepe	-12.2481
▁typewriter	-12.2481
▁specimen	-12.2481
▁professor	-12.2481
▁newsstand	-12.2481
▁Cameram	-12.2481
▁foothills	-12.2481
▁summit	-12.2481
▁swordfish	-12.2482
▁martini	-12.2482
▁bongo	-12.2482
▁gambling	-12.2483
▁slush	-12.2483
▁compass	-12.2483
▁attract	-12.2483
▁immigration	-12.2483
▁worshipers	-12.2484
eteran	-12.2484
▁grandfather	-12.2484
▁Kaya	-12.2484
▁Giant	-12.2484
▁scientist	-12.2484
rical	-12.2485
▁conven	-12.2486
▁fiber	-12.2486
▁Pigeon	-12.2486
▁passion	-12.2487
minate	-12.2487
▁headgear	-12.2489
▁Star	-12.249
▁encircl	-12.2492
▁maze	-12.2494
▁pearl	-12.2495
▁lamb	-12.2495
bout	-12.2497
▁postcard	-12.2498
east	-12.2498
▁downstairs	-12.2505
▁pride	-12.2507
▁fixtures	-12.2508
DH	-12.251
▁poll	-12.251
▁pom	-12.2515
▁dachshunds	-12.2516
▁placi	-12.2517
▁chops	-12.2528
pean	-12.253
▁portion	-12.253
▁troop	-12.2533
▁fighter	-12.2542
▁samples	-12.2548
▁Starbuck	-12.255
▁und	-12.2551
▁gra	-12.2553
stitut	-12.2564
▁pineapples	-12.2569
gent	-12.2572
▁walki	-12.2576
▁David	-12.2577
▁Hulk	-12.2577
eir	-12.2587
▁count	-12.2591
pt	-12.2602
ars	-12.2606
▁cheerful	-12.2606
▁Gardens	-12.2615
▁slice	-12.2615
▁bloom	-12.2624
mark	-12.2624
▁assembles	-12.263
▁sur	-12.2638
▁winds	-12.264
▁roman	-12.264
▁temporar	-12.265
▁var	-12.2652
▁cycle	-12.2655
utside	-12.2658
▁characters	-12.2662
door	-12.2664
▁bro	-12.2665
▁basin	-12.2666
▁suite	-12.2678
▁tye	-12.2682
pple	-12.2692
set	-12.2699
tar	-12.2704
▁humans	-12.2706
▁waffles	-12.2708
▁Bi	-12.2711
fille	-12.2722
▁today	-12.273
tating	-12.273
▁snorkeler	-12.2764
▁colla	-12.2767
▁tangle	-12.2774
▁trough	-12.2781
ide	-12.2789
▁Prince	-12.2798
▁brownies	-12.28
▁theme	-12.2804
hinatown	-12.2813
▁graduate	-12.2813
▁stu	-12.282
▁surfboards	-12.2821
iled	-12.2821
▁excavat	-12.2822
▁blur	-12.2832
ail	-12.2838
▁assists	-12.2845
dir	-12.2855
▁crow	-12.2855
▁patients	-12.2857
illing	-12.2857
▁pierc	-12.2857
flowers	-12.2859
▁coworker	-12.2863
▁pla	-12.2869
assist	-12.2873
aid	-12.2876
▁strain	-12.2876
forming	-12.2877
▁hoods	-12.2899
▁skydiv	-12.2903
fter	-12.2909
we	-12.2926
standing	-12.2959
uslim	-12.2968
▁flats	-12.297
▁firetrucks	-12.2988
ows	-12.299
rough	-12.2992
ello	-12.3001
ives	-12.3003
▁here	-12.3027
▁yell	-12.3028
▁ways	-12.3035
▁bout	-12.3043
▁owners	-12.3057
ka	-12.3078
▁cu	-12.3125
▁restaurants	-12.3169
▁De	-12.3171
▁raid	-12.3184
isters	-12.3206
unt	-12.321
▁gain	-12.3232
▁qui	-12.3249
▁separat	-12.3253
▁mold	-12.3268
▁Hot	-12.3269
omp	-12.3275
ual	-12.328
uches	-12.3281
na	-12.3284
▁notice	-12.3304
▁commut	-12.3307
▁pear	-12.3308
temporar	-12.3324
ages	-12.3325
▁distor	-12.3339
hefs	-12.3361
▁nation	-12.3366
avern	-12.3394
per	-12.3398
▁tu	-12.3415
SC	-12.3422
sque	-12.3427
atche	-12.343
working	-12.3451
bs	-12.3452
shot	-12.3456
ley	-12.3464
▁Toy	-12.3464
▁ab	-12.3469
▁pumpkins	-12.3472
▁clim	-12.3472
ue	-12.3481
▁puff	-12.3488
▁cuddle	-12.3519
▁hel	-12.3529
▁trays	-12.3534
ets	-12.354
▁pursu	-12.3546
▁die	-12.3554
armed	-12.3555
▁desti	-12.3558
py	-12.3562
▁mul	-12.3566
late	-12.358
▁allow	-12.3582
▁patt	-12.3595
aster	-12.3598
dge	-12.3615
▁fla	-12.3623
▁advertise	-12.3623
▁provid	-12.3627
rning	-12.3631
ropica	-12.3633
ardi	-12.364
hop	-12.3644
▁occur	-12.3653
tten	-12.3673
ucking	-12.3685
book	-12.3692
▁til	-12.3696
gs	-12.371
cks	-12.3741
▁Competit	-12.3753
nes	-12.3759
ored	-12.3764
lowing	-12.3766
gy	-12.377
tching	-12.3801
aps	-12.3811
cker	-12.3812
workers	-12.3815
ak	-12.3819
▁stoo	-12.3828
▁wicke	-12.384
▁bl	-12.3873
meter	-12.3874
▁fours	-12.388
rab	-12.3889
ever	-12.3895
▁slipp	-12.3918
▁mar	-12.3943
shing	-12.3944
▁carri	-12.3946
lines	-12.3954
elf	-12.3958
print	-12.3961
stack	-12.3978
off	-12.3984
omania	-12.3989
ddresses	-12.399
clear	-12.3999
▁blade	-12.3999
▁fixe	-12.4004
ander	-12.4007
hood	-12.4016
hig	-12.4019
acket	-12.402
▁grasses	-12.402
▁rel	-12.4028
end	-12.4029
hadow	-12.4054
outs	-12.4057
▁uni	-12.4065
▁cradle	-12.4065
sitting	-12.4065
rade	-12.4078
foam	-12.4084
vault	-12.4093
potty	-12.4094
▁meals	-12.4094
adian	-12.4096
lovely	-12.4097
▁cul	-12.411
chested	-12.4115
driver	-12.4116
riders	-12.4119
▁create	-12.4123
▁brow	-12.4138
▁obe	-12.4158
gna	-12.416
jacket	-12.4172
ick	-12.4178
styled	-12.4181
airway	-12.4185
▁pil	-12.42
boat	-12.4211
▁clu	-12.422
cell	-12.4222
▁Poli	-12.4227
▁assemble	-12.4227
iel	-12.4233
▁patrol	-12.4235
▁des	-12.4239
▁cub	-12.4256
eam	-12.4259
▁jog	-12.4268
▁generat	-12.4269
▁conversations	-12.4272
▁sweats	-12.4274
▁remind	-12.4276
▁east	-12.4279
wheelers	-12.4284
erate	-12.4284
▁technic	-12.4297
▁appliance	-12.43
▁iPod	-12.4301
▁drumstick	-12.4303
▁Sha	-12.4308
▁pol	-12.4312
▁saucer	-12.4318
ane	-12.4322
▁bronc	-12.4324
▁Shep	-12.4325
▁cylind	-12.4327
chute	-12.4332
▁headphone	-12.4335
chair	-12.4336
cer	-12.4337
▁Gro	-12.434
ross	-12.4353
do	-12.4359
ubway	-12.4377
▁graffit	-12.4384
urniture	-12.4386
destrians	-12.4388
euv	-12.4388
ailroad	-12.4389
▁volley	-12.4389
▁architect	-12.4389
uarterback	-12.439
Truth	-12.439
nocob	-12.439
▁Bronco	-12.439
▁Francisco	-12.439
▁Lampard	-12.439
▁Stanmore	-12.439
▁broccoli	-12.439
▁castanhas	-12.439
▁confetti	-12.439
▁distracted	-12.439
▁espresso	-12.439
▁opportunity	-12.439
▁scrimmage	-12.439
▁slalom	-12.439
▁strength	-12.439
▁success	-12.439
▁synthesizer	-12.439
▁transformer	-12.439
▁collaborat	-12.439
▁Internet	-12.439
▁majorette	-12.439
▁Facebook	-12.439
▁explosion	-12.439
riumph	-12.439
▁tassel	-12.439
▁Bishop	-12.439
▁Cindy	-12.439
▁armbands	-12.439
▁craftzine	-12.439
▁ridiculous	-12.439
▁mandolin	-12.439
▁birdcage	-12.439
▁slinky	-12.439
▁Costco	-12.439
▁partition	-12.439
▁bellbottoms	-12.439
▁yarmulke	-12.439
▁Humor	-12.439
▁baggage	-12.439
▁Clear	-12.439
▁jaywalk	-12.439
▁pillowcase	-12.439
▁YO	-12.439
▁refuge	-12.439
▁eyelid	-12.439
nderground	-12.439
▁Western	-12.439
▁noodles	-12.439
barro	-12.439
▁aviator	-12.4391
▁caterer	-12.4391
▁divider	-12.4391
▁needles	-12.4392
▁footpath	-12.4392
aneous	-12.4392
▁mouthguards	-12.4393
Energizer	-12.4393
▁Bike	-12.4393
▁peeler	-12.4393
Glob	-12.4394
▁reaction	-12.4394
▁campground	-12.4394
▁Scrabble	-12.4394
▁data	-12.4396
▁sandpit	-12.4396
▁keyboardist	-12.4397
▁campus	-12.4397
▁Paris	-12.4397
lypads	-12.4399
▁beech	-12.4399
berg	-12.44
HI	-12.4402
▁pensively	-12.4403
mb	-12.4405
▁marina	-12.4407
▁jew	-12.441
▁daylight	-12.4411
▁retro	-12.4413
▁congr	-12.4414
Info	-12.4416
▁buyer	-12.4416
▁smirking	-12.4418
▁tumbles	-12.4424
LP	-12.4424
▁sil	-12.4424
▁buddha	-12.4425
▁wildly	-12.443
▁bonding	-12.4431
▁dandelions	-12.4432
▁shove	-12.4434
▁protector	-12.4435
▁breakdances	-12.4439
▁olympic	-12.445
bb	-12.4453
▁root	-12.4457
▁buff	-12.4458
ustere	-12.4459
▁Ho	-12.4461
female	-12.4465
cap	-12.4469
erns	-12.4476
▁lakefront	-12.4478
▁iPods	-12.4479
▁saucers	-12.4481
▁hop	-12.4482
ath	-12.4485
▁trample	-12.4486
coat	-12.4487
akistan	-12.4491
▁edges	-12.4494
alie	-12.4494
▁rights	-12.4506
emble	-12.4507
▁reg	-12.4508
▁resurfac	-12.4515
▁pri	-12.4525
ripe	-12.453
weeping	-12.453
▁steal	-12.4535
▁Fa	-12.4539
▁ju	-12.4539
▁pluck	-12.4542
▁mache	-12.4544
▁Latino	-12.4545
▁Pum	-12.4547
▁Grand	-12.4563
▁Wi	-12.4566
▁chucks	-12.4572
▁mono	-12.4573
▁wallet	-12.4574
▁holders	-12.4577
▁stag	-12.4578
▁rescuer	-12.4578
ag	-12.4583
throw	-12.4583
pper	-12.4587
onsumers	-12.4592
▁Musta	-12.4594
▁nationalit	-12.4613
▁penguins	-12.4621
▁bindi	-12.4626
▁simpl	-12.4628
heperd	-12.463
formal	-12.4631
▁arrang	-12.4638
▁mis	-12.4638
uc	-12.464
▁deb	-12.4642
▁cabins	-12.4642
▁windsurf	-12.4668
▁mal	-12.467
▁min	-12.467
dem	-12.467
uzz	-12.4673
enade	-12.4673
strict	-12.4676
▁sponges	-12.4685
toy	-12.469
ial	-12.47
▁buddi	-12.4703
▁halo	-12.4711
▁packe	-12.4714
▁prepa	-12.4721
rimp	-12.4725
▁now	-12.473
▁powders	-12.4731
stage	-12.4737
▁ador	-12.4742
▁sung	-12.4745
▁aero	-12.4752
▁arrest	-12.4755
ierce	-12.4766
HO	-12.477
ld	-12.4772
lka	-12.4783
▁shred	-12.4787
▁sparing	-12.4791
▁sub	-12.4796
ists	-12.4807
roof	-12.4808
▁ac	-12.4812
udge	-12.4813
stract	-12.4827
AT	-12.4833
rectly	-12.4866
waii	-12.4867
ol	-12.487
▁Swimm	-12.4874
kes	-12.4875
▁serv	-12.4875
appear	-12.4876
▁Hero	-12.4879
lled	-12.4883
▁turkeys	-12.4885
▁toes	-12.4889
fish	-12.4892
goers	-12.4899
policy	-12.4916
mall	-12.4926
rest	-12.4938
place	-12.4964
arade	-12.4977
alize	-12.498
▁cand	-12.4992
▁Pom	-12.4993
ender	-12.5012
▁Cir	-12.5014
climb	-12.5021
cloth	-12.5031
▁scrub	-12.5036
tics	-12.5036
ches	-12.5044
▁Largo	-12.505
med	-12.5052
did	-12.5075
horn	-12.5077
▁Mon	-12.5077
beam	-12.508
gging	-12.5093
block	-12.5097
cuff	-12.5104
pants	-12.5107
fighting	-12.5112
ks	-12.5116
wave	-12.5119
▁final	-12.5122
▁vie	-12.5122
ains	-12.513
▁ru	-12.5133
raised	-12.5134
burn	-12.5135
bikes	-12.5138
▁lace	-12.5138
holding	-12.5151
stroke	-12.5154
oncert	-12.5154
▁Hal	-12.5156
▁Fair	-12.5156
ium	-12.5165
iously	-12.5166
complete	-12.5173
lo	-12.5174
venue	-12.5179
▁styles	-12.5181
ompany	-12.5199
picker	-12.5203
flowing	-12.521
▁sandal	-12.5213
ors	-12.5213
leap	-12.522
tain	-12.5228
▁escap	-12.5233
▁DE	-12.5236
thon	-12.5237
ham	-12.524
ware	-12.5242
▁react	-12.5243
▁Sc	-12.5276
ME	-12.5277
smi	-12.5282
site	-12.5282
▁exchang	-12.5287
▁fore	-12.5291
oking	-12.53
ied	-12.5306
qui	-12.5307
tically	-12.5333
▁pane	-12.5333
▁Bu	-12.5348
ids	-12.5348
▁thing	-12.5351
▁cloths	-12.5362
▁seek	-12.5363
▁lov	-12.537
Love	-12.5373
▁Astro	-12.5374
icking	-12.5382
▁lectur	-12.5383
▁La	-12.54
ackle	-12.5407
▁gro	-12.5411
endor	-12.5413
▁tambourine	-12.5413
gi	-12.5414
▁diaper	-12.5414
▁patron	-12.542
▁rehears	-12.5423
▁cruis	-12.5425
▁gymnastic	-12.5427
▁sample	-12.5437
▁buses	-12.544
▁antiqu	-12.5451
others	-12.5452
▁demoli	-12.5461
▁arc	-12.5466
▁Africa	-12.547
▁think	-12.5472
ogether	-12.5476
attooed	-12.5482
▁dart	-12.5495
▁sideline	-12.5496
▁crest	-12.5496
rofessional	-12.5496
▁slop	-12.5498
▁Isla	-12.5499
▁execut	-12.5499
escue	-12.55
uggler	-12.55
eflection	-12.5501
▁neighbor	-12.5501
ewelry	-12.5501
▁choreograph	-12.5501
▁illustrat	-12.5501
▁practitioner	-12.5501
▁Dalmatian	-12.5501
▁Demonstrator	-12.5501
▁Extreme	-12.5501
▁Gallery	-12.5501
▁Scantily	-12.5501
▁applaud	-12.5501
▁artifacts	-12.5501
▁chimney	-12.5501
▁continue	-12.5501
▁experiment	-12.5501
▁galoshes	-12.5501
▁liquor	-12.5501
▁lollipop	-12.5501
▁procedure	-12.5501
▁toboggan	-12.5501
▁tranquil	-12.5501
▁trophies	-12.5501
▁Tigger	-12.5501
▁blossom	-12.5501
▁geyser	-12.5501
▁protrud	-12.5501
▁Ikea	-12.5501
▁sequence	-12.5501
▁whimsical	-12.5501
▁develop	-12.5501
▁festivities	-12.5501
▁England	-12.5501
▁caboose	-12.5501
▁nuzzling	-12.5501
▁pendant	-12.5501
▁canapes	-12.5501
▁jesus	-12.5501
▁eyebrow	-12.5501
▁Fanta	-12.5501
▁contently	-12.5501
▁journey	-12.5501
▁Pepsi	-12.5501
▁impress	-12.5501
▁motif	-12.5501
▁halloween	-12.5501
▁announcement	-12.5501
▁crime	-12.5501
▁affair	-12.5501
▁Legos	-12.5501
grapher	-12.5501
▁shrine	-12.5501
▁communication	-12.5501
▁masonry	-12.5501
▁cherries	-12.5501
▁honor	-12.5501
▁pylon	-12.5501
▁farmland	-12.5501
▁entryway	-12.5501
▁Wedding	-12.5502
▁rottweiler	-12.5502
▁gawk	-12.5502
▁crude	-12.5502
▁digger	-12.5502
▁uggs	-12.5502
▁Ferr	-12.5502
▁jig	-12.5502
▁executive	-12.5503
▁micro	-12.5503
▁astonish	-12.5503
▁twent	-12.5504
▁penalt	-12.5504
▁beaker	-12.5504
▁cooper	-12.5504
▁delight	-12.5505
▁replaced	-12.5505
▁filter	-12.5505
▁wiener	-12.5505
▁sparsely	-12.5505
▁Odd	-12.5505
▁jetty	-12.5505
▁alien	-12.5506
▁winks	-12.5506
▁seawall	-12.5507
▁stylist	-12.5508
▁defend	-12.5508
▁fanny	-12.5508
▁glitter	-12.5508
▁measurement	-12.5509
▁handkerchief	-12.5509
ct	-12.5509
▁portray	-12.551
▁Monk	-12.5511
ised	-12.5511
Lucky	-12.5511
▁hunter	-12.5511
▁orbs	-12.5513
oodles	-12.5514
▁flatten	-12.5515
▁seren	-12.5515
▁grains	-12.5515
regard	-12.5516
▁Colorful	-12.5517
▁session	-12.5517
▁cubes	-12.5518
▁perfom	-12.5519
▁suds	-12.5519
▁turf	-12.5519
▁plaque	-12.552
assengers	-12.5521
▁travelling	-12.5522
▁utiliz	-12.5522
▁deflat	-12.5524
▁upstairs	-12.5525
▁tux	-12.5526
▁choose	-12.5527
▁Trash	-12.5527
Spring	-12.5527
▁meander	-12.5527
▁law	-12.5529
▁budge	-12.553
▁weighed	-12.553
▁salt	-12.5532
▁feat	-12.5532
▁grimacing	-12.5533
▁hawaii	-12.5535
▁erect	-12.5535
▁bushel	-12.5538
▁booklets	-12.5539
▁pastry	-12.5539
▁playful	-12.5541
sm	-12.5545
▁pav	-12.5547
▁Ear	-12.5547
▁placard	-12.5548
▁documents	-12.5548
▁Sports	-12.5548
▁States	-12.5549
▁mushrooms	-12.5549
▁chemicals	-12.5549
▁balm	-12.555
▁yells	-12.5551
▁coke	-12.5552
bums	-12.5553
▁rollerblades	-12.5556
der	-12.5556
▁came	-12.5557
▁dazzl	-12.5559
▁videotaped	-12.556
▁per	-12.556
▁Bang	-12.5563
▁chopped	-12.5567
skier	-12.557
▁propelle	-12.5571
▁auto	-12.5571
▁thrashe	-12.5572
▁apprehend	-12.5575
▁defending	-12.5575
kel	-12.5578
▁contort	-12.5582
van	-12.5585
▁rem	-12.5592
▁proper	-12.5592
SHI	-12.5597
▁cramp	-12.5599
ture	-12.56
▁trainer	-12.5601
▁sprayer	-12.5603
▁Angele	-12.5603
▁states	-12.5604
▁squints	-12.5605
▁later	-12.5613
aped	-12.5614
ined	-12.5616
lindfolded	-12.5616
▁supervising	-12.5622
▁spirit	-12.5627
▁frames	-12.5628
▁gam	-12.5632
▁Mark	-12.5633
ram	-12.5634
reef	-12.5636
▁mingl	-12.564
Hill	-12.5642
▁cru	-12.5645
ulture	-12.5646
▁offer	-12.566
▁wallets	-12.5661
hine	-12.5663
▁hoof	-12.5663
tail	-12.5664
ridge	-12.5664
▁arrows	-12.5665
spectacle	-12.5669
edhead	-12.5672
▁wake	-12.5672
▁Player	-12.5676
▁dapple	-12.5684
rug	-12.5691
ury	-12.5692
▁mallets	-12.5696
mous	-12.5702
asual	-12.5704
▁slippers	-12.5712
▁En	-12.5713
urns	-12.5714
▁peaco	-12.5716
▁dentists	-12.5718
▁duel	-12.5718
dance	-12.5718
▁fields	-12.5724
▁elev	-12.573
▁nest	-12.5731
▁veils	-12.5732
asting	-12.5733
▁Dan	-12.5736
▁ri	-12.5742
sted	-12.5745
▁gobl	-12.5751
▁poof	-12.5755
▁mansion	-12.5756
▁welders	-12.5767
▁Athlete	-12.5769
▁award	-12.5772
not	-12.5778
▁stickers	-12.5782
arbecue	-12.5783
panish	-12.5783
▁gran	-12.579
▁cracker	-12.5797
▁plains	-12.5801
▁packag	-12.5807
stre	-12.5816
▁spice	-12.5816
▁informal	-12.5816
dges	-12.5818
▁conoe	-12.5824
tual	-12.5834
▁Mo	-12.5837
▁limes	-12.5837
proxim	-12.5837
ailing	-12.5843
▁Sleep	-12.5847
dience	-12.5847
▁showcase	-12.5847
▁cine	-12.5851
ercedes	-12.5853
same	-12.5855
▁dispos	-12.5864
▁emit	-12.5865
▁caged	-12.5869
thod	-12.5872
blading	-12.5874
▁pew	-12.5876
▁bracelets	-12.5878
▁pra	-12.5888
lurry	-12.5891
addle	-12.5892
ewel	-12.5901
bar	-12.5902
▁convert	-12.5904
▁planks	-12.591
▁logos	-12.5915
▁bul	-12.5924
▁trad	-12.5924
ss	-12.5925
▁antiques	-12.5928
▁awnings	-12.594
▁cycles	-12.594
▁Females	-12.5941
▁whine	-12.5948
hy	-12.595
▁Tube	-12.5957
▁Art	-12.5963
▁Ken	-12.5967
▁capri	-12.5969
▁Spa	-12.597
▁angles	-12.5986
owls	-12.5987
elope	-12.5988
▁sometime	-12.5999
ivor	-12.6002
▁bug	-12.6004
▁cracke	-12.6006
▁Ey	-12.6011
ove	-12.6014
▁wiring	-12.6019
hoppers	-12.6023
ort	-12.6026
special	-12.6029
oe	-12.6034
▁Ste	-12.6038
▁bibs	-12.6049
tree	-12.6061
nitor	-12.6068
zzle	-12.607
iz	-12.6081
ni	-12.6083
▁holder	-12.6085
embers	-12.6086
▁glu	-12.6087
spirat	-12.6091
▁pag	-12.6098
▁fiddle	-12.6098
▁squatt	-12.6106
▁Husk	-12.6112
anyon	-12.6112
Ma	-12.6128
▁custod	-12.6136
▁fiddl	-12.6137
▁moutains	-12.6143
ummer	-12.6143
▁domin	-12.6144
▁latt	-12.6159
▁em	-12.616
▁Fir	-12.616
▁explo	-12.6165
fest	-12.6169
▁Bell	-12.6169
pass	-12.6182
ips	-12.6183
▁swan	-12.6196
▁leave	-12.6201
Do	-12.6202
▁arriv	-12.6208
nation	-12.621
▁storefronts	-12.6218
▁sweating	-12.6219
aisle	-12.6219
eer	-12.6221
painted	-12.6223
▁hover	-12.6227
ls	-12.6231
▁Sup	-12.6237
flip	-12.6241
enz	-12.6249
shir	-12.6252
ner	-12.6253
pack	-12.6256
▁sto	-12.6264
▁Wh	-12.6268
▁Cell	-12.6273
prints	-12.6279
nk	-12.629
vi	-12.6298
glo	-12.6301
▁snowing	-12.6306
arch	-12.6306
▁supports	-12.6315
umped	-12.6316
nce	-12.632
imes	-12.6321
▁nodd	-12.6333
ler	-12.6338
figure	-12.6338
scraper	-12.634
▁events	-12.6346
even	-12.635
scale	-12.6352
slide	-12.6354
nother	-12.6364
hooded	-12.6364
eeps	-12.6366
▁boating	-12.6377
▁Bur	-12.6381
aga	-12.6393
▁Pi	-12.6394
estro	-12.6403
▁sites	-12.6409
chet	-12.6417
▁fixed	-12.6417
▁giggl	-12.6421
drift	-12.6422
rie	-12.6425
oordinate	-12.6426
▁pum	-12.6426
▁dri	-12.644
lian	-12.644
link	-12.6441
length	-12.6443
uba	-12.6446
▁frolick	-12.6449
nder	-12.6457
sage	-12.6465
mar	-12.6475
▁bicycler	-12.648
▁vis	-12.6487
▁Hul	-12.6488
▁lan	-12.6489
▁latte	-12.6497
nails	-12.6499
▁finishe	-12.65
▁pastor	-12.65
stripe	-12.6508
▁ad	-12.6509
▁Civil	-12.6521
▁gu	-12.6534
▁Pen	-12.654
▁sees	-12.6544
has	-12.6546
▁scrape	-12.6554
itive	-12.6554
lab	-12.6558
ews	-12.657
rilli	-12.6575
ron	-12.6577
▁huts	-12.6592
league	-12.6607
▁rim	-12.6608
▁curle	-12.6619
sol	-12.6632
lute	-12.665
shade	-12.6651
ys	-12.6653
▁Home	-12.6654
▁utensil	-12.6663
▁handlebar	-12.6664
▁condition	-12.6665
ulti	-12.6667
▁steak	-12.6668
▁rapid	-12.6668
▁movement	-12.6669
spects	-12.6674
ca	-12.6676
▁Beach	-12.6686
zens	-12.6687
▁seed	-12.6689
▁decoration	-12.6693
▁traveler	-12.6693
ucch	-12.6703
oy	-12.6709
ecords	-12.6712
▁protester	-12.6719
oned	-12.672
raffic	-12.6722
▁poop	-12.6728
nned	-12.6731
▁multicolor	-12.6733
▁ridge	-12.6733
oners	-12.6733
▁crayo	-12.6733
ears	-12.6735
▁exam	-12.6739
kerchief	-12.6741
▁congregate	-12.6743
▁joyful	-12.6744
rogram	-12.6746
▁plus	-12.6748
▁magic	-12.675
pelunkers	-12.6751
▁Australia	-12.6751
▁Citroen	-12.6751
▁Claus	-12.6751
▁Dalmation	-12.6751
▁IKEA	-12.6751
▁Sparrow	-12.6751
▁amplifier	-12.6751
▁burqa	-12.6751
▁camcorder	-12.6751
▁conifer	-12.6751
▁midriff	-12.6751
▁nutcracker	-12.6751
▁paraphernalia	-12.6751
▁particular	-12.6751
▁pedicure	-12.6751
▁syrup	-12.6751
▁vegetation	-12.6751
▁wristbands	-12.6751
▁Disney	-12.6751
▁bassinet	-12.6751
▁limousine	-12.6751
▁reenact	-12.6751
▁Finley	-12.6751
▁affection	-12.6751
▁Photo	-12.6751
▁counsel	-12.6751
▁shuffl	-12.6751
▁hurried	-12.6751
▁Christ	-12.6751
▁cactus	-12.6751
ADHD	-12.6751
▁antlers	-12.6751
▁librarian	-12.6751
▁authority	-12.6751
▁refresh	-12.6751
▁Cream	-12.6751
▁emblem	-12.6751
▁soundboard	-12.6752
▁Pisa	-12.6752
▁gauge	-12.6752
▁magician	-12.6752
▁kitty	-12.6752
▁vista	-12.6752
▁unhook	-12.6752
▁talent	-12.6752
▁marvel	-12.6752
▁tunic	-12.6752
▁plugs	-12.6753
▁shotgun	-12.6753
▁beanbag	-12.6753
▁lilac	-12.6753
▁risers	-12.6753
▁loaves	-12.6753
BS	-12.6753
▁polar	-12.6754
▁Golf	-12.6754
▁Egy	-12.6754
▁Sausage	-12.6755
▁brook	-12.6755
▁eatery	-12.6755
▁cellar	-12.6756
▁Dame	-12.6756
▁brief	-12.6757
▁result	-12.6757
▁Truck	-12.6757
▁panties	-12.6758
▁poker	-12.6759
▁origin	-12.676
▁piercing	-12.6761
▁Mud	-12.6763
▁knob	-12.6764
▁snowmobiling	-12.6764
ungle	-12.6765
lanted	-12.6766
▁Steve	-12.6768
dobe	-12.6772
▁faith	-12.6772
▁rai	-12.6773
▁bullet	-12.6773
▁Collie	-12.6776
ically	-12.6777
▁cal	-12.6777
▁obscured	-12.6781
▁piping	-12.6782
▁Phil	-12.6782
▁peacefully	-12.6784
egro	-12.6784
▁demolished	-12.6787
▁dread	-12.6787
▁whispering	-12.6788
▁Martins	-12.6792
▁unpack	-12.6794
udor	-12.6794
evance	-12.6795
itz	-12.6795
▁downstream	-12.6796
▁winking	-12.68
▁architectural	-12.6801
▁sprinting	-12.6803
▁inter	-12.6805
▁renovations	-12.6805
▁chandeliers	-12.6805
egion	-12.681
▁hairstyle	-12.6811
shed	-12.6812
vated	-12.6812
ci	-12.6813
rom	-12.6815
▁cork	-12.6815
▁Sled	-12.6819
xpress	-12.6819
▁toil	-12.6822
til	-12.6824
stead	-12.6828
▁Packer	-12.6831
▁dwar	-12.6834
▁superi	-12.684
dle	-12.6847
▁herbs	-12.685
▁entree	-12.6855
shap	-12.6856
▁wedd	-12.6858
umber	-12.6859
▁appliances	-12.6866
▁respect	-12.6866
chief	-12.6868
▁Pol	-12.687
▁skydiving	-12.687
nary	-12.6878
▁swarm	-12.688
ff	-12.6887
▁spaceman	-12.689
elcome	-12.6892
inci	-12.6894
▁passer	-12.6898
▁won	-12.6898
▁boss	-12.69
ctu	-12.6901
ega	-12.6902
▁waterskies	-12.6902
pin	-12.6906
yellow	-12.6906
▁feeling	-12.6913
pe	-12.6914
▁mind	-12.6917
▁scratche	-12.6918
naps	-12.6919
▁hitch	-12.6921
oda	-12.6932
tari	-12.6936
▁emb	-12.6937
reams	-12.6939
▁vote	-12.6941
▁bund	-12.6943
▁sew	-12.6945
▁skateboarders	-12.6949
▁wigs	-12.6954
▁Cam	-12.6972
▁poolside	-12.6979
▁Bl	-12.6983
urly	-12.6985
▁possessions	-12.6987
H	-12.6987
ey	-12.699
▁kegs	-12.6995
▁scope	-12.6997
▁wrists	-12.6998
▁Met	-12.7002
▁gallon	-12.7007
▁refinish	-12.7019
▁zoom	-12.7022
etal	-12.7023
overs	-12.7026
▁cellos	-12.7031
use	-12.7031
▁dinosaurs	-12.7035
▁Parking	-12.7037
spect	-12.7042
fur	-12.7051
▁obscure	-12.7051
olaroid	-12.7066
▁dist	-12.7071
▁stri	-12.7071
▁golfers	-12.7073
ighten	-12.7086
eps	-12.7098
perate	-12.71
sed	-12.7106
▁gli	-12.7107
actory	-12.7109
▁coll	-12.7128
ading	-12.7133
▁gir	-12.7134
lay	-12.7137
▁gui	-12.714
▁bru	-12.7146
dom	-12.7153
▁sizes	-12.7154
▁groups	-12.7156
ust	-12.7159
▁inward	-12.7162
▁cue	-12.7167
▁distribute	-12.7168
ownspeople	-12.7169
ich	-12.7171
▁reform	-12.7177
▁begs	-12.7178
▁splits	-12.7182
▁evil	-12.7184
▁tre	-12.7185
▁organize	-12.719
▁tip	-12.7196
▁Workm	-12.72
▁shine	-12.7204
▁Lean	-12.7207
au	-12.7209
▁sle	-12.721
devil	-12.7212
▁fillet	-12.7217
epartment	-12.7234
▁wea	-12.7239
▁buttons	-12.7241
aphone	-12.7243
Tu	-12.7248
child	-12.7249
▁suites	-12.7251
ub	-12.7262
▁blowers	-12.7271
ubbles	-12.7279
people	-12.7284
▁giggle	-12.7291
inky	-12.7295
lets	-12.7295
▁jo	-12.7297
▁whack	-12.73
▁fins	-12.7306
vely	-12.7307
STA	-12.7311
▁clip	-12.7324
ught	-12.7361
▁depo	-12.7363
▁aloud	-12.7366
bra	-12.7367
ecker	-12.7379
▁kiosks	-12.7387
▁nipp	-12.7388
▁commute	-12.739
uni	-12.7398
girls	-12.7409
trium	-12.7418
▁eng	-12.743
▁temp	-12.7431
sters	-12.7444
▁mush	-12.7445
got	-12.7446
▁blacktop	-12.7455
▁res	-12.7465
du	-12.7467
quest	-12.747
hanging	-12.7479
mi	-12.7482
ibe	-12.7495
▁rece	-12.7496
wash	-12.7501
▁Bal	-12.7506
fied	-12.7512
▁shut	-12.7513
▁coil	-12.7527
oma	-12.7529
▁pea	-12.753
▁waists	-12.7532
▁floati	-12.7533
latter	-12.7539
▁bill	-12.7545
▁bins	-12.7548
▁pranc	-12.755
itheater	-12.7557
ests	-12.7566
▁downwards	-12.7567
▁readi	-12.7569
▁threa	-12.7571
▁eas	-12.758
aids	-12.7606
▁miles	-12.7609
▁bron	-12.7638
reek	-12.7641
▁sti	-12.7656
ba	-12.7656
▁gy	-12.769
poise	-12.7697
enor	-12.7709
reads	-12.7717
▁distribut	-12.7718
▁teachers	-12.7722
OME	-12.773
▁Far	-12.7734
ha	-12.7739
▁z	-12.7749
▁drummers	-12.7759
ands	-12.776
▁mu	-12.7762
rocks	-12.777
imar	-12.7771
▁sug	-12.7772
zag	-12.7781
▁rummage	-12.7783
▁exc	-12.7792
ista	-12.7795
Tw	-12.7796
owel	-12.7814
▁dove	-12.782
▁mes	-12.7823
young	-12.7866
phone	-12.7867
▁sidewa	-12.7873
▁compa	-12.7893
▁papa	-12.7914
▁bean	-12.7925
▁Hik	-12.7929
▁equip	-12.7938
alls	-12.7946
eal	-12.7951
mal	-12.7952
DA	-12.7957
▁Bra	-12.7961
else	-12.7964
▁converg	-12.7973
sit	-12.7976
em	-12.7984
▁rollerskat	-12.7992
otre	-12.7995
▁browse	-12.8005
icker	-12.8006
▁sm	-12.8014
▁dam	-12.8024
▁competiti	-12.8027
▁wre	-12.8027
▁swe	-12.8041
▁Hi	-12.8042
aven	-12.8042
▁crossbo	-12.8044
icyclist	-12.8046
▁op	-12.8057
rivia	-12.8069
▁ti	-12.8093
▁Gr	-12.8096
ctive	-12.8098
lease	-12.8099
▁Die	-12.8102
ecorated	-12.8104
ooked	-12.8104
lem	-12.8107
lea	-12.811
two	-12.8114
ense	-12.8117
erves	-12.8124
lim	-12.8125
▁potte	-12.8128
nlookers	-12.8165
ayaker	-12.8172
loved	-12.8174
nry	-12.818
oked	-12.8185
▁chipp	-12.8188
ashing	-12.8211
▁did	-12.8219
▁handler	-12.8256
▁doze	-12.8264
▁dul	-12.8267
▁tast	-12.8289
oc	-12.8293
▁youthful	-12.8303
come	-12.8313
ta	-12.8317
ger	-12.832
▁Pa	-12.832
trait	-12.8326
alia	-12.833
▁imp	-12.834
▁bless	-12.8352
han	-12.8357
▁Shel	-12.8357
peaks	-12.8371
range	-12.8388
iger	-12.8394
▁Tan	-12.8396
▁ledges	-12.8396
ult	-12.8396
tening	-12.84
▁hour	-12.8403
tory	-12.8404
ilitary	-12.8413
▁cleav	-12.8429
▁nam	-12.8435
▁notic	-12.8435
rinkle	-12.8443
▁pic	-12.8451
▁Tree	-12.8458
▁disp	-12.8469
▁teache	-12.8489
▁hol	-12.8517
graph	-12.8536
andal	-12.8576
ig	-12.8576
▁atm	-12.8578
culti	-12.8584
large	-12.8586
▁skim	-12.8592
▁nurs	-12.8601
ushes	-12.8603
eye	-12.8604
▁boo	-12.8609
tt	-12.8632
▁reel	-12.8643
▁sling	-12.866
rank	-12.8666
▁breakdance	-12.8681
yed	-12.8681
▁times	-12.8714
▁refu	-12.8727
▁Che	-12.8752
▁chang	-12.8754
▁dine	-12.8759
gh	-12.8775
▁Is	-12.8777
▁pulle	-12.878
bu	-12.8786
stro	-12.8793
partment	-12.8803
▁ent	-12.881
zard	-12.8811
▁oppsi	-12.883
▁Librar	-12.8837
beat	-12.8862
mount	-12.8886
layers	-12.8909
verhead	-12.8932
EL	-12.8934
ses	-12.8936
eiling	-12.8937
uit	-12.894
▁Lill	-12.8952
▁Dal	-12.8955
ambling	-12.8962
▁Ku	-12.897
mbling	-12.898
▁snuggle	-12.8984
ads	-12.8984
Whe	-12.8986
▁snuggl	-12.899
uth	-12.8992
▁breads	-12.8998
▁Form	-12.9002
▁vaca	-12.9015
▁busk	-12.903
ara	-12.9033
▁por	-12.9034
doors	-12.9042
oney	-12.9055
▁hooke	-12.9063
stock	-12.9075
ame	-12.9076
sian	-12.9077
▁plea	-12.9087
▁Para	-12.9096
mmer	-12.9097
▁chart	-12.9098
▁turb	-12.9099
writer	-12.9099
zone	-12.9125
▁inflate	-12.9133
▁flie	-12.9135
guitar	-12.9136
ariachi	-12.9164
▁fac	-12.9167
▁misse	-12.9175
▁days	-12.9184
ational	-12.9187
▁sn	-12.9213
utter	-12.9213
▁Past	-12.9218
▁suns	-12.9232
▁sleds	-12.9251
park	-12.9263
▁Who	-12.9274
esting	-12.9281
▁media	-12.9282
▁Kh	-12.9284
▁hal	-12.9291
ast	-12.9307
eaceful	-12.9308
argarita	-12.9316
▁Gree	-12.9317
EE	-12.933
▁Peace	-12.9331
▁bomb	-12.9339
▁bang	-12.9344
▁y	-12.9344
cheeked	-12.9347
orgi	-12.9379
▁mustach	-12.938
ited	-12.938
bottoms	-12.9396
mong	-12.9401
part	-12.9425
ound	-12.9433
pers	-12.9436
into	-12.9436
obes	-12.9458
▁smok	-12.9469
▁huddl	-12.9483
boys	-12.9483
ady	-12.9489
grass	-12.9497
cycle	-12.9503
imm	-12.9506
fix	-12.9521
dron	-12.9523
▁poke	-12.9527
sheath	-12.9538
pool	-12.9542
hous	-12.9544
▁rocket	-12.9546
assage	-12.9549
rag	-12.9551
mbo	-12.9564
li	-12.9569
▁compl	-12.9569
ole	-12.9582
▁projects	-12.9583
rick	-12.9586
eague	-12.9599
▁produc	-12.9601
▁tab	-12.961
▁golfing	-12.9631
elp	-12.9663
▁lung	-12.9669
▁date	-12.9679
pensive	-12.9684
ach	-12.9717
rin	-12.9722
rot	-12.9742
lder	-12.9746
▁ros	-12.975
sex	-12.9753
▁loo	-12.9763
▁rec	-12.978
▁till	-12.9782
shadow	-12.9824
eing	-12.9831
tended	-12.9832
etter	-12.9846
▁Som	-12.9857
ident	-12.9863
ering	-12.9866
▁canes	-12.9876
SH	-12.9877
▁Shirt	-12.9877
apping	-12.9908
▁perus	-12.9919
▁hos	-12.9928
▁lathe	-12.9929
ngs	-12.9935
election	-12.9944
▁Afro	-12.9944
▁Min	-12.9946
▁suck	-12.9955
anda	-12.996
unflowers	-12.996
nting	-12.9984
anic	-12.9987
ran	-13.0004
onz	-13.0012
polit	-13.0013
▁acc	-13.0022
▁steadi	-13.0028
ocks	-13.0034
▁bal	-13.0042
yro	-13.0045
inter	-13.0049
▁sop	-13.0059
aint	-13.0065
ounds	-13.0066
▁soon	-13.0066
▁unis	-13.0076
▁El	-13.0093
lter	-13.0103
▁Adi	-13.0106
▁leas	-13.0129
▁conce	-13.0139
shes	-13.0156
Sex	-13.0162
vers	-13.0162
dies	-13.0164
ished	-13.0183
gle	-13.0202
closed	-13.0203
polo	-13.0211
lac	-13.0212
try	-13.0243
worker	-13.0244
▁Dis	-13.0254
▁gree	-13.0256
cket	-13.0261
mid	-13.0268
rail	-13.0294
evil	-13.0301
▁basketballs	-13.0302
ild	-13.032
▁builder	-13.0344
▁bee	-13.0345
arring	-13.0358
jac	-13.0363
cide	-13.0364
floor	-13.0395
grassy	-13.0402
bag	-13.0412
gol	-13.0414
Canad	-13.0431
▁rollerblade	-13.0432
ently	-13.0433
▁cradl	-13.0435
hard	-13.0435
cime	-13.0447
rms	-13.0458
ursuit	-13.0467
▁pinn	-13.0469
Line	-13.0471
hopping	-13.0476
wed	-13.0478
av	-13.0487
lated	-13.0516
ms	-13.0523
▁Su	-13.0536
▁cas	-13.0549
ell	-13.0555
▁lett	-13.0565
▁hoe	-13.0567
▁cola	-13.0574
cher	-13.0583
ory	-13.0585
▁loa	-13.0588
▁snows	-13.0589
hone	-13.0592
▁Cur	-13.0639
▁Mount	-13.0659
▁Wait	-13.0668
▁plum	-13.0678
swing	-13.0681
▁fort	-13.0682
istressed	-13.0683
nished	-13.07
heep	-13.0704
▁bum	-13.0714
▁Ship	-13.0722
▁element	-13.0732
ific	-13.0738
ities	-13.0743
pi	-13.0746
full	-13.0755
layer	-13.0756
Be	-13.0758
▁canno	-13.0781
Children	-13.0788
dancing	-13.0797
eight	-13.081
vests	-13.0822
▁acce	-13.0826
▁pian	-13.0832
▁exa	-13.0836
▁emp	-13.0837
▁vo	-13.0846
▁decor	-13.0863
▁sunli	-13.0878
▁within	-13.0882
▁comple	-13.0887
surfer	-13.089
ozy	-13.0903
▁ax	-13.0905
ark	-13.0917
both	-13.092
public	-13.0924
▁peopl	-13.0928
▁tap	-13.093
▁tw	-13.095
forest	-13.0954
pole	-13.097
rock	-13.0971
coops	-13.0988
▁arra	-13.0997
▁visib	-13.1
▁likes	-13.1015
lmost	-13.1021
ile	-13.1027
make	-13.1036
▁releas	-13.1045
ttractive	-13.1048
tri	-13.1053
est	-13.1057
▁bou	-13.1065
left	-13.1069
▁dic	-13.1078
▁coin	-13.1082
dventure	-13.1089
gg	-13.1091
▁sty	-13.11
▁prop	-13.1102
inde	-13.1111
lue	-13.1112
▁engr	-13.1115
das	-13.1128
town	-13.1129
▁stuc	-13.1138
▁Pain	-13.1139
gear	-13.114
angle	-13.1145
float	-13.115
▁pos	-13.1151
▁Bea	-13.1161
▁tenta	-13.1162
▁concentrati	-13.1162
▁cav	-13.1173
loth	-13.1174
voc	-13.1175
sty	-13.1177
▁towar	-13.1178
risk	-13.118
trampoline	-13.1181
▁graduat	-13.1182
ain	-13.1194
press	-13.1199
ounce	-13.1221
WE	-13.1255
ttende	-13.1263
▁Color	-13.127
ams	-13.1271
hold	-13.1272
ller	-13.1272
ncho	-13.1274
most	-13.1284
▁employe	-13.1287
spot	-13.1296
heavy	-13.1297
rnately	-13.1298
▁circ	-13.1304
ody	-13.1317
serve	-13.1317
oil	-13.1321
▁ni	-13.1325
eni	-13.1331
traffic	-13.1332
ollar	-13.1333
ucky	-13.1334
skating	-13.1337
eachgoers	-13.134
▁creati	-13.134
▁barbe	-13.1348
shovel	-13.1353
▁Budd	-13.1355
▁sou	-13.1366
ocked	-13.1367
flower	-13.1368
cafe	-13.1373
page	-13.1384
robe	-13.1388
including	-13.139
ems	-13.1391
finish	-13.1395
frame	-13.1399
race	-13.1402
▁national	-13.1406
esident	-13.1418
clock	-13.1419
course	-13.1424
atches	-13.1427
za	-13.1431
liquid	-13.1433
fe	-13.1442
▁Sett	-13.1452
eeks	-13.1458
flight	-13.146
broken	-13.1461
ailor	-13.1465
taxi	-13.1468
paddles	-13.1472
lackberry	-13.1474
▁tilt	-13.1474
peace	-13.1483
corn	-13.1484
lightly	-13.1493
built	-13.1499
crawl	-13.1499
Wii	-13.1502
bald	-13.1512
conducting	-13.1518
almost	-13.1521
▁cons	-13.1521
extreme	-13.1521
Cent	-13.1522
bloom	-13.1525
interest	-13.1525
Shirt	-13.1527
stool	-13.1528
▁servic	-13.1528
lted	-13.1533
times	-13.1533
▁decid	-13.1534
volunteer	-13.1536
craft	-13.1537
▁divid	-13.1537
space	-13.154
Farmers	-13.1541
angry	-13.1544
chucks	-13.1544
quarter	-13.1554
Ok	-13.1557
▁presse	-13.1557
ologi	-13.1557
safe	-13.1561
totter	-13.1567
along	-13.1568
▁gar	-13.1569
▁surve	-13.157
▁compos	-13.1572
▁chop	-13.1574
mache	-13.1574
form	-13.1577
dapple	-13.158
clothed	-13.1586
▁vul	-13.1589
struct	-13.159
opened	-13.1592
Train	-13.1594
xe	-13.1597
▁fam	-13.1602
cycl	-13.1604
emergency	-13.1609
mail	-13.1613
▁wom	-13.1617
castles	-13.1622
It	-13.1624
▁rescu	-13.1632
▁Photograph	-13.1638
ket	-13.1639
cups	-13.1639
lon	-13.1648
loop	-13.1653
▁Pops	-13.1654
▁doz	-13.167
vari	-13.1674
llegia	-13.1676
pices	-13.1677
winds	-13.1682
▁involve	-13.1682
bodie	-13.1683
rmal	-13.1686
ave	-13.1688
ested	-13.1694
▁chu	-13.1697
icious	-13.1704
▁apprehen	-13.1708
har	-13.171
▁spo	-13.1711
▁craw	-13.1715
dicate	-13.172
▁kil	-13.1722
▁Merc	-13.1724
▁terri	-13.1726
▁catc	-13.1726
umer	-13.1729
ario	-13.1731
▁Turk	-13.1747
dream	-13.175
▁susp	-13.1753
▁tulip	-13.1753
▁sneaker	-13.1754
▁pigtail	-13.1755
▁chandelier	-13.1756
▁chemical	-13.1756
▁mushroom	-13.1756
▁dandelion	-13.1756
▁bystander	-13.1758
▁lantern	-13.1758
Fr	-13.176
▁State	-13.1761
▁dachshund	-13.1761
▁Croc	-13.1762
▁Protester	-13.1762
▁document	-13.1762
▁shingle	-13.1762
▁Pack	-13.1764
▁communicat	-13.1764
▁croc	-13.1766
▁snowshoe	-13.1767
▁renovation	-13.1767
▁kit	-13.1769
▁blind	-13.1771
▁recreati	-13.1776
▁snowfall	-13.1778
▁shopper	-13.178
▁disco	-13.1791
▁death	-13.1793
rban	-13.1795
rowded	-13.1795
gger	-13.1797
tags	-13.1799
▁sampl	-13.18
▁describ	-13.1805
yran	-13.181
ockers	-13.181
bble	-13.1814
▁accompan	-13.1814
ower	-13.1821
▁africa	-13.1824
▁saf	-13.1825
rv	-13.1827
▁submerge	-13.1827
▁Cow	-13.1828
▁abandon	-13.1828
▁injur	-13.183
ging	-13.1833
caffolding	-13.1834
▁selecti	-13.1837
ystanders	-13.1837
▁advert	-13.1838
▁anticipati	-13.1839
▁enthusiastic	-13.1839
latform	-13.1841
▁eyeglass	-13.1841
▁celebr	-13.1841
▁obje	-13.1843
restler	-13.1844
ottweiler	-13.1844
etriever	-13.1844
xcavation	-13.1844
▁Olympi	-13.1845
rphans	-13.1845
iolinist	-13.1845
▁grandpa	-13.1845
ightclub	-13.1845
rizon	-13.1845
armulke	-13.1845
▁hydra	-13.1845
ercises	-13.1846
▁energ	-13.1846
▁merchan	-13.1846
ferent	-13.1847
▁represent	-13.1847
▁crev	-13.1847
▁announce	-13.1847
▁piggy	-13.1847
jected	-13.1849
▁vict	-13.1849
▁simul	-13.185
▁sparse	-13.185
ber	-13.1851
ghett	-13.1851
▁techno	-13.1853
uilding	-13.1856
▁situat	-13.1856
▁lumb	-13.1858
mouth	-13.1858
cons	-13.186
vai	-13.186
lanta	-13.186
hills	-13.1863
uice	-13.1863
▁devi	-13.1864
grey	-13.1864
cientist	-13.1868
admin	-13.1868
lands	-13.1868
▁clo	-13.1868
cades	-13.187
nhappy	-13.1872
▁nec	-13.1873
▁warmer	-13.1874
uct	-13.1874
raveling	-13.1874
affect	-13.1875
strators	-13.1877
▁mode	-13.1877
▁youn	-13.1878
eling	-13.1879
luding	-13.1879
ffle	-13.1879
ttery	-13.1879
bies	-13.1879
Wor	-13.1881
▁envi	-13.1881
▁shelv	-13.1881
▁jers	-13.1881
arehouse	-13.1882
▁scree	-13.1883
uatt	-13.1884
▁Lou	-13.1886
▁dent	-13.1888
ndition	-13.1888
▁graf	-13.1888
ikin	-13.1889
▁lau	-13.1893
▁plat	-13.1893
heel	-13.1897
nnel	-13.1903
▁toddle	-13.1903
helme	-13.1903
ceful	-13.1905
▁smoo	-13.1908
wigs	-13.191
bac	-13.1912
ebri	-13.1917
▁chuck	-13.192
ext	-13.1922
▁Barn	-13.1922
ilver	-13.1924
atrons	-13.1925
▁Sno	-13.1926
formally	-13.1926
▁Barb	-13.193
itti	-13.1931
pak	-13.1934
urney	-13.1936
egway	-13.1938
tec	-13.194
airi	-13.1942
ockingbird	-13.1951
▁Bic	-13.1953
memor	-13.1955
▁iP	-13.1956
▁gau	-13.1958
ony	-13.1959
▁campf	-13.1963
cted	-13.1965
def	-13.1965
bject	-13.1981
issan	-13.1984
ildly	-13.1987
Asian	-13.1988
wings	-13.199
etches	-13.199
racy	-13.199
▁gentl	-13.199
luffy	-13.1991
ncil	-13.1997
▁jar	-13.2
ision	-13.2003
rther	-13.2012
boo	-13.2013
heading	-13.2014
echanic	-13.2017
lothes	-13.202
njoying	-13.202
bino	-13.2022
perio	-13.2022
fly	-13.2023
▁Po	-13.2023
▁Homel	-13.2025
idewalk	-13.2026
ride	-13.2028
▁colleg	-13.203
endors	-13.2031
hart	-13.2031
▁broad	-13.2038
wheels	-13.2041
nergizer	-13.2045
▁grou	-13.2047
moving	-13.2047
secti	-13.2048
utto	-13.2061
aja	-13.2062
lks	-13.2066
jor	-13.2073
asse	-13.2074
mbi	-13.2087
ackyard	-13.2093
itional	-13.2093
uve	-13.2095
▁laund	-13.21
▁boa	-13.2104
aved	-13.2112
kay	-13.2114
usiness	-13.2124
abins	-13.2124
oters	-13.2124
asketball	-13.2126
cene	-13.2131
▁usa	-13.2132
ields	-13.2133
▁rub	-13.2137
▁report	-13.2138
▁zo	-13.2139
ica	-13.2139
▁Live	-13.214
▁pedi	-13.2156
lames	-13.2159
icating	-13.2161
▁pavi	-13.2165
horts	-13.2166
laug	-13.2174
aughing	-13.2177
achshund	-13.2181
▁sna	-13.2182
iscu	-13.2183
hodo	-13.2183
tuff	-13.2189
umble	-13.2193
▁unsh	-13.2197
anties	-13.2198
▁buffe	-13.2198
tique	-13.22
Poli	-13.2203
amel	-13.2203
▁am	-13.2204
fiv	-13.2206
▁cler	-13.2207
tling	-13.2208
ights	-13.2209
ipsti	-13.2216
easure	-13.2235
▁feature	-13.2237
ivilian	-13.2239
avin	-13.225
porters	-13.2253
talks	-13.2255
encil	-13.2259
sani	-13.2269
▁env	-13.2282
▁blu	-13.2284
ewi	-13.2286
lor	-13.2289
rea	-13.2302
▁invent	-13.2304
parent	-13.2306
▁vert	-13.2309
inner	-13.2313
nment	-13.232
TA	-13.2331
ott	-13.2333
▁pedd	-13.2339
▁jac	-13.2343
niz	-13.2344
▁landscap	-13.2346
ndle	-13.2346
itali	-13.2352
▁Im	-13.2353
asket	-13.2358
rit	-13.2362
▁Pat	-13.2373
▁im	-13.2374
▁porc	-13.2374
kie	-13.2377
▁multit	-13.2379
isk	-13.2384
embles	-13.239
occe	-13.2391
▁burro	-13.2391
pick	-13.2419
river	-13.2423
store	-13.2429
can	-13.2431
nuts	-13.2441
▁boil	-13.2444
roque	-13.2445
antly	-13.2445
lack	-13.2452
▁Aid	-13.2461
Tea	-13.2465
cre	-13.2467
▁frees	-13.2469
etching	-13.2484
tarbucks	-13.2486
▁wound	-13.2489
▁pudd	-13.2493
psi	-13.2502
inia	-13.2506
▁je	-13.2507
▁Dra	-13.2511
▁pus	-13.2517
stling	-13.2518
urt	-13.2521
tily	-13.2528
▁stylis	-13.2541
▁refe	-13.2544
rse	-13.2549
lectric	-13.2561
watch	-13.2561
▁Fla	-13.2563
hallenge	-13.2571
▁pops	-13.2571
urina	-13.2572
hio	-13.258
onference	-13.2588
uite	-13.2595
▁zi	-13.2605
shave	-13.2607
gree	-13.2607
lux	-13.2613
paper	-13.2615
og	-13.2622
▁extr	-13.2625
▁unus	-13.2636
ost	-13.2636
dol	-13.2636
eve	-13.2643
naut	-13.2645
iate	-13.2651
zo	-13.2655
▁Miss	-13.2656
▁heli	-13.2671
ater	-13.2679
▁isle	-13.2681
raveyard	-13.2687
▁mou	-13.2687
iner	-13.2689
pac	-13.2691
▁grim	-13.2694
lion	-13.2704
ont	-13.2706
Bob	-13.2711
▁sma	-13.2723
haved	-13.2725
rch	-13.2726
tude	-13.2734
oble	-13.2754
▁cact	-13.2754
▁bac	-13.2756
avag	-13.2758
▁fest	-13.276
▁Music	-13.2761
▁ou	-13.2762
▁comf	-13.2773
haki	-13.2782
▁outing	-13.2786
tops	-13.2788
▁headscar	-13.2792
horns	-13.2798
▁dishe	-13.2824
▁less	-13.2834
▁messi	-13.2851
glass	-13.2857
baller	-13.2864
▁specta	-13.2885
nda	-13.2893
strate	-13.2893
uld	-13.29
▁superma	-13.2901
▁duct	-13.2904
▁ill	-13.291
dition	-13.2914
mini	-13.2919
▁Sa	-13.2922
▁pap	-13.2933
ponents	-13.2933
owl	-13.2935
▁stru	-13.2938
ledge	-13.2947
▁radi	-13.2947
oing	-13.2951
▁brea	-13.2954
▁Ti	-13.2957
aution	-13.296
▁info	-13.297
▁rom	-13.2972
io	-13.2978
bale	-13.299
nison	-13.299
hiner	-13.299
▁stake	-13.3002
▁Ga	-13.3006
setting	-13.3011
shoes	-13.3018
▁sock	-13.3038
cin	-13.3039
▁cent	-13.3043
▁comic	-13.3057
araoke	-13.3072
▁mor	-13.3077
nish	-13.3094
eeping	-13.3124
asking	-13.314
▁abs	-13.3147
▁soli	-13.3151
rossed	-13.3162
▁Dist	-13.3167
skirt	-13.317
quoi	-13.3176
elmeted	-13.3179
▁int	-13.3184
oss	-13.3197
ull	-13.32
▁seg	-13.3206
anist	-13.3212
Bl	-13.3219
▁raci	-13.3221
night	-13.323
outh	-13.3231
team	-13.3235
bulli	-13.327
br	-13.3277
ht	-13.3282
evele	-13.3282
▁lives	-13.3287
da	-13.3297
lded	-13.3297
▁ve	-13.3298
▁bic	-13.3299
cock	-13.3306
▁cy	-13.3316
▁cater	-13.3326
▁fal	-13.3329
▁reli	-13.3331
▁sequ	-13.3339
ats	-13.3339
▁comme	-13.3359
roller	-13.3361
▁supporte	-13.3366
seated	-13.3367
Mo	-13.3375
▁fle	-13.3389
▁Mou	-13.3393
▁donn	-13.3395
▁bla	-13.3396
dio	-13.3414
vert	-13.3414
▁popula	-13.3416
▁Oh	-13.3416
cake	-13.3418
case	-13.3421
shore	-13.3427
rge	-13.343
tretched	-13.3434
ccent	-13.3435
stream	-13.3445
count	-13.3447
▁figur	-13.3452
counter	-13.3453
rds	-13.3458
plaid	-13.3462
eless	-13.3468
tool	-13.3476
▁dep	-13.3484
ducts	-13.3486
▁shir	-13.3492
ale	-13.3492
treat	-13.3494
rious	-13.3494
▁Str	-13.3494
paint	-13.3495
▁persp	-13.3499
oule	-13.3504
irport	-13.3507
▁jogg	-13.351
chew	-13.3513
pour	-13.3521
nky	-13.3525
▁compar	-13.3545
▁showcas	-13.3564
yl	-13.3572
lie	-13.3573
▁blo	-13.3577
▁milli	-13.358
▁siz	-13.3591
ink	-13.3597
patch	-13.3597
▁pep	-13.3599
AF	-13.3606
strapp	-13.3607
life	-13.3609
j	-13.3612
anding	-13.3612
listening	-13.3615
swinging	-13.362
brush	-13.3622
culate	-13.3624
▁overw	-13.3632
riding	-13.3637
sci	-13.3647
rtwork	-13.3648
post	-13.365
▁cam	-13.366
▁Yo	-13.3666
torted	-13.3667
igns	-13.3674
▁obscur	-13.3675
ia	-13.3677
▁handl	-13.3679
zer	-13.3701
▁seal	-13.3709
▁pul	-13.371
libra	-13.3716
fts	-13.3717
▁cou	-13.3719
▁Colo	-13.3721
scooter	-13.3722
writing	-13.3722
saw	-13.3725
▁Cel	-13.3726
skiing	-13.3729
class	-13.3734
bearded	-13.3735
alley	-13.3738
stuff	-13.3738
ayfully	-13.3741
▁larg	-13.3742
▁searche	-13.3747
pipe	-13.3751
aw	-13.3754
banner	-13.3758
▁pur	-13.3762
max	-13.3763
ively	-13.3771
▁Athlet	-13.3778
German	-13.3787
cas	-13.3788
fall	-13.3789
ition	-13.3805
ota	-13.3817
rette	-13.3823
active	-13.3829
daughter	-13.3829
ske	-13.3833
rape	-13.3834
▁Polar	-13.3849
raft	-13.3852
▁lu	-13.3853
construct	-13.3859
▁etch	-13.3861
shield	-13.3865
belt	-13.3869
chef	-13.3873
ixed	-13.3874
iller	-13.3874
visible	-13.3879
▁meda	-13.3883
bus	-13.3886
Mac	-13.3889
paring	-13.3893
▁gl	-13.3894
ximi	-13.39
barrel	-13.3901
▁suspen	-13.3909
ret	-13.3909
▁Cub	-13.3917
wire	-13.3925
▁glanc	-13.3936
ontal	-13.3953
sand	-13.3955
▁bon	-13.3962
lifted	-13.3965
burg	-13.3972
Green	-13.3974
sketch	-13.3976
visib	-13.398
mission	-13.3981
af	-13.3983
gun	-13.3985
pillar	-13.3989
gerly	-13.3989
transit	-13.3992
coast	-13.3992
▁send	-13.3992
gallon	-13.3992
mly	-13.3996
▁curren	-13.3997
stained	-13.4003
q	-13.4004
▁lamps	-13.4005
▁outstre	-13.4005
hot	-13.4008
Grill	-13.4009
parents	-13.4011
War	-13.4011
aste	-13.4012
guards	-13.4016
windbreaker	-13.4016
jack	-13.4018
perhaps	-13.4018
blowers	-13.4022
Park	-13.4023
Washington	-13.4024
concerned	-13.4026
detector	-13.4027
function	-13.4028
kipp	-13.4028
canal	-13.4031
language	-13.4032
comfortable	-13.4032
drunk	-13.4033
populate	-13.4034
volv	-13.4036
Hulk	-13.4037
coats	-13.4039
ctory	-13.4041
urder	-13.4043
Mark	-13.4047
met	-13.4048
ikes	-13.405
systems	-13.4054
David	-13.4055
▁Pret	-13.4056
gly	-13.4057
operated	-13.4061
▁coal	-13.408
ollector	-13.4084
tamina	-13.4085
olive	-13.4085
▁mart	-13.4089
Wo	-13.409
Terri	-13.4099
▁Gymnast	-13.4102
erformers	-13.4104
sel	-13.4105
▁deci	-13.411
▁Sur	-13.4119
atures	-13.4121
platter	-13.4131
cel	-13.4138
dish	-13.414
▁Tim	-13.4141
pani	-13.4143
rounding	-13.4157
group	-13.4158
bur	-13.4162
height	-13.4164
Ball	-13.4164
▁pray	-13.4169
uggling	-13.4174
▁Inter	-13.4179
▁cram	-13.4194
▁propel	-13.4195
▁Hand	-13.4205
▁sculpt	-13.4216
quin	-13.4216
▁purpl	-13.4222
▁goggle	-13.4223
▁Em	-13.4224
▁amuse	-13.4227
▁Play	-13.4228
gown	-13.423
▁bri	-13.423
▁tra	-13.4234
pad	-13.4235
dried	-13.4235
▁combin	-13.4237
figur	-13.4237
▁Sport	-13.4241
desi	-13.4244
ved	-13.4247
blow	-13.4249
▁shrub	-13.4256
ollerblade	-13.4256
cultur	-13.4256
▁citizen	-13.4257
▁belonging	-13.4258
▁toenail	-13.4258
mote	-13.4258
▁Martin	-13.426
▁contestant	-13.4264
moked	-13.4264
▁whisper	-13.4266
▁swa	-13.4267
▁booklet	-13.4267
▁smirk	-13.4269
▁appar	-13.4269
wrappe	-13.4269
gas	-13.427
▁fixture	-13.427
urf	-13.4273
arf	-13.4277
▁teac	-13.4282
bay	-13.4283
▁adolescen	-13.4284
▁saxophon	-13.4286
mposed	-13.429
years	-13.4292
▁smel	-13.4297
tune	-13.4297
hovel	-13.4298
▁grimac	-13.43
avel	-13.4303
▁comfortabl	-13.4305
lf	-13.431
ntleman	-13.431
rampoline	-13.4314
▁brigh	-13.4316
▁woodwork	-13.4317
drape	-13.4321
▁proce	-13.4322
ites	-13.4322
raditional	-13.4325
ffect	-13.4325
▁expe	-13.4326
omatoes	-13.4326
Davi	-13.4327
chi	-13.4327
▁balcon	-13.4329
▁compute	-13.4334
prinkler	-13.4335
Fir	-13.4335
wake	-13.4337
▁multicolo	-13.4338
mmigration	-13.4338
▁Protest	-13.4339
▁horizontal	-13.434
▁tradition	-13.434
articipant	-13.434
harmac	-13.4341
atermelons	-13.4341
izzeria	-13.4341
asserby	-13.4341
hysical	-13.4342
ircuit	-13.4343
Aid	-13.4343
venture	-13.4343
ickshaw	-13.4344
ibbon	-13.4344
bber	-13.4345
▁curio	-13.4345
olleyball	-13.4345
egetables	-13.4345
onopoly	-13.4345
▁author	-13.4345
factor	-13.4346
▁profess	-13.4346
escription	-13.4346
▁journ	-13.4346
▁confer	-13.4346
aurant	-13.4346
▁Energ	-13.4346
estaurant	-13.4346
▁Confe	-13.4346
Cheer	-13.4346
verage	-13.4347
abbi	-13.4347
cident	-13.4347
▁christ	-13.4347
▁occup	-13.4347
umpkins	-13.4348
▁Pump	-13.4348
thnic	-13.4349
▁danger	-13.4349
zine	-13.4349
▁surv	-13.435
lph	-13.435
pstairs	-13.4351
▁Luc	-13.4352
ictory	-13.4354
uction	-13.4354
▁Leg	-13.4354
foli	-13.4358
▁matte	-13.4358
Bud	-13.4359
anger	-13.4359
derate	-13.436
lude	-13.436
▁roost	-13.4361
▁condi	-13.4361
zzling	-13.4362
jects	-13.4362
ploy	-13.4363
▁chick	-13.4364
ymn	-13.4366
ached	-13.4367
mput	-13.4369
ez	-13.4369
rovi	-13.4369
▁Piz	-13.4369
step	-13.437
sale	-13.437
kward	-13.437
useum	-13.4371
▁mega	-13.4373
uds	-13.4377
eligio	-13.4377
▁outcrop	-13.4378
lphi	-13.4378
maid	-13.4379
▁bugg	-13.4388
▁diff	-13.4391
▁moder	-13.4392
ption	-13.4394
revi	-13.4399
▁lil	-13.4402
lass	-13.4406
▁emer	-13.441
▁Face	-13.4411
rawl	-13.4421
▁magi	-13.4421
pres	-13.4422
urprised	-13.4426
icles	-13.4426
handi	-13.4426
▁Sam	-13.4429
ras	-13.4429
▁Chev	-13.4429
niv	-13.4431
usband	-13.4433
▁orig	-13.4434
iculous	-13.4436
fere	-13.4439
▁touris	-13.444
utcher	-13.4441
▁veg	-13.4443
▁designe	-13.4444
▁hu	-13.4445
▁doc	-13.4445
ctic	-13.4446
▁excit	-13.4448
▁garme	-13.4455
bush	-13.4456
urkey	-13.4459
▁etc	-13.4459
ewing	-13.4464
rouching	-13.4472
ntertain	-13.4476
afting	-13.448
▁appe	-13.4484
mill	-13.4489
tionary	-13.4494
▁mara	-13.4495
ards	-13.4495
emorial	-13.4496
▁rive	-13.4499
nesses	-13.4503
irsty	-13.4504
spotte	-13.4504
oller	-13.4506
roduce	-13.4509
▁expan	-13.451
os	-13.451
▁grap	-13.4518
odern	-13.4523
nghai	-13.4529
▁memor	-13.4529
hist	-13.454
ustin	-13.4546
nts	-13.4549
arby	-13.4551
orn	-13.4559
▁enth	-13.4571
tize	-13.4581
pression	-13.4581
▁enti	-13.4589
ribb	-13.4589
▁nip	-13.4589
▁earl	-13.459
ymnastics	-13.4591
creme	-13.4597
nna	-13.4603
fabricat	-13.4608
▁shag	-13.461
pher	-13.4616
▁Swe	-13.462
amilies	-13.462
▁mast	-13.4622
▁Pl	-13.4626
ishes	-13.4631
rated	-13.4638
utes	-13.4638
▁inspecti	-13.4641
lan	-13.4643
▁heav	-13.4645
usage	-13.4648
skin	-13.4649
sta	-13.4655
▁trap	-13.4655
▁Sou	-13.4655
▁partial	-13.4656
icket	-13.4659
restle	-13.466
uzzle	-13.4661
indow	-13.4668
▁cran	-13.4669
▁q	-13.467
▁replace	-13.4671
mbly	-13.4671
splayed	-13.4671
pm	-13.4673
vention	-13.4675
posed	-13.4686
scape	-13.4696
▁reminde	-13.4698
bor	-13.4699
quo	-13.4699
quint	-13.4699
▁shall	-13.47
uce	-13.4701
mmering	-13.4708
uque	-13.471
some	-13.471
Fran	-13.4711
▁tone	-13.4716
ean	-13.4724
▁peac	-13.4728
umbers	-13.4732
urate	-13.4746
ants	-13.4748
▁turqu	-13.4752
▁spani	-13.4766
lender	-13.4769
bly	-13.4771
pic	-13.4773
tepp	-13.4775
thered	-13.4775
ok	-13.4778
▁kne	-13.4778
mother	-13.4781
vision	-13.4782
▁Climb	-13.4783
▁amp	-13.4795
lle	-13.4795
Har	-13.4796
▁sla	-13.4812
▁purs	-13.4813
rows	-13.4815
▁reco	-13.4826
vine	-13.4827
loons	-13.4833
narl	-13.4835
▁vot	-13.4836
▁Dem	-13.4838
usual	-13.4846
isitor	-13.4855
▁camo	-13.4862
▁jugg	-13.4866
ustache	-13.4867
walking	-13.4867
crap	-13.4881
erf	-13.4883
elder	-13.4885
▁Stee	-13.4885
uk	-13.4905
yaki	-13.4908
ewly	-13.4916
sume	-13.4932
▁exh	-13.4932
▁headb	-13.4936
▁lib	-13.4945
ells	-13.4955
layed	-13.4955
bo	-13.4964
▁roa	-13.4969
ranch	-13.4976
onfused	-13.4979
hole	-13.4982
eber	-13.4986
roupe	-13.4987
sk	-13.4989
var	-13.4994
ured	-13.5009
cab	-13.501
▁casse	-13.5017
ration	-13.5019
ggles	-13.5036
▁sep	-13.5043
ieve	-13.5046
venti	-13.505
wilder	-13.5062
laze	-13.5067
▁conta	-13.5071
▁unw	-13.5075
lag	-13.5078
tarist	-13.5087
yclists	-13.5104
▁nois	-13.5109
awning	-13.5114
iders	-13.5119
▁lou	-13.5126
tative	-13.5131
lation	-13.5175
earb	-13.5175
▁Cro	-13.5187
ob	-13.5188
aft	-13.5188
reserv	-13.519
▁prep	-13.5197
epee	-13.5201
abst	-13.5205
▁seri	-13.5209
▁Foo	-13.5212
rownup	-13.5213
tles	-13.5216
atom	-13.5219
olf	-13.5222
▁wilde	-13.5228
▁dapp	-13.5231
rgarita	-13.5236
llo	-13.5242
itness	-13.5254
sell	-13.5255
ously	-13.5256
dant	-13.526
▁Lin	-13.5265
▁thatch	-13.5271
fed	-13.5273
▁agil	-13.5279
▁force	-13.5286
centric	-13.5291
▁boarder	-13.53
▁Ther	-13.5303
▁gat	-13.5304
ngels	-13.5304
tos	-13.5305
▁fris	-13.5306
ddle	-13.5315
esus	-13.532
aughter	-13.5327
▁concentr	-13.5337
▁coa	-13.5339
▁ham	-13.5344
▁nur	-13.5356
orted	-13.5362
lid	-13.5362
▁Pr	-13.5369
eth	-13.5376
▁mari	-13.538
houses	-13.538
arachute	-13.5386
▁hap	-13.539
ames	-13.5391
erty	-13.5392
igh	-13.5394
motions	-13.5396
▁Cas	-13.5416
ego	-13.5417
ighters	-13.5423
▁bene	-13.5425
▁corr	-13.5426
llar	-13.5435
▁seas	-13.5436
▁slee	-13.5443
lens	-13.5447
▁mate	-13.5458
▁Ban	-13.546
▁dy	-13.5466
▁orch	-13.5475
row	-13.5496
▁intent	-13.5498
resses	-13.5498
strol	-13.5502
▁west	-13.5509
etic	-13.5526
▁tru	-13.5529
icult	-13.5543
▁jou	-13.5556
▁drumm	-13.5556
▁suppl	-13.5557
▁Hor	-13.5558
ru	-13.5558
ogger	-13.5577
▁punt	-13.5578
serv	-13.5595
▁Dol	-13.56
fi	-13.5614
olphin	-13.5616
ulat	-13.5633
▁reac	-13.565
ariet	-13.566
arathon	-13.5675
▁Kin	-13.5686
andom	-13.5704
tenn	-13.5704
elicopter	-13.5711
resent	-13.5713
▁tear	-13.5719
thing	-13.5732
▁motorc	-13.5733
Yo	-13.5733
▁beate	-13.5762
ppies	-13.5768
▁fas	-13.5777
street	-13.5779
peaking	-13.5785
owntown	-13.5788
gular	-13.5798
▁vent	-13.5798
▁ves	-13.5803
▁grounds	-13.5812
anada	-13.5825
ertube	-13.5832
dishes	-13.5832
oak	-13.5837
pporti	-13.5837
esta	-13.584
ustrat	-13.5846
mura	-13.5852
twine	-13.5853
urround	-13.5861
mos	-13.5883
focuse	-13.5884
reg	-13.5908
dres	-13.5924
oth	-13.5929
▁Bis	-13.593
▁visibl	-13.5933
cle	-13.5941
tian	-13.5953
erman	-13.5954
log	-13.5975
aces	-13.5983
▁cock	-13.5985
▁wr	-13.5986
▁scor	-13.5996
hound	-13.602
▁Dep	-13.6035
iano	-13.604
▁sen	-13.605
▁sunbath	-13.6065
▁inform	-13.6076
roquet	-13.609
teer	-13.609
now	-13.609
fic	-13.6098
kers	-13.6099
▁Fu	-13.6107
▁scop	-13.6118
amper	-13.6124
▁Cy	-13.6126
uriously	-13.6128
lway	-13.6139
lvin	-13.6166
voca	-13.6177
levator	-13.618
port	-13.6191
ownward	-13.62
pus	-13.62
illa	-13.6201
▁cant	-13.6202
ument	-13.6212
ces	-13.6224
llin	-13.6241
reco	-13.6244
▁empt	-13.6246
tive	-13.6248
▁plot	-13.625
▁rollerblad	-13.6253
addl	-13.6261
▁pee	-13.6279
pear	-13.6285
si	-13.6292
mmuni	-13.6309
▁Poke	-13.6313
poses	-13.6315
▁anti	-13.6315
rackets	-13.6319
ura	-13.633
ounc	-13.633
ief	-13.6344
▁pok	-13.6348
rofile	-13.6365
oke	-13.6386
epi	-13.6394
rai	-13.6402
wine	-13.6403
athering	-13.6405
terior	-13.641
▁caus	-13.6415
pane	-13.6427
▁desi	-13.6433
▁travell	-13.6441
allet	-13.6452
efully	-13.6457
aut	-13.6461
▁bud	-13.6462
vani	-13.6472
▁stra	-13.6473
▁regist	-13.6495
inery	-13.6498
▁Came	-13.65
▁barr	-13.6507
pairs	-13.6516
cropping	-13.6516
cing	-13.6525
▁inner	-13.6529
▁Smi	-13.6549
▁Wa	-13.6556
tairs	-13.6563
section	-13.6576
mmate	-13.6583
tire	-13.6594
octo	-13.661
ax	-13.6628
rib	-13.6637
tin	-13.6639
little	-13.6645
ylon	-13.6666
▁applie	-13.6677
lers	-13.6681
▁exp	-13.6688
▁Cl	-13.6707
rave	-13.6713
raid	-13.6736
shelves	-13.6742
▁contra	-13.6748
ubb	-13.6793
gers	-13.68
emi	-13.6801
ction	-13.6803
▁Arm	-13.6808
ission	-13.6808
ides	-13.6819
igen	-13.6839
aitress	-13.6841
ottles	-13.6844
win	-13.6845
uffe	-13.6852
hal	-13.6863
ening	-13.6871
ac	-13.6873
Fre	-13.688
ckstr	-13.6901
▁adv	-13.6939
▁terr	-13.6941
pti	-13.6952
rep	-13.6953
▁rol	-13.6958
▁batt	-13.6959
iped	-13.6976
dye	-13.6981
▁cycl	-13.6996
▁sli	-13.6999
▁mile	-13.7005
oyot	-13.7007
ipster	-13.7014
▁sands	-13.7059
vity	-13.7074
year	-13.7107
nowing	-13.7109
ini	-13.7109
▁attra	-13.7127
▁Fac	-13.7131
▁chore	-13.7133
pl	-13.714
ddles	-13.7142
well	-13.7177
▁rappe	-13.718
hip	-13.7191
ressed	-13.7192
trail	-13.7199
hen	-13.7202
rew	-13.7216
lection	-13.7235
▁dir	-13.7252
rust	-13.7259
nugg	-13.7292
shi	-13.7297
gil	-13.7321
iced	-13.7333
trum	-13.7348
indu	-13.7354
▁trumpe	-13.7359
efens	-13.7363
sy	-13.7373
als	-13.7373
▁Ind	-13.7375
bre	-13.7376
▁Eng	-13.7391
ou	-13.7391
asan	-13.7395
▁fences	-13.7402
nette	-13.7433
ired	-13.7437
▁trou	-13.745
ortl	-13.7458
reading	-13.746
tentati	-13.7462
ngland	-13.7477
bse	-13.7482
rates	-13.7486
handle	-13.7493
oid	-13.7494
xy	-13.75
slow	-13.7512
▁lonel	-13.7516
beate	-13.7529
ected	-13.7566
eg	-13.7578
▁amoun	-13.7597
urp	-13.7599
omic	-13.7624
Cr	-13.7624
lpin	-13.7625
agn	-13.7635
▁begg	-13.7644
bud	-13.7652
▁tar	-13.7657
nto	-13.7657
▁cano	-13.7668
dren	-13.7675
sils	-13.7675
idge	-13.7697
eerleaders	-13.7704
▁defen	-13.7732
hind	-13.7759
▁ele	-13.7785
otel	-13.7786
amily	-13.7793
ep	-13.7805
▁shout	-13.782
erie	-13.783
▁gal	-13.7833
bathers	-13.7837
luff	-13.785
vent	-13.7907
imple	-13.7909
patter	-13.7911
▁appr	-13.7912
▁grain	-13.7921
sible	-13.7933
▁Bee	-13.7937
pes	-13.7944
bea	-13.7946
skinn	-13.7952
▁therm	-13.7952
▁AD	-13.7956
val	-13.7989
▁interacti	-13.8028
▁Din	-13.8036
reast	-13.804
through	-13.8056
trike	-13.8057
ares	-13.8061
Mon	-13.8075
▁Cr	-13.8083
epper	-13.8096
rgi	-13.8099
pstick	-13.8099
ely	-13.811
sic	-13.8114
▁prima	-13.8115
dd	-13.8128
teens	-13.8129
eaning	-13.816
ntry	-13.8161
shack	-13.8188
imps	-13.8196
▁sow	-13.8196
iki	-13.8226
nad	-13.8231
▁Gy	-13.8246
tern	-13.8246
▁swin	-13.8247
ef	-13.825
▁Bet	-13.8251
▁gla	-13.8257
eenagers	-13.8287
unching	-13.8295
outside	-13.8314
berman	-13.8352
nin	-13.8362
▁ston	-13.8381
stron	-13.8385
atur	-13.8394
mple	-13.8396
▁sac	-13.8424
▁fre	-13.8446
▁lur	-13.8449
auti	-13.8468
amph	-13.8487
ass	-13.8488
Me	-13.8498
lho	-13.851
anas	-13.8515
emen	-13.8525
lotte	-13.8552
▁rin	-13.8559
▁prob	-13.8596
bana	-13.8597
elong	-13.8619
▁Bar	-13.8638
rating	-13.8643
catt	-13.8647
ord	-13.8651
▁Sta	-13.8655
ians	-13.8669
▁fau	-13.8669
eld	-13.8684
ewe	-13.8711
prove	-13.8722
ropes	-13.8735
aza	-13.8751
▁surge	-13.8752
pples	-13.8769
rk	-13.878
▁sid	-13.8792
touch	-13.8798
▁includ	-13.8812
mur	-13.8814
ugg	-13.8814
lists	-13.8824
▁quil	-13.8841
▁pointe	-13.8859
oms	-13.8886
agge	-13.8893
speci	-13.8906
KE	-13.8916
nza	-13.8932
▁sitt	-13.8975
odd	-13.8981
rso	-13.8987
▁burni	-13.8993
▁patr	-13.8996
ans	-13.9008
ltim	-13.9024
▁due	-13.9053
igning	-13.9057
kipping	-13.9068
cts	-13.9068
reat	-13.9095
▁expose	-13.9098
ottw	-13.913
ric	-13.913
▁ret	-13.9135
ooden	-13.9158
ostume	-13.9163
▁ign	-13.9177
igu	-13.9189
duc	-13.9214
▁Coe	-13.9216
art	-13.9227
vag	-13.9234
cropp	-13.9248
rivi	-13.9249
scent	-13.9266
tems	-13.927
pot	-13.9272
laces	-13.9279
mmuter	-13.9284
ceman	-13.9335
ogging	-13.9337
riachi	-13.9349
ffe	-13.9352
▁grille	-13.9403
ec	-13.942
hief	-13.9432
ophi	-13.9435
reached	-13.9445
tons	-13.9451
spec	-13.9453
rpor	-13.9482
▁dru	-13.9483
▁coun	-13.9531
▁pun	-13.9553
atul	-13.9556
omen	-13.9556
rtists	-13.9576
▁fee	-13.9577
ervo	-13.959
lose	-13.9595
dor	-13.9618
blades	-13.9618
▁scra	-13.962
gen	-13.9626
imme	-13.9627
▁lik	-13.9628
atering	-13.9643
awing	-13.9649
kateboarder	-13.9652
ancer	-13.9659
oars	-13.9659
▁angr	-13.9666
▁jun	-13.9667
ivers	-13.9677
ucasian	-13.9721
tches	-13.9724
▁wari	-13.9727
elm	-13.9731
▁hor	-13.9739
lipped	-13.9745
kt	-13.9746
ssion	-13.9757
▁waterskie	-13.9781
aul	-13.9792
▁poi	-13.9794
rts	-13.9804
2.	-13.981
▁stat	-13.9826
haft	-13.9828
nut	-13.9848
▁vac	-13.9865
children	-13.9882
keep	-13.9892
▁opp	-13.9913
▁nor	-13.9958
▁hea	-13.9961
▁Sell	-13.9964
running	-13.9969
blaz	-13.9975
nimal	-14.0001
▁pott	-14.0021
▁spac	-14.0022
ideo	-14.0042
women	-14.0054
▁Eve	-14.0056
eath	-14.0063
small	-14.0076
ajor	-14.01
opin	-14.0111
irl	-14.0117
ncing	-14.0118
acti	-14.0119
ella	-14.0147
adil	-14.0148
▁fili	-14.0176
trical	-14.0181
▁cau	-14.0183
▁marin	-14.0197
stands	-14.0217
adies	-14.0258
clude	-14.0263
gray	-14.0283
▁assistan	-14.0317
hea	-14.0345
Thre	-14.0369
ntal	-14.0401
ences	-14.0409
▁ind	-14.0426
▁Overl	-14.0427
irs	-14.0448
awn	-14.0457
▁cott	-14.0482
edly	-14.0499
aus	-14.0504
▁rang	-14.0519
icers	-14.0525
▁Am	-14.0534
trainer	-14.0535
reach	-14.0536
▁scan	-14.0573
ones	-14.0583
nat	-14.0586
▁val	-14.0604
atte	-14.0609
arrying	-14.063
Sl	-14.0631
▁rule	-14.0646
▁Or	-14.0665
▁surr	-14.0677
oden	-14.0687
▁cond	-14.0709
itter	-14.0718
oon	-14.0726
▁oppo	-14.0729
ours	-14.0762
dal	-14.0778
tes	-14.0825
ighway	-14.0848
dig	-14.0879
▁intert	-14.0893
▁gna	-14.0899
▁plast	-14.0903
▁doo	-14.0905
dan	-14.0923
rbor	-14.0924
ores	-14.096
▁cost	-14.0962
kled	-14.098
▁aviat	-14.0982
▁na	-14.0988
ompetitors	-14.1017
ystems	-14.1018
▁leo	-14.1022
Cro	-14.1059
▁indi	-14.1059
oo	-14.1065
▁wets	-14.1087
gull	-14.1097
▁wheele	-14.1113
dl	-14.1154
ount	-14.116
looks	-14.1169
ugh	-14.1175
rns	-14.1176
eats	-14.1181
turb	-14.1193
rett	-14.122
ooker	-14.1224
▁strai	-14.1226
naissance	-14.1262
▁alo	-14.1296
▁reali	-14.1303
ador	-14.1318
roach	-14.133
ings	-14.1349
purs	-14.1356
ork	-14.1384
rl	-14.1407
eeling	-14.1414
ume	-14.1428
▁wed	-14.1452
▁divide	-14.1462
▁trimme	-14.1474
tewar	-14.1476
ril	-14.1486
▁uns	-14.1496
aches	-14.1503
▁roo	-14.1522
ndem	-14.1543
osses	-14.1549
beach	-14.1572
oppo	-14.1609
engu	-14.1643
aught	-14.1658
lt	-14.1676
▁distri	-14.1684
rides	-14.17
eet	-14.1702
ders	-14.1707
ttles	-14.1723
▁unre	-14.1733
oll	-14.176
▁comed	-14.1791
▁dia	-14.1806
tangle	-14.1817
▁Gol	-14.1846
▁Ei	-14.1846
ebra	-14.1923
rti	-14.1928
lond	-14.1961
trio	-14.1963
near	-14.1963
bes	-14.1965
▁gee	-14.197
▁arche	-14.1976
ama	-14.1982
▁Somb	-14.2015
training	-14.2038
riously	-14.2053
sity	-14.2089
poli	-14.2101
hade	-14.2137
rief	-14.2139
tacles	-14.2142
ounding	-14.2146
rching	-14.2166
from	-14.2168
▁handst	-14.2181
suring	-14.2198
▁sco	-14.2209
ongo	-14.2228
gu	-14.2253
▁cro	-14.2265
▁cann	-14.2305
fir	-14.2311
inders	-14.2311
next	-14.2331
rlin	-14.2386
▁cos	-14.2417
▁bas	-14.2427
another	-14.2471
dew	-14.2473
vance	-14.2477
tement	-14.2492
ines	-14.2506
▁choi	-14.254
roup	-14.2541
ho	-14.2545
ney	-14.2553
▁measur	-14.2568
llas	-14.2585
rted	-14.2599
rcha	-14.2612
Ben	-14.2616
bow	-14.2621
sport	-14.2637
iness	-14.2655
obby	-14.2655
pas	-14.2758
EA	-14.2866
▁juggl	-14.2914
packs	-14.2928
veralls	-14.2941
hairs	-14.2943
dona	-14.2971
▁cig	-14.3018
▁shru	-14.3019
▁spea	-14.3028
Blo	-14.3043
dogs	-14.3051
taring	-14.3072
▁impe	-14.3082
nging	-14.3105
nations	-14.3114
enda	-14.3128
nit	-14.313
obb	-14.3133
spani	-14.3143
▁lac	-14.3149
xing	-14.3155
pens	-14.3165
▁pai	-14.3213
olid	-14.3216
oration	-14.3216
ington	-14.323
otte	-14.3258
lank	-14.3264
get	-14.3272
ima	-14.3272
▁foreh	-14.3275
▁2.	-14.3282
arm	-14.3319
abe	-14.334
lips	-14.3347
olored	-14.337
omet	-14.3404
▁somewh	-14.342
An	-14.3451
▁Dav	-14.3454
rage	-14.3502
ws	-14.3522
jumping	-14.3523
ipes	-14.3524
onk	-14.3547
ices	-14.3557
ucks	-14.3581
▁lunge	-14.3581
cean	-14.3634
building	-14.3659
find	-14.3686
▁mot	-14.3697
▁toe	-14.3708
lence	-14.3714
▁Pin	-14.3735
▁wri	-14.3785
dents	-14.3811
▁lev	-14.3817
bucks	-14.3838
ang	-14.3839
kimp	-14.3854
corded	-14.3855
▁rap	-14.3855
glasses	-14.386
▁passe	-14.387
nse	-14.3871
▁el	-14.3892
uid	-14.3906
stems	-14.3923
eas	-14.3925
eels	-14.394
▁afr	-14.3973
inging	-14.3976
▁eg	-14.3992
▁cli	-14.4036
owed	-14.4044
fence	-14.4046
atch	-14.4065
pins	-14.4074
ops	-14.4079
band	-14.4098
nz	-14.416
▁dow	-14.4174
giv	-14.4183
rink	-14.4205
around	-14.421
ete	-14.4218
cession	-14.4222
Sli	-14.4255
▁operati	-14.4273
urb	-14.4275
umming	-14.4306
▁ven	-14.4307
▁Lau	-14.4309
ersing	-14.4309
praying	-14.4331
▁bucke	-14.438
hrough	-14.4384
▁nett	-14.4394
▁ci	-14.4396
illi	-14.4402
any	-14.4461
▁backing	-14.4508
rview	-14.4578
howing	-14.4586
▁div	-14.4634
sting	-14.465
int	-14.466
▁glo	-14.4663
ght	-14.4666
People	-14.4685
rus	-14.4699
chin	-14.4703
anging	-14.4737
▁ap	-14.4742
▁tur	-14.4778
▁ami	-14.4803
oats	-14.4811
yhound	-14.4848
ctions	-14.4859
ooking	-14.4861
arbor	-14.4945
ool	-14.4966
mates	-14.4969
els	-14.4972
▁moo	-14.4979
▁cod	-14.498
▁Wal	-14.5001
siting	-14.5005
oose	-14.5006
cute	-14.5026
ooks	-14.5038
▁labora	-14.5044
▁Sm	-14.5089
ago	-14.5101
rocer	-14.5144
ambo	-14.5157
focus	-14.517
nterior	-14.5177
uma	-14.518
dis	-14.5189
ocial	-14.5228
museum	-14.5229
atu	-14.5232
ym	-14.5248
cti	-14.5266
umb	-14.5268
▁Prof	-14.5276
clud	-14.5282
okes	-14.5306
olding	-14.5313
logs	-14.5322
nty	-14.5347
▁butterfl	-14.5354
pa	-14.5375
▁countr	-14.5376
aner	-14.538
mmunit	-14.5406
behind	-14.5415
ays	-14.5416
redd	-14.5457
kid	-14.5459
arked	-14.5485
identi	-14.5495
fection	-14.5516
ode	-14.5524
▁cin	-14.5525
mo	-14.5577
oded	-14.5582
▁haz	-14.5599
rightly	-14.5614
acles	-14.5626
▁musc	-14.5627
▁waterskii	-14.5629
opes	-14.5634
bul	-14.5641
bys	-14.5643
carves	-14.5645
cers	-14.5683
how	-14.5697
eaves	-14.5698
cade	-14.5748
rdi	-14.5754
upl	-14.5755
rrior	-14.5758
crop	-14.5767
ela	-14.5797
nders	-14.5798
astry	-14.5844
rings	-14.5859
olog	-14.5897
mills	-14.5922
sits	-14.5923
lla	-14.5936
gam	-14.5979
burns	-14.5999
ccur	-14.6007
graphi	-14.6029
▁qua	-14.6041
▁snar	-14.6065
hats	-14.607
Black	-14.6075
background	-14.6104
ren	-14.6108
▁sunn	-14.6121
gre	-14.6138
snow	-14.6151
▁imm	-14.6164
▁id	-14.6168
pink	-14.6185
touche	-14.6218
▁refect	-14.6244
rangle	-14.6246
cho	-14.6336
▁demonstrati	-14.634
gril	-14.6362
eter	-14.6367
hoc	-14.6381
▁mids	-14.6404
▁pon	-14.6407
oli	-14.6441
oses	-14.6491
tim	-14.6505
angs	-14.6529
ggy	-14.6539
▁plo	-14.6582
oples	-14.6592
crowd	-14.6649
▁cur	-14.6679
sks	-14.6691
aves	-14.6702
▁flee	-14.6742
dress	-14.6744
solate	-14.6759
she	-14.6768
irt	-14.6776
eeper	-14.6805
▁tor	-14.6806
oor	-14.682
allow	-14.6828
toe	-14.6861
ended	-14.6868
ncer	-14.6903
▁dre	-14.6908
sha	-14.6983
join	-14.7002
ssy	-14.7028
reds	-14.7132
ared	-14.7143
rathon	-14.7148
sent	-14.7155
rist	-14.7166
sea	-14.7173
rinkl	-14.7176
▁wei	-14.7202
ette	-14.7245
you	-14.7265
lls	-14.7271
▁clea	-14.7285
real	-14.7304
▁rega	-14.7306
oar	-14.7323
cans	-14.7324
▁jacke	-14.7352
▁Cat	-14.7365
bank	-14.738
eds	-14.7502
▁conc	-14.7522
aceful	-14.7523
▁rot	-14.7534
igan	-14.7555
▁underg	-14.7555
▁Fin	-14.7567
▁ST	-14.7615
sch	-14.7649
vel	-14.7679
gon	-14.7685
▁shear	-14.7693
trange	-14.7693
▁outd	-14.7723
▁constructi	-14.7732
▁ray	-14.7734
ople	-14.7751
monst	-14.7791
▁ki	-14.7916
sco	-14.7919
umper	-14.7922
oh	-14.7978
▁chee	-14.8005
▁varie	-14.8025
rain	-14.8036
▁trac	-14.8039
▁fli	-14.8062
andstand	-14.8065
▁gras	-14.8088
▁crea	-14.8136
portion	-14.8146
ah	-14.817
rked	-14.8178
ogs	-14.8188
talking	-14.8199
mused	-14.8203
▁towe	-14.8222
▁embl	-14.8236
sidewalk	-14.8242
rship	-14.8256
posit	-14.8268
pedes	-14.8281
▁Pur	-14.8292
tone	-14.8295
ield	-14.8313
ession	-14.8314
something	-14.8347
▁Tig	-14.8353
gyp	-14.8376
raying	-14.8392
sp	-14.8426
cup	-14.844
that	-14.8459
rised	-14.8487
▁litt	-14.8496
ote	-14.8524
rior	-14.8553
fa	-14.8564
dent	-14.8575
▁rubbi	-14.8575
eading	-14.8638
lia	-14.8644
▁lem	-14.8664
lig	-14.8671
▁breakdanc	-14.8691
▁ward	-14.8692
rmed	-14.8694
▁comi	-14.8724
ection	-14.8763
taped	-14.877
▁swallowe	-14.8771
eads	-14.8792
ei	-14.8796
uff	-14.8848
chil	-14.8851
tice	-14.8871
wnspeople	-14.888
tre	-14.8933
arching	-14.8953
ents	-14.8972
eated	-14.898
older	-14.8984
shorts	-14.8998
inger	-14.9027
ind	-14.9032
▁Fe	-14.9042
edge	-14.9088
friends	-14.9097
▁swo	-14.91
evel	-14.91
tl	-14.9104
aming	-14.9108
stening	-14.9109
lves	-14.9147
raining	-14.9178
sers	-14.9233
san	-14.9305
hort	-14.9305
▁exce	-14.9339
asks	-14.9349
onghorn	-14.9375
mat	-14.9379
play	-14.9379
tu	-14.9379
eens	-14.938
dul	-14.9386
ails	-14.9399
▁observ	-14.944
▁colo	-14.9485
▁bre	-14.95
▁Ou	-14.9502
▁purp	-14.9509
kn	-14.9531
boarders	-14.958
▁Fran	-14.9622
enter	-14.9643
▁dece	-14.9661
▁approache	-14.9726
▁conver	-14.9754
bbe	-14.9757
olded	-14.977
▁toge	-14.9771
male	-14.9787
▁tumble	-14.9788
deni	-14.9818
▁Mu	-14.9837
won	-14.9841
▁whit	-14.9869
Bu	-14.9871
dmill	-14.9883
▁To	-14.9886
rls	-14.9898
plays	-14.9903
bet	-14.9935
atically	-14.9939
leas	-14.9949
▁typi	-14.9954
rac	-14.9974
iking	-15.0008
▁musta	-15.0025
wiel	-15.0028
▁domina	-15.0031
su	-15.0061
walks	-15.0068
mme	-15.013
upe	-15.0137
marke	-15.0167
omething	-15.019
wrapp	-15.0191
posing	-15.02
▁smi	-15.0232
breaker	-15.0273
ances	-15.0274
rrying	-15.0302
▁As	-15.0331
eside	-15.0351
arachut	-15.0355
▁patte	-15.0395
wels	-15.0437
omme	-15.0449
blond	-15.0455
soccer	-15.0481
ges	-15.0482
smiling	-15.0495
rio	-15.0496
ai	-15.0525
train	-15.0529
▁bathe	-15.0537
ntil	-15.0561
axo	-15.0572
ibrarian	-15.0577
▁tren	-15.0585
sie	-15.0621
airs	-15.0628
▁runn	-15.0643
ava	-15.0678
ality	-15.0684
▁appl	-15.0713
together	-15.0716
iest	-15.0728
sto	-15.0734
educ	-15.0737
am	-15.0757
▁oc	-15.0761
awk	-15.0798
undre	-15.0847
▁Sk	-15.088
▁riverb	-15.0906
wi	-15.0915
▁mir	-15.0921
▁lat	-15.0948
picture	-15.0962
oop	-15.1011
oung	-15.1066
edges	-15.1129
andfather	-15.1185
lami	-15.1256
▁Stre	-15.1269
elt	-15.1271
nam	-15.1305
eavyset	-15.1324
jeans	-15.1333
ria	-15.1342
laz	-15.144
▁sai	-15.1444
rves	-15.1466
▁frie	-15.1471
▁gor	-15.1473
holds	-15.1498
construction	-15.155
ape	-15.157
erated	-15.1596
baby	-15.1618
rches	-15.1767
▁cropp	-15.1778
rful	-15.1839
father	-15.1858
wel	-15.1902
omb	-15.1922
ize	-15.1997
▁del	-15.2013
str	-15.2019
va	-15.2072
tick	-15.2088
spott	-15.2109
ormer	-15.213
dil	-15.2148
ffi	-15.215
bench	-15.2154
dess	-15.2161
▁Hea	-15.2166
rly	-15.2195
crew	-15.2207
bike	-15.2209
▁contemp	-15.2215
▁slu	-15.2356
acking	-15.2378
so	-15.2476
pun	-15.2503
▁divi	-15.2507
ens	-15.2509
iss	-15.2565
rring	-15.2571
ackets	-15.2604
rips	-15.2626
uat	-15.2675
food	-15.2716
lower	-15.273
cated	-15.2792
uster	-15.2804
DS	-15.2874
▁resp	-15.2875
adly	-15.2877
ledding	-15.2882
▁unc	-15.2923
mina	-15.2943
him	-15.2958
▁nod	-15.2959
achi	-15.298
server	-15.2981
ubbi	-15.3013
▁Pres	-15.3038
tennis	-15.3066
porting	-15.3104
mas	-15.3133
▁aren	-15.3138
dly	-15.3169
▁dee	-15.3171
forms	-15.3196
ining	-15.3206
▁midd	-15.3213
ober	-15.325
atula	-15.3255
sleep	-15.3325
player	-15.3336
descent	-15.3345
rries	-15.3429
▁bellbo	-15.3461
▁tho	-15.3461
▁floo	-15.3468
lance	-15.3487
▁appre	-15.3512
dark	-15.3581
iring	-15.3584
▁ser	-15.3668
▁stee	-15.3701
umps	-15.3739
▁hai	-15.3753
▁helpe	-15.3765
dresses	-15.3771
arge	-15.3836
aco	-15.3851
drap	-15.3875
lp	-15.3902
ern	-15.3903
lain	-15.3914
rake	-15.3969
▁Hip	-15.4021
rum	-15.4047
lone	-15.4066
city	-15.4122
edd	-15.4128
destr	-15.4155
▁ash	-15.4157
rformers	-15.4175
▁Hus	-15.4195
pike	-15.4198
▁lif	-15.4231
runs	-15.4242
aining	-15.4249
▁atten	-15.4253
Mu	-15.4293
watching	-15.4328
tel	-15.4371
ppa	-15.4388
under	-15.439
entic	-15.4396
acy	-15.4399
lady	-15.4418
opte	-15.4423
look	-15.4427
hands	-15.4431
▁speci	-15.4482
▁congregati	-15.4498
tul	-15.4542
tex	-15.4544
lore	-15.4549
nal	-15.4577
▁app	-15.463
pine	-15.4644
▁cont	-15.4658
Four	-15.473
tr	-15.4735
lding	-15.4758
▁ow	-15.4774
rder	-15.4817
▁Whe	-15.4837
hill	-15.485
▁resta	-15.4859
nies	-15.489
eams	-15.5014
ummit	-15.5034
sill	-15.5083
football	-15.5094
lashes	-15.5103
nsumers	-15.5117
eetle	-15.5141
▁cooki	-15.5143
▁spect	-15.5155
▁fru	-15.5164
carrying	-15.5205
take	-15.5208
▁wha	-15.5227
▁poun	-15.5291
thin	-15.5343
handl	-15.5409
nter	-15.5488
mak	-15.5498
rained	-15.55
oph	-15.5539
ngine	-15.5543
nic	-15.5591
cl	-15.5597
abb	-15.5622
ters	-15.5696
▁Shi	-15.5712
imming	-15.5722
dian	-15.5729
xim	-15.5779
▁admi	-15.5811
▁competit	-15.5812
elds	-15.589
▁rad	-15.59
aping	-15.5925
tand	-15.5946
lap	-15.5998
cr	-15.6112
▁Pra	-15.6175
eaten	-15.6176
uge	-15.626
mining	-15.6278
duct	-15.6326
▁Cu	-15.6343
jumps	-15.6347
limb	-15.6352
inst	-15.6376
area	-15.6386
brating	-15.6436
▁nears	-15.6479
pen	-15.6486
merican	-15.6511
▁cre	-15.652
▁dispe	-15.6539
rilling	-15.6616
ealth	-15.664
▁bookshel	-15.6671
▁chur	-15.6682
oots	-15.6713
efs	-15.6762
ient	-15.6792
▁fishe	-15.6809
nyl	-15.6819
▁Gat	-15.69
▁electrici	-15.6931
aki	-15.6938
cken	-15.6956
▁ic	-15.6957
skies	-15.697
back	-15.6997
icyclists	-15.7031
sa	-15.7036
angl	-15.7047
▁Blu	-15.7071
heade	-15.709
▁strea	-15.709
tent	-15.7097
stick	-15.7153
bull	-15.7203
nne	-15.728
fine	-15.7321
abl	-15.733
lumb	-15.7365
▁prese	-15.7367
▁wad	-15.738
ections	-15.7411
hes	-15.7427
Young	-15.7556
ema	-15.7659
ordinate	-15.772
ormal	-15.776
Elev	-15.7773
▁cle	-15.7906
ollo	-15.7923
▁jogge	-15.7937
ngul	-15.7938
gant	-15.7975
▁Dre	-15.7982
wait	-15.7985
tails	-15.807
iremen	-15.814
ib	-15.8154
▁cube	-15.8169
ud	-15.8188
iron	-15.8219
lings	-15.822
ye	-15.8244
wooden	-15.825
rounds	-15.8258
iv	-15.8334
▁retr	-15.8386
oors	-15.8403
done	-15.8416
nkles	-15.8438
▁lon	-15.847
theater	-15.8503
seat	-15.8526
▁participa	-15.8528
▁sala	-15.8564
meone	-15.8569
▁skille	-15.8621
hor	-15.8622
toward	-15.8645
tile	-15.865
▁audit	-15.871
urnt	-15.88
verse	-15.8831
▁rac	-15.884
twin	-15.8892
inatown	-15.8896
aders	-15.8927
rary	-15.8951
lking	-15.898
trac	-15.9035
love	-15.9098
▁Cou	-15.9216
window	-15.9248
aters	-15.9292
baseball	-15.9314
oach	-15.9421
anci	-15.9464
swimming	-15.9471
arts	-15.9476
entati	-15.949
who	-15.9566
dg	-15.9566
couple	-15.9625
▁regi	-15.9626
tas	-15.9639
stration	-15.9641
ouch	-15.9678
▁recorde	-15.9705
Pe	-15.9873
lider	-15.9874
eeri	-15.9891
microphone	-15.9901
hic	-15.9969
cals	-16
▁slippe	-16.0038
restaurant	-16.0072
paste	-16.012
chine	-16.018
affi	-16.0189
▁soa	-16.0222
oring	-16.0272
▁harnesse	-16.0289
rope	-16.029
▁containe	-16.0335
hom	-16.0336
▁chap	-16.0361
dra	-16.0383
▁roads	-16.0396
middle	-16.0443
▁def	-16.0458
There	-16.0484
inside	-16.0527
▁accen	-16.0533
loud	-16.0582
uzzl	-16.06
dole	-16.0712
have	-16.0813
▁Te	-16.082
three	-16.0833
oker	-16.0869
watches	-16.0877
▁skat	-16.0883
kitchen	-16.089
ils	-16.0932
fers	-16.0952
▁lock	-16.0986
gram	-16.1065
▁unt	-16.1088
▁od	-16.1119
▁tablet	-16.1152
luster	-16.1212
sled	-16.1218
▁cer	-16.1221
dirt	-16.1222
doing	-16.1271
stra	-16.1277
▁ink	-16.1301
▁prete	-16.1312
▁wrestl	-16.1326
ocean	-16.1404
essed	-16.1449
eans	-16.1459
▁suspe	-16.1461
▁pres	-16.1468
eering	-16.1518
mountain	-16.1622
▁pal	-16.1652
oops	-16.1687
trees	-16.17
resting	-16.1709
▁whis	-16.1766
▁Ke	-16.1802
▁tac	-16.1839
▁tha	-16.191
▁brac	-16.194
▁swimm	-16.1958
▁nav	-16.1961
▁Fro	-16.1962
mbers	-16.1993
helmet	-16.2008
ced	-16.2009
rrot	-16.2061
sts	-16.2082
ania	-16.2092
tag	-16.2115
sunglasses	-16.2126
oco	-16.2173
eaving	-16.2188
diver	-16.2222
cyclist	-16.2245
▁Cau	-16.2303
ossed	-16.2328
shad	-16.2346
▁fum	-16.2373
lake	-16.2417
oiled	-16.2494
eler	-16.2525
give	-16.2557
rots	-16.2567
▁rall	-16.2665
▁sin	-16.2667
tack	-16.2673
arate	-16.2692
aced	-16.2768
ncert	-16.2827
▁refin	-16.2842
lmeted	-16.2891
performing	-16.2901
mpany	-16.2935
catch	-16.2936
eful	-16.2989
joy	-16.302
erci	-16.3026
waits	-16.3043
purple	-16.3091
miles	-16.3109
Wh	-16.3172
tak	-16.3179
▁pers	-16.3197
agg	-16.3263
lv	-16.328
frican	-16.333
clothing	-16.3332
tube	-16.3346
▁spu	-16.3352
▁blanke	-16.336
bers	-16.3422
▁inv	-16.3447
fy	-16.3513
▁Angel	-16.3542
ropping	-16.3552
▁Mus	-16.359
yfully	-16.3593
▁spoo	-16.3622
▁weav	-16.366
guy	-16.366
eman	-16.3734
rafting	-16.3735
zeb	-16.3825
perime	-16.3841
▁hik	-16.385
angles	-16.3963
iant	-16.4024
▁lam	-16.4059
reteen	-16.4063
bicycle	-16.4105
lowed	-16.4207
egr	-16.4214
atura	-16.4227
▁Clo	-16.4244
uniform	-16.4278
ety	-16.4302
▁handi	-16.4349
▁shee	-16.4359
▁tex	-16.4423
ssist	-16.4436
bles	-16.4449
▁leashe	-16.4451
tor	-16.4462
▁barbecu	-16.4479
oa	-16.4566
▁spectac	-16.459
aris	-16.4635
ire	-16.4636
rity	-16.4639
Fi	-16.4676
oft	-16.4711
otti	-16.4735
kids	-16.4737
fla	-16.4899
▁custo	-16.4931
nounc	-16.4948
lu	-16.5029
igni	-16.5043
laska	-16.509
amu	-16.5124
qu	-16.513
arms	-16.5201
outdoor	-16.5205
izz	-16.5253
uffs	-16.5254
past	-16.5261
sweater	-16.5326
ottle	-16.534
akers	-16.5385
about	-16.5422
rilled	-16.5437
▁polic	-16.5448
path	-16.5459
seball	-16.555
nc	-16.5636
quad	-16.5664
▁unicycl	-16.5758
tery	-16.5774
wimming	-16.5827
heer	-16.5854
▁Fre	-16.5874
colorful	-16.5877
there	-16.5914
