<unk>	0
<s>	0
</s>	0
▁a	-2.51824
.	-2.69467
▁A	-3.1664
▁in	-3.28799
▁the	-3.66354
▁on	-3.87895
▁and	-3.92115
▁is	-3.99434
▁man	-4.01605
▁of	-4.05111
▁with	-4.12276
,	-4.47576
▁woman	-4.65879
s	-4.68968
▁are	-4.70453
▁to	-4.82954
▁Two	-4.86889
▁at	-4.92949
▁wearing	-4.95831
ing	-4.99517
▁people	-5.06867
▁shirt	-5.13225
▁white	-5.14003
▁black	-5.21273
▁young	-5.23495
▁while	-5.25058
▁his	-5.27063
▁blue	-5.28146
▁an	-5.31206
▁	-5.35004
▁red	-5.38722
▁sitting	-5.44664
▁girl	-5.49257
▁standing	-5.51196
▁boy	-5.51355
▁dog	-5.52668
▁men	-5.53515
▁playing	-5.55763
-	-5.57925
▁street	-5.63149
▁down	-5.67408
▁group	-5.68057
▁front	-5.68326
▁her	-5.69936
▁walking	-5.71794
e	-5.73565
▁holding	-5.77302
▁water	-5.91917
▁by	-5.96014
▁The	-5.98879
▁one	-6.03847
▁green	-6.0639
▁up	-6.06951
▁looking	-6.09499
▁An	-6.11383
▁for	-6.11461
▁child	-6.12477
▁women	-6.12498
ed	-6.14257
▁outside	-6.16601
▁large	-6.17307
▁Thre	-6.18024
▁yellow	-6.19225
▁brown	-6.21578
▁two	-6.22848
▁through	-6.25931
▁little	-6.25957
▁person	-6.29201
▁hat	-6.29528
▁from	-6.3124
▁their	-6.31628
▁other	-6.31837
▁ball	-6.34148
▁over	-6.37046
▁children	-6.37755
▁next	-6.39357
▁into	-6.41011
▁small	-6.43399
▁out	-6.4602
▁dressed	-6.46968
▁as	-6.4719
▁building	-6.49261
▁People	-6.49273
▁jacket	-6.49832
▁another	-6.50705
▁running	-6.51072
▁riding	-6.52094
▁Man	-6.55671
▁around	-6.56605
▁orange	-6.57423
▁some	-6.58113
▁field	-6.60894
▁near	-6.6136
▁be	-6.62977
▁crowd	-6.63883
▁background	-6.64908
▁stands	-6.65119
▁pink	-6.65261
▁beach	-6.65509
▁behind	-6.6651
▁sidewalk	-6.67665
▁table	-6.70725
▁jumping	-6.73001
▁snow	-6.73496
▁sits	-6.75453
▁grass	-6.77016
'	-6.79088
▁that	-6.79116
▁bike	-6.79266
▁top	-6.81629
▁looks	-6.81641
▁camera	-6.83241
▁stand	-6.84575
▁air	-6.85394
y	-6.85537
▁girls	-6.85729
▁wall	-6.86667
▁player	-6.87316
▁hair	-6.90047
▁off	-6.90213
▁city	-6.90221
▁dogs	-6.92119
▁has	-6.92578
▁working	-6.92666
▁dress	-6.92764
▁gray	-6.92941
▁something	-6.96029
▁hand	-6.9657
▁older	-6.9712
▁talking	-6.97439
▁it	-6.97922
▁soccer	-6.98866
▁park	-6.99904
▁shorts	-7.00376
▁him	-7.00567
▁blond	-7.00821
▁guitar	-7.01188
▁pants	-7.02102
▁picture	-7.02516
▁walks	-7.03708
▁Asian	-7.06039
▁play	-7.06254
▁jeans	-7.0636
▁lady	-7.07191
▁smiling	-7.07245
▁plays	-7.07834
▁along	-7.09259
d	-7.10259
▁car	-7.11255
▁dark	-7.11299
▁game	-7.11613
▁boys	-7.13152
▁carrying	-7.13804
▁food	-7.14037
▁together	-7.14169
▁road	-7.14226
▁them	-7.1429
▁bench	-7.159
▁holds	-7.15929
▁walk	-7.16382
▁head	-7.16435
▁side	-7.17732
▁Four	-7.1806
▁long	-7.18606
▁face	-7.19529
▁glasses	-7.22177
▁stage	-7.22365
▁sit	-7.2295
▁back	-7.24212
▁baby	-7.24708
▁tree	-7.26934
▁bicycle	-7.27218
▁t	-7.27907
▁Seve	-7.2824
▁hands	-7.28798
▁rock	-7.29182
▁taking	-7.29311
al	-7.30248
▁doing	-7.30898
▁watching	-7.31319
▁old	-7.31319
▁pool	-7.31413
▁who	-7.32197
▁each	-7.33572
ral	-7.3397
▁area	-7.34004
▁ground	-7.34493
▁couple	-7.35591
▁he	-7.36737
▁baseball	-7.37071
▁dirt	-7.37622
▁boat	-7.37635
shirt	-7.38284
▁male	-7.38296
▁look	-7.39333
▁race	-7.40843
▁suit	-7.41352
▁day	-7.41538
▁performing	-7.41868
▁striped	-7.42009
▁coat	-7.42548
▁mouth	-7.42785
▁guy	-7.43321
▁female	-7.43323
▁middle	-7.43449
▁room	-7.43533
▁across	-7.44855
▁jumps	-7.45231
▁purple	-7.45644
▁uniform	-7.48122
▁Young	-7.48455
▁sunglasses	-7.48618
▁sign	-7.48678
▁eating	-7.49141
▁under	-7.49448
▁horse	-7.5103
▁There	-7.53663
▁football	-7.5367
▁band	-7.54104
▁sand	-7.54409
▁d	-7.54629
▁microphone	-7.54814
▁using	-7.55132
▁runs	-7.56231
▁helmet	-7.56359
▁reading	-7.56481
haired	-7.57003
▁three	-7.57406
▁watch	-7.57828
▁or	-7.587
▁tennis	-7.58923
▁On	-7.5977
▁store	-7.60868
▁construction	-7.62327
▁mountain	-7.62349
▁its	-7.62364
▁floor	-7.62845
▁players	-7.62944
▁watches	-7.63193
▁work	-7.64666
▁train	-7.64685
▁toy	-7.64952
▁cap	-7.65231
▁all	-7.65303
uring	-7.65447
▁window	-7.65528
▁Woman	-7.65754
▁wooden	-7.66245
▁chair	-7.66805
▁against	-7.66847
▁rides	-7.67546
▁about	-7.67694
▁basketball	-7.68206
▁dancing	-7.69506
▁ocean	-7.69705
▁bag	-7.69851
▁try	-7.70016
▁clothing	-7.70028
▁team	-7.71351
▁waiting	-7.72147
▁line	-7.72354
▁busy	-7.72957
▁gett	-7.73418
▁past	-7.73462
▁having	-7.73714
▁restaurant	-7.74134
▁climbing	-7.74381
▁elderly	-7.74982
▁outdoor	-7.75681
▁kids	-7.75932
▁trees	-7.76128
▁workers	-7.76268
▁colorful	-7.77198
▁swimming	-7.77236
▁making	-7.78219
▁posing	-7.8055
▁inside	-7.80675
▁singing	-7.81524
▁covered	-7.82232
▁light	-7.8267
▁fence	-7.83195
▁tan	-7.83546
▁"	-7.84973
▁stick	-7.85614
▁brick	-7.85781
▁market	-7.86567
ly	-7.86736
▁ice	-7.86812
▁skateboard	-7.8698
▁they	-7.87155
▁she	-7.87881
▁high	-7.88832
▁surround	-7.89035
▁ride	-7.89791
▁very	-7.89964
▁shirts	-7.902
▁sweater	-7.90299
▁big	-7.9075
▁beside	-7.93369
▁cart	-7.93662
▁open	-7.9373
▁catch	-7.93885
▁hats	-7.93906
▁hill	-7.93977
▁towards	-7.94141
▁cellphone	-7.94378
▁lake	-7.95279
▁truck	-7.95694
▁bright	-7.95767
▁kitchen	-7.95937
er	-7.96074
▁motorcycle	-7.96481
▁book	-7.96755
▁jump	-7.97507
▁path	-7.97521
▁This	-7.97521
▁laying	-7.98145
▁track	-7.98229
"	-7.98749
▁vest	-7.98912
▁body	-7.99337
▁Men	-7.9954
▁grassy	-8.00033
▁umbrella	-8.00135
▁clothes	-8.00495
▁outdoors	-8.00553
▁river	-8.00906
▁arms	-8.0099
▁tank	-8.01461
▁bus	-8.02198
▁piece	-8.02241
▁outfit	-8.04071
▁get	-8.04816
to	-8.05228
▁lot	-8.05631
▁colored	-8.06094
▁others	-8.06344
▁hard	-8.07005
▁swing	-8.07053
▁sever	-8.07592
▁night	-8.08041
▁shopping	-8.08185
▁painting	-8.09247
▁above	-8.09824
▁event	-8.09826
▁enjoying	-8.10185
▁stone	-8.10322
▁worker	-8.11101
▁uniforms	-8.11206
▁paper	-8.11508
▁metal	-8.12263
▁run	-8.1262
▁ready	-8.12898
▁snowy	-8.1315
▁Five	-8.13192
▁drinking	-8.13567
▁hanging	-8.13754
▁trick	-8.13853
▁full	-8.13867
▁like	-8.14386
▁sleeping	-8.15447
▁music	-8.15469
▁arm	-8.16281
▁right	-8.16354
▁house	-8.17253
▁Children	-8.17647
▁many	-8.1788
▁away	-8.17993
▁backpack	-8.18006
▁phone	-8.18875
▁toddler	-8.1921
▁gathered	-8.19236
▁guys	-8.19397
▁shoes	-8.1967
▁shop	-8.19877
▁takes	-8.19976
▁set	-8.20057
▁board	-8.20597
▁bridge	-8.20788
▁going	-8.21132
▁bar	-8.21186
▁2	-8.21393
▁dance	-8.21565
▁pole	-8.21922
n	-8.22057
▁costume	-8.2226
▁wave	-8.2262
▁adults	-8.23054
▁both	-8.2317
▁rope	-8.23384
▁short	-8.23822
▁photo	-8.24168
▁smiles	-8.24265
▁after	-8.247
▁what	-8.24923
▁pose	-8.25676
▁leaning	-8.25679
▁left	-8.26136
▁steps	-8.26299
▁skirt	-8.263
t	-8.26302
▁attempt	-8.26311
▁gear	-8.26314
▁crowded	-8.26524
hair	-8.26529
▁flowers	-8.26863
▁preparing	-8.27203
▁fire	-8.27634
▁family	-8.28645
▁rocks	-8.29263
▁sunny	-8.29375
▁subway	-8.29741
▁have	-8.29741
▁kid	-8.29763
▁which	-8.29925
▁African	-8.29925
▁four	-8.30289
▁hockey	-8.30667
▁fishing	-8.30831
ween	-8.31782
▁racing	-8.31782
▁bet	-8.32115
▁flag	-8.32576
▁cowboy	-8.32955
▁fountain	-8.33529
▁machine	-8.34303
▁wood	-8.35291
▁public	-8.35798
▁setting	-8.36193
▁corner	-8.362
▁laughing	-8.36534
▁glass	-8.37354
▁drink	-8.37378
▁chairs	-8.37415
▁instruments	-8.37515
▁forest	-8.37695
▁volleyball	-8.37968
▁plaid	-8.3797
▁graffiti	-8.38167
▁L	-8.38318
w	-8.38936
▁shirtless	-8.39022
▁Some	-8.39776
▁appears	-8.40105
▁stairs	-8.40242
▁selling	-8.40524
▁prepare	-8.40716
▁plastic	-8.41416
▁match	-8.41609
▁number	-8.41744
▁concrete	-8.4183
▁someone	-8.42053
▁adult	-8.42174
▁couch	-8.42433
▁American	-8.42945
▁tall	-8.43047
▁sweatshirt	-8.4365
▁seated	-8.44868
▁scarf	-8.45202
▁view	-8.46171
▁computer	-8.46242
▁bags	-8.46268
▁beard	-8.46738
▁take	-8.46876
▁midair	-8.46933
▁cooking	-8.47083
▁putting	-8.47182
▁edge	-8.47808
▁object	-8.47841
▁sun	-8.47849
▁equipment	-8.48028
▁woods	-8.48394
▁toward	-8.48453
▁asian	-8.4873
▁beautiful	-8.49097
▁ramp	-8.49112
▁sky	-8.498
▁slide	-8.49877
▁bed	-8.50115
▁boots	-8.50302
▁pushing	-8.51343
▁display	-8.5141
▁wear	-8.5142
▁does	-8.52088
▁there	-8.52773
▁nearby	-8.52783
▁mountains	-8.52918
▁distance	-8.53236
▁throwing	-8.53628
a	-8.53665
▁fish	-8.53707
▁trail	-8.54335
▁jersey	-8.54677
▁where	-8.55346
▁just	-8.55584
▁audience	-8.55822
▁cross	-8.55877
ittle	-8.56298
▁police	-8.56768
▁door	-8.56849
▁rider	-8.57114
▁eyes	-8.57269
▁pictures	-8.57537
▁performs	-8.57564
▁instrument	-8.57571
▁crossing	-8.57708
▁ladies	-8.57747
▁playground	-8.5775
▁poses	-8.57777
▁pulling	-8.5793
▁Women	-8.58234
▁winter	-8.58235
▁vehicle	-8.58307
▁bikes	-8.60226
▁cigarette	-8.60296
▁party	-8.60551
▁lawn	-8.60707
▁parade	-8.61208
▁leaves	-8.61237
▁statue	-8.62098
▁driving	-8.6222
▁smoking	-8.62234
▁cleaning	-8.62697
▁painted	-8.63184
▁filled	-8.63344
▁net	-8.63365
▁buildings	-8.63436
▁fe	-8.63591
aged	-8.63598
▁works	-8.63607
▁Frisbee	-8.63756
lying	-8.64161
▁station	-8.64273
giving	-8.64536
▁cutting	-8.64795
▁roof	-8.64796
▁yard	-8.64806
▁beer	-8.65456
▁apron	-8.65991
▁skateboarder	-8.66062
▁cream	-8.66106
▁rocky	-8.66256
▁horses	-8.66581
▁safety	-8.66636
▁Group	-8.67973
▁smile	-8.68148
▁gloves	-8.68685
▁structure	-8.68955
▁art	-8.68993
▁makes	-8.69125
▁bottle	-8.69517
▁concert	-8.69601
st	-8.69734
▁no	-8.70013
▁friends	-8.7009
▁hit	-8.70164
▁fruit	-8.70347
▁gentleman	-8.70426
▁lean	-8.71137
▁perform	-8.7136
▁court	-8.71538
▁shoulder	-8.71751
▁school	-8.72103
▁cup	-8.72318
▁reads	-8.72346
▁martial	-8.72657
▁dock	-8.73005
▁enjoy	-8.73109
▁showing	-8.73278
▁carrie	-8.73432
▁newspaper	-8.73452
▁shore	-8.73505
es	-8.73568
▁hold	-8.73886
▁rain	-8.74141
▁box	-8.74212
▁drums	-8.74411
▁sort	-8.74889
▁cars	-8.74953
▁among	-8.75031
▁home	-8.75743
▁flower	-8.7586
▁Girl	-8.76366
▁pile	-8.76665
▁bowling	-8.76677
▁wet	-8.76696
▁parked	-8.76772
▁overlook	-8.76773
▁rodeo	-8.76981
▁pointing	-8.77152
▁bunch	-8.77281
▁goggles	-8.77288
▁drinks	-8.77737
▁mask	-8.78156
▁practicing	-8.78166
▁counter	-8.78462
▁costumes	-8.78554
▁suits	-8.78729
▁mother	-8.79348
▁arts	-8.79463
▁listening	-8.79512
▁fix	-8.79744
▁Someone	-8.79974
▁facing	-8.80277
▁vests	-8.80485
▁talks	-8.80495
▁tent	-8.80604
▁make	-8.80697
▁dresses	-8.80707
▁sports	-8.81254
▁bathing	-8.81381
▁teams	-8.81441
▁ladder	-8.81511
▁vendor	-8.81517
▁show	-8.81641
▁grill	-8.81762
▁different	-8.81808
▁feet	-8.8181
▁flying	-8.82016
▁scene	-8.82193
▁paint	-8.82464
▁T	-8.82592
▁electric	-8.82739
▁jackets	-8.82913
▁gold	-8.83045
▁bull	-8.83064
▁onlookers	-8.83108
▁gather	-8.83134
▁tie	-8.83134
▁time	-8.83389
▁Old	-8.8368
▁cliff	-8.84018
▁bucket	-8.84038
▁bird	-8.84039
▁desk	-8.84671
▁biker	-8.84772
▁wedding	-8.84953
▁speaking	-8.85091
▁staring	-8.85445
▁railing	-8.85585
▁coffee	-8.85588
▁empty	-8.8591
▁snowboarder	-8.85968
▁before	-8.86232
▁surfer	-8.86304
▁swinging	-8.86434
▁leather	-8.87206
▁parking	-8.87371
▁blanket	-8.87608
▁stop	-8.87807
▁conversation	-8.87861
▁kick	-8.88562
▁Boy	-8.88611
▁younger	-8.88857
▁talk	-8.88928
▁Person	-8.89183
▁basket	-8.89275
▁waves	-8.89278
▁flags	-8.89444
▁kicking	-8.89532
▁attire	-8.89766
▁purse	-8.89947
▁can	-8.90014
▁swim	-8.9029
▁put	-8.90416
▁go	-8.90675
▁items	-8.91158
▁foreground	-8.9154
▁skateboarding	-8.91763
▁break	-8.91885
▁various	-8.92225
▁spectators	-8.92247
▁bowl	-8.92677
▁reach	-8.92735
▁silver	-8.92912
▁cement	-8.92913
▁legs	-8.93046
▁competition	-8.93258
▁flip	-8.93353
▁life	-8.93609
▁same	-8.93618
▁meal	-8.9362
▁surfboard	-8.94095
▁writing	-8.94833
▁S	-8.95302
▁shot	-8.95861
an	-8.95861
▁leaps	-8.95955
▁animal	-8.96236
▁place	-8.96254
▁this	-8.96786
▁In	-8.96906
▁Indian	-8.9715
▁way	-8.97554
▁lift	-8.97667
▁business	-8.97837
▁kneeling	-8.97922
▁musical	-8.98057
▁rail	-8.98474
▁climbs	-8.98498
▁students	-8.98568
▁stroller	-8.99167
▁Six	-8.99332
▁outfits	-8.99463
▁balloon	-8.99544
▁alley	-8.99811
▁ski	-9.00363
▁screen	-9.01051
▁vegetables	-9.01851
▁sings	-9.01887
▁leg	-9.02134
▁wait	-9.02147
tries	-9.02196
▁site	-9.02568
▁bicycles	-9.02581
r	-9.02695
▁chasing	-9.02703
▁bearded	-9.02709
▁base	-9.02912
▁lay	-9.02938
▁signs	-9.03101
▁lap	-9.03205
▁bikini	-9.03324
▁gathering	-9.0353
▁says	-9.03582
▁skier	-9.03778
▁kissing	-9.03839
▁pull	-9.04118
▁bride	-9.04273
▁platform	-9.04626
▁lit	-9.04671
▁close	-9.05247
▁cake	-9.05275
▁tables	-9.05401
▁sunset	-9.05407
▁bald	-9.05511
▁fighting	-9.05529
▁military	-9.05798
▁walkway	-9.05806
▁blowing	-9.06031
▁surfing	-9.06137
▁helmets	-9.06282
▁violin	-9.0646
▁class	-9.07371
▁classroom	-9.07383
▁throw	-9.07383
▁ledge	-9.07385
▁hot	-9.07396
▁balloons	-9.07562
▁mirror	-9.08184
▁Construction	-9.08587
▁uses	-9.08647
▁laptop	-9.08897
▁diving	-9.08992
▁gym	-9.09
▁pour	-9.09128
▁alone	-9.09398
▁clear	-9.09539
▁scooter	-9.0972
▁foot	-9.09815
▁coming	-9.09886
▁sport	-9.10133
▁hiking	-9.10628
▁sandy	-9.10718
▁resting	-9.11033
▁wheel	-9.11041
▁competing	-9.11041
▁fun	-9.11458
▁bubbles	-9.11547
en	-9.11872
▁traffic	-9.11881
▁wooded	-9.11918
▁pass	-9.12005
▁meat	-9.12208
▁course	-9.12291
▁Black	-9.12291
▁huge	-9.12808
▁hang	-9.12904
▁desert	-9.13133
▁collar	-9.13253
▁float	-9.13498
▁officer	-9.13511
▁shows	-9.13527
▁check	-9.13658
▁son	-9.13664
▁trunks	-9.13838
▁garden	-9.14149
▁artist	-9.14346
▁upside	-9.14519
▁town	-9.14557
▁opposing	-9.14839
▁well	-9.14851
▁headphones	-9.14854
▁plate	-9.14864
▁helping	-9.14906
▁passing	-9.15106
▁block	-9.15209
▁brunette	-9.1527
▁goal	-9.15351
▁faces	-9.156
▁sandals	-9.15737
▁males	-9.1581
▁traditional	-9.16142
▁waving	-9.16175
▁made	-9.16639
▁ring	-9.16768
▁father	-9.17013
▁urban	-9.17018
▁brightly	-9.17142
▁slid	-9.17296
▁cat	-9.17321
▁stadium	-9.17896
▁swings	-9.17972
▁country	-9.18439
ic	-9.18694
▁skiing	-9.18706
▁held	-9.18789
▁musicians	-9.19057
▁lights	-9.19176
▁skating	-9.19251
▁seem	-9.19458
▁marathon	-9.19686
▁Kids	-9.19898
▁karate	-9.20138
▁performance	-9.2014
▁drum	-9.20517
▁leash	-9.20573
▁church	-9.20593
▁doorway	-9.20595
▁waits	-9.20768
▁leaping	-9.20823
▁give	-9.21023
▁teenage	-9.21034
▁stuff	-9.21514
▁hole	-9.21557
▁shovel	-9.21766
▁video	-9.21969
▁cafe	-9.21979
▁clown	-9.21981
▁B	-9.222
▁stream	-9.22423
▁golf	-9.22869
▁seen	-9.22921
▁bat	-9.23295
▁Christmas	-9.23364
▁five	-9.23405
less	-9.23407
▁type	-9.23428
lined	-9.23648
o	-9.23753
▁shallow	-9.23834
▁photographer	-9.23897
▁tracks	-9.24168
▁digging	-9.24306
▁turn	-9.24404
▁office	-9.24764
▁do	-9.25529
▁circle	-9.25942
▁deck	-9.2598
▁pier	-9.26166
▁sculpture	-9.2626
▁dirty	-9.26429
▁tattoo	-9.26544
▁eat	-9.27047
▁brush	-9.27166
▁straw	-9.27183
▁shoulders	-9.27298
▁row	-9.27755
▁neck	-9.28161
▁below	-9.2817
▁mud	-9.28176
▁attached	-9.28188
▁microscope	-9.2823
▁sticks	-9.28477
▁accordion	-9.28678
▁asleep	-9.29149
▁multicolored	-9.29165
▁seat	-9.29391
▁D	-9.29512
▁coats	-9.29515
▁hugging	-9.29676
▁third	-9.30149
▁makeup	-9.3016
▁photograph	-9.30193
▁nose	-9.30239
▁throws	-9.3028
▁performer	-9.30306
nt	-9.30383
▁toys	-9.30427
▁lab	-9.30634
▁beige	-9.30649
▁moving	-9.30655
▁members	-9.30686
▁happy	-9.31154
▁giant	-9.31154
▁grocery	-9.31155
▁produce	-9.31162
▁hoodie	-9.31171
▁crying	-9.31184
▁telescope	-9.31241
▁sled	-9.31261
▁runner	-9.31262
▁friend	-9.3127
▁washing	-9.31337
▁Chinese	-9.31662
sleeved	-9.31819
▁umbrellas	-9.31973
▁pond	-9.32123
▁booth	-9.32285
▁dinner	-9.32686
▁streets	-9.32714
▁gun	-9.32858
▁fight	-9.32995
▁canoe	-9.3314
▁Guy	-9.33718
▁jogging	-9.33718
▁not	-9.33743
▁P	-9.33786
▁relaxing	-9.33964
▁himself	-9.34239
▁how	-9.34253
▁climb	-9.34505
▁tire	-9.34823
▁sweeping	-9.35052
▁barefoot	-9.36132
▁pushe	-9.36225
▁van	-9.36353
▁skate	-9.36508
▁underneath	-9.3691
▁closed	-9.37022
▁mat	-9.37197
▁teeth	-9.37425
ers	-9.37791
▁project	-9.37887
▁mid	-9.3803
▁cut	-9.38402
▁books	-9.38419
▁picnic	-9.38506
▁trampoline	-9.38507
▁racket	-9.38508
▁kind	-9.38679
▁windows	-9.39235
▁string	-9.39321
▁end	-9.39812
▁tricks	-9.40025
▁see	-9.40167
▁dancers	-9.40319
▁device	-9.40346
▁balls	-9.40358
▁print	-9.40379
▁atop	-9.40392
▁pulled	-9.40464
▁drawing	-9.40577
▁falling	-9.407
▁fallen	-9.40719
▁individuals	-9.40721
▁roller	-9.40729
▁pair	-9.40905
▁khaki	-9.40914
▁singer	-9.40927
▁fair	-9.41121
▁heavy	-9.41268
up	-9.41675
▁center	-9.41831
▁goes	-9.41863
▁decorated	-9.41871
▁cane	-9.41998
▁square	-9.42036
▁musician	-9.42067
▁cloth	-9.42272
▁camouflage	-9.42396
▁wide	-9.42396
▁deep	-9.42409
▁officers	-9.42475
▁also	-9.42964
▁muddy	-9.42964
▁These	-9.43153
▁cyclist	-9.432
▁festival	-9.43535
▁including	-9.43543
▁wetsuit	-9.43763
▁repair	-9.43773
▁robe	-9.43807
▁round	-9.43934
▁heads	-9.44219
▁post	-9.44318
▁chef	-9.44355
▁Dog	-9.44356
▁sea	-9.44434
▁crosswalk	-9.44689
▁covering	-9.44708
▁plants	-9.44804
▁hula	-9.4527
▁cold	-9.4527
▁part	-9.45361
▁help	-9.45811
▁jean	-9.46128
▁splashing	-9.46138
▁Small	-9.46443
▁blouse	-9.46443
▁tunnel	-9.46443
▁curly	-9.46445
skinned	-9.46445
▁tongue	-9.46688
▁wrappe	-9.46801
▁indoor	-9.46916
▁low	-9.4701
▁dances	-9.47236
▁bicyclist	-9.47318
▁carnival	-9.47629
▁airplane	-9.47633
▁taken	-9.47703
▁daughter	-9.47881
▁but	-9.48193
▁mural	-9.48244
▁start	-9.48407
▁whil	-9.48507
▁obstacle	-9.48508
▁guard	-9.48532
▁speaks	-9.4858
man	-9.48983
▁eats	-9.49353
▁lone	-9.49397
▁curb	-9.49437
▁button	-9.49503
▁stunt	-9.49743
▁denim	-9.50047
▁railroad	-9.50048
▁catche	-9.50171
▁appear	-9.50296
▁marching	-9.50296
▁new	-9.50327
▁picking	-9.50476
▁hose	-9.50556
▁half	-9.50663
▁golden	-9.50682
le	-9.50924
▁points	-9.51141
▁pot	-9.51161
▁balcony	-9.51277
▁bandanna	-9.51277
▁flies	-9.51278
▁lie	-9.51338
▁hooded	-9.51432
▁kicks	-9.51733
▁backyard	-9.51902
▁trash	-9.51902
▁move	-9.52226
▁Child	-9.52523
▁pavement	-9.52524
▁un	-9.52722
▁log	-9.52853
▁nice	-9.53113
▁surface	-9.53152
▁polo	-9.53161
▁E	-9.53335
▁opening	-9.53335
▁sleeps	-9.53434
▁knee	-9.53463
▁infant	-9.53473
▁runners	-9.53649
▁passes	-9.53815
▁Workers	-9.53929
▁e	-9.54033
▁cow	-9.54152
▁hitt	-9.5418
▁colors	-9.54417
▁groom	-9.54767
▁hoop	-9.54779
▁local	-9.55063
▁driver	-9.55117
▁rolling	-9.55333
▁pack	-9.55396
▁bottom	-9.55465
▁dry	-9.55598
▁Lady	-9.55708
▁piano	-9.55709
▁presentation	-9.5571
▁overalls	-9.55753
▁touching	-9.55958
▁laundry	-9.56358
▁landscape	-9.56358
▁paved	-9.56444
▁shooting	-9.56765
▁drives	-9.56994
▁protective	-9.57012
▁slides	-9.57058
▁raised	-9.57251
▁climber	-9.57458
▁M	-9.57598
▁gymnast	-9.57659
▁New	-9.57686
ous	-9.57899
▁finger	-9.58088
▁harness	-9.58312
▁balancing	-9.58331
▁living	-9.58331
▁wrestling	-9.58332
▁females	-9.58756
m	-9.59002
▁boats	-9.59209
▁direction	-9.59434
▁belt	-9.60123
▁luggage	-9.60345
▁orient	-9.60346
▁sewing	-9.60366
▁kayak	-9.60749
▁chest	-9.60803
▁tile	-9.60817
▁inspect	-9.61009
▁White	-9.61025
▁slope	-9.61332
▁mustache	-9.6135
▁image	-9.61482
▁C	-9.61716
▁keyboard	-9.62153
▁fall	-9.62185
▁shoe	-9.62187
▁rest	-9.62251
▁so	-9.62439
in	-9.62644
▁scaffolding	-9.62653
ple	-9.62673
▁professional	-9.62824
▁chain	-9.6287
▁banner	-9.62875
▁navy	-9.63098
▁checkered	-9.63101
▁spray	-9.63379
▁puddle	-9.63561
▁referee	-9.63564
▁wheelchair	-9.63573
▁motorcycles	-9.63693
▁tractor	-9.63794
▁kiss	-9.63798
▁ship	-9.6382
▁goods	-9.63826
▁shade	-9.64017
▁swims	-9.64278
▁rugby	-9.64499
▁skis	-9.64804
▁ear	-9.64946
▁fabric	-9.64976
▁guitars	-9.64977
▁fans	-9.64993
▁dancer	-9.65071
▁papers	-9.65138
▁plane	-9.65401
▁waterfall	-9.6569
▁stool	-9.65712
▁warm	-9.65893
▁shaving	-9.65921
▁smoke	-9.6602
▁poles	-9.66153
▁sale	-9.6642
▁swimsuit	-9.66452
▁cone	-9.66539
▁inflatable	-9.66641
▁staircase	-9.66641
covered	-9.66831
▁pipe	-9.67236
▁paints	-9.67299
▁juggling	-9.67365
▁garbage	-9.67368
▁examin	-9.68022
▁without	-9.68039
ither	-9.68104
▁goalie	-9.68106
▁tool	-9.68185
S	-9.68379
▁wine	-9.68448
▁dust	-9.68843
▁arena	-9.68969
▁sheet	-9.69412
▁guitarist	-9.6943
▁bubble	-9.69451
▁teenagers	-9.69558
▁conversing	-9.69571
▁club	-9.69571
▁drummer	-9.69572
sleeve	-9.69756
▁bit	-9.7014
▁saxophone	-9.70142
▁pitcher	-9.70157
▁opposite	-9.70318
▁palm	-9.70318
▁saw	-9.70318
▁floral	-9.70331
2	-9.70525
ial	-9.70578
▁reache	-9.70704
▁gate	-9.70806
▁bending	-9.70919
▁raise	-9.7092
▁plant	-9.70958
▁hammer	-9.70961
like	-9.71016
▁crew	-9.7107
▁York	-9.71827
▁podium	-9.71827
▁funny	-9.71828
▁hay	-9.71844
▁pattern	-9.71851
▁thrown	-9.71878
i	-9.71899
▁ears	-9.72038
▁stares	-9.72283
▁load	-9.72366
▁soldier	-9.72449
▁themselves	-9.7259
▁boxes	-9.72643
▁only	-9.72808
▁moves	-9.72935
▁shoveling	-9.72953
▁feed	-9.73201
▁motor	-9.73356
▁adjust	-9.73356
▁serving	-9.7336
▁clean	-9.7373
▁examine	-9.73885
▁hiker	-9.74013
▁multi	-9.74129
▁Blond	-9.74135
▁shaking	-9.74135
▁Here	-9.74137
▁american	-9.74182
▁hurdle	-9.74426
▁birds	-9.74809
▁raft	-9.74873
▁acoustic	-9.74916
▁neon	-9.74916
▁model	-9.74918
▁dig	-9.74921
▁surf	-9.75219
▁walls	-9.75225
▁pedestrians	-9.75272
▁towel	-9.75571
▁balance	-9.75585
▁container	-9.75604
▁barbecue	-9.75704
▁lunch	-9.75706
▁cloudy	-9.7575
▁pajamas	-9.75808
▁fingers	-9.75994
▁robes	-9.7616
▁use	-9.76286
▁riders	-9.76321
▁puppy	-9.76497
▁teacher	-9.76507
▁sleeve	-9.76734
▁you	-9.76861
▁animals	-9.76924
▁lane	-9.77184
▁practice	-9.7719
▁steep	-9.77269
▁garb	-9.77294
▁carpet	-9.77297
▁biking	-9.77297
▁caught	-9.77297
▁foreign	-9.77297
▁porch	-9.77297
▁machinery	-9.77306
▁bread	-9.77353
▁formal	-9.77355
▁jerseys	-9.77973
▁beam	-9.78037
▁wagon	-9.78104
▁polka	-9.78104
▁racetrack	-9.78105
▁underwater	-9.78106
l	-9.78116
▁snowboard	-9.78119
▁flight	-9.78141
▁bucking	-9.78259
▁escalator	-9.78797
▁present	-9.78848
▁athletic	-9.78917
▁style	-9.7909
▁pan	-9.79247
▁motorbike	-9.79643
▁tube	-9.79713
▁dive	-9.79745
▁name	-9.79752
▁marketplace	-9.80563
▁ponytail	-9.80563
▁six	-9.80563
▁suspended	-9.80571
▁shown	-9.80635
▁cones	-9.80781
▁surrounding	-9.80894
▁fill	-9.81172
▁trumpet	-9.81293
▁compete	-9.81396
▁hospital	-9.81396
▁herself	-9.81396
▁haircut	-9.81412
▁observing	-9.81431
▁heels	-9.81463
▁blocks	-9.81477
▁amusement	-9.81508
▁puck	-9.81842
▁participat	-9.81847
▁rais	-9.82096
▁member	-9.82175
▁drill	-9.82236
▁Girls	-9.82314
▁socks	-9.82326
▁bend	-9.8272
▁intersection	-9.83084
▁candy	-9.83084
▁hallway	-9.83085
▁money	-9.83094
▁was	-9.8319
▁chases	-9.83611
▁opponent	-9.8388
▁happily	-9.83939
▁narrow	-9.83939
▁paddling	-9.83939
▁maroon	-9.83939
▁softball	-9.83939
▁backwards	-9.84107
▁push	-9.84327
shirts	-9.84463
▁hood	-9.8452
f	-9.84694
▁good	-9.84757
▁summer	-9.848
▁first	-9.84804
▁visible	-9.84819
apanese	-9.84938
▁tools	-9.85009
▁bottles	-9.8507
re	-9.85145
b	-9.85196
▁pieces	-9.85212
▁tattoos	-9.8556
▁fast	-9.85571
▁jumpsuit	-9.85635
▁laughs	-9.85685
▁wind	-9.85723
▁things	-9.85843
▁meeting	-9.8602
▁tub	-9.86349
▁form	-9.86406
▁fur	-9.86469
▁eye	-9.86489
▁plaza	-9.86547
▁carriage	-9.86547
▁cobblestone	-9.86547
▁sheep	-9.86547
▁firetruck	-9.8655
▁poster	-9.8657
▁celebrating	-9.86575
▁finish	-9.86662
▁boxing	-9.86874
▁backpacks	-9.87018
c	-9.87228
▁individual	-9.87416
▁Santa	-9.87432
▁Male	-9.87437
▁tackle	-9.87494
▁laugh	-9.87631
ten	-9.87634
▁benches	-9.87728
▁paddle	-9.87931
▁frame	-9.88249
▁pitch	-9.88267
▁necklace	-9.88307
▁advertisement	-9.8831
▁swimmer	-9.88315
▁athlete	-9.88316
▁speech	-9.88325
▁mound	-9.88325
▁speed	-9.8833
▁cast	-9.88371
▁German	-9.88418
side	-9.8908
if	-9.89159
▁routine	-9.89178
▁beverage	-9.8923
▁sneakers	-9.8928
▁crosses	-9.893
▁rests	-9.89509
h	-9.89635
▁bicyclists	-9.897
▁flowered	-9.89899
▁map	-9.89958
▁performers	-9.89986
▁headband	-9.9011
▁frisbee	-9.90135
▁chew	-9.90136
▁handstand	-9.90149
▁mall	-9.90175
▁wire	-9.90175
▁color	-9.90205
▁airport	-9.90338
▁cheerleaders	-9.90432
▁leading	-9.90721
▁Brown	-9.91053
▁greyhound	-9.91053
▁museum	-9.91059
▁squatting	-9.91099
▁skirts	-9.9114
▁mix	-9.91313
▁catcher	-9.9151
▁sells	-9.91869
▁drive	-9.91941
▁coach	-9.91979
▁space	-9.91979
▁reflective	-9.9198
▁BM	-9.91981
▁broom	-9.91985
▁gravel	-9.92018
▁teenager	-9.92028
▁kneels	-9.92154
▁sets	-9.92369
▁patio	-9.92913
▁teal	-9.9292
▁downtown	-9.9293
▁peace	-9.92935
▁rink	-9.92942
amp	-9.93025
▁I	-9.93306
colored	-9.93394
▁helps	-9.93427
▁stripes	-9.93436
▁cyclists	-9.93466
▁customers	-9.93556
▁fenced	-9.93587
▁forward	-9.93954
▁hikers	-9.94017
th	-9.94296
▁buying	-9.94351
▁branch	-9.94789
▁operating	-9.94809
▁courtyard	-9.9481
▁nap	-9.94834
▁figure	-9.94855
▁spread	-9.94958
▁computers	-9.94978
▁grilling	-9.94998
▁toss	-9.95013
down	-9.95134
▁position	-9.95579
▁shadow	-9.95597
p	-9.95711
▁boardwalk	-9.95773
▁leaf	-9.9579
▁mostly	-9.95798
▁W	-9.95805
▁welding	-9.95821
▁pick	-9.95825
▁baskets	-9.96467
▁step	-9.96468
▁'	-9.96528
▁silhouette	-9.96741
▁african	-9.96742
▁cook	-9.96882
ies	-9.96921
▁evening	-9.96972
."	-9.9698
▁bars	-9.97094
▁ahead	-9.97202
▁snowboarding	-9.97563
▁Female	-9.97722
▁Street	-9.97722
▁airborne	-9.97722
▁garage	-9.97722
▁homeless	-9.97755
▁gas	-9.97794
▁mom	-9.97795
▁student	-9.97803
▁redheaded	-9.97835
▁cheering	-9.98198
▁bass	-9.98712
▁sink	-9.98712
▁possibly	-9.98724
or	-9.98735
▁tee	-9.98809
▁Crowd	-9.99712
▁crane	-9.99712
▁college	-9.99717
▁attention	-9.9973
▁policeman	-9.99744
▁read	-10.0005
▁indoors	-10.0025
▁blows	-10.0049
▁tag	-10.0061
▁scub	-10.0061
▁Large	-10.0072
▁liquid	-10.0072
▁newborn	-10.0072
▁village	-10.0073
▁pay	-10.0074
▁action	-10.0075
▁motorcyclist	-10.0082
▁design	-10.0083
▁folding	-10.0094
▁racer	-10.0099
▁smokes	-10.0099
▁tied	-10.01
▁carry	-10.011
▁job	-10.0116
▁weather	-10.0155
▁shar	-10.016
▁bare	-10.0164
▁gentlemen	-10.0174
▁sofa	-10.0174
▁carving	-10.0175
▁song	-10.0175
▁fly	-10.0186
▁sell	-10.0192
▁crossed	-10.0268
▁motocross	-10.0277
▁rainbow	-10.0277
▁tray	-10.0289
▁sword	-10.0289
▁item	-10.0291
▁smaller	-10.03
▁bite	-10.0314
▁caps	-10.0314
▁serve	-10.0375
▁entrance	-10.0381
▁intently	-10.0381
▁orchestra	-10.0381
▁studio	-10.0387
▁magazine	-10.0395
▁rowing	-10.0422
▁power	-10.0443
▁balding	-10.0459
u	-10.046
▁stack	-10.0479
▁bikers	-10.048
▁fresh	-10.0483
▁bouquet	-10.0487
▁lick	-10.0487
▁barber	-10.0488
▁castle	-10.0489
▁spinn	-10.0492
▁stroll	-10.0497
▁soldiers	-10.0506
▁hits	-10.0518
▁single	-10.0592
▁knife	-10.0593
▁stove	-10.0593
▁bathroom	-10.0593
▁rough	-10.0594
▁sing	-10.0601
▁shaped	-10.0617
▁protest	-10.0628
▁cover	-10.0631
▁lead	-10.0634
▁backs	-10.0685
▁ceiling	-10.0701
▁converse	-10.0701
▁library	-10.0701
▁neighborhood	-10.0701
▁cricket	-10.0701
▁crouches	-10.0701
▁bushes	-10.0702
▁splashes	-10.0702
▁closeup	-10.0703
▁bear	-10.0705
▁ballet	-10.0711
▁objects	-10.0713
▁knees	-10.0748
▁medic	-10.0756
▁shoot	-10.076
▁skates	-10.0776
▁choir	-10.0809
▁second	-10.0809
▁waist	-10.0809
▁cardboard	-10.081
▁formation	-10.0825
▁craft	-10.0829
▁turned	-10.0874
▁bath	-10.0892
▁guns	-10.0893
▁range	-10.0909
▁grab	-10.0918
▁headscarf	-10.0919
▁native	-10.0919
▁iron	-10.0919
▁backdrop	-10.093
▁flipp	-10.0931
▁lamp	-10.0937
▁heart	-10.0969
▁tents	-10.1027
▁strange	-10.1027
▁farm	-10.1027
▁Soccer	-10.103
▁pizza	-10.103
▁dishes	-10.1032
▁storefront	-10.1049
▁bank	-10.1049
▁order	-10.1094
▁cards	-10.1109
▁pit	-10.1135
▁corn	-10.1141
▁dish	-10.1149
▁stopped	-10.1151
▁taxi	-10.1163
▁pillow	-10.1164
rubber	-10.1168
▁stretching	-10.117
▁fruits	-10.1175
▁land	-10.1213
▁army	-10.1217
▁vehicles	-10.1223
▁stops	-10.1229
▁ceremony	-10.1256
▁conference	-10.1256
▁transportation	-10.1256
flops	-10.1265
▁c	-10.1272
▁elephant	-10.1279
▁live	-10.1282
▁tops	-10.1301
▁watched	-10.1304
▁skateboards	-10.1317
▁pen	-10.1327
▁st	-10.1344
▁buckets	-10.1356
▁creek	-10.1371
▁leaving	-10.1371
▁dining	-10.1371
▁wheels	-10.1393
▁photos	-10.1395
▁mop	-10.1406
▁point	-10.1426
ar	-10.1428
▁bounc	-10.1457
▁keep	-10.1476
▁birthday	-10.1488
▁outstretched	-10.1488
▁City	-10.1488
▁naked	-10.149
go	-10.1492
▁tower	-10.1493
▁plates	-10.15
▁called	-10.1502
▁suitcase	-10.1512
▁electronic	-10.1512
▁barrel	-10.1513
▁cups	-10.1513
ight	-10.1546
▁blow	-10.1548
▁photographs	-10.1583
▁b	-10.1594
▁Police	-10.1605
▁jewelry	-10.1605
▁share	-10.1616
▁knit	-10.1628
▁chicken	-10.1632
▁pigeons	-10.1632
▁skater	-10.1635
▁ropes	-10.1636
▁participate	-10.166
▁lines	-10.168
▁G	-10.1713
neath	-10.1719
▁excited	-10.172
▁wrestle	-10.1723
▁dreadlocks	-10.1724
▁married	-10.1724
▁security	-10.1724
▁apartment	-10.1724
▁telephone	-10.1725
▁apply	-10.1728
▁dune	-10.1752
▁ribbon	-10.1753
▁vegetable	-10.1754
▁microphones	-10.1768
▁bow	-10.1781
▁cuts	-10.1804
▁tug	-10.1828
▁hall	-10.1845
▁ballerina	-10.1845
▁wading	-10.1845
▁calm	-10.1845
▁horseback	-10.1846
▁tend	-10.1865
▁exercise	-10.1874
▁act	-10.1874
▁falls	-10.1883
▁directions	-10.1887
▁observe	-10.1934
▁doors	-10.1937
▁star	-10.1942
▁patient	-10.1963
▁pretty	-10.1967
▁discussion	-10.1967
▁rural	-10.1967
▁wings	-10.1967
▁terrain	-10.1968
▁balances	-10.1985
▁donkey	-10.1998
▁trailer	-10.2002
▁sweep	-10.2006
▁photographed	-10.202
▁pett	-10.2033
rs	-10.2045
▁contain	-10.2086
▁embrace	-10.209
▁dimly	-10.2091
▁hillside	-10.2095
▁checks	-10.2107
▁upon	-10.2113
▁artwork	-10.2118
men	-10.218
▁Boys	-10.2183
▁fisherman	-10.2215
▁straight	-10.2215
▁huddle	-10.2215
▁shake	-10.2218
▁youth	-10.2225
▁attending	-10.2242
▁case	-10.2247
▁barrier	-10.2249
▁traveling	-10.2251
▁kite	-10.2256
▁collared	-10.2281
▁passengers	-10.2285
▁control	-10.2292
▁gathers	-10.2328
▁pet	-10.2333
▁casual	-10.2338
▁Caucasian	-10.2342
▁derby	-10.2342
▁jungle	-10.2342
▁fancy	-10.2342
▁unicycle	-10.2373
▁rug	-10.2377
▁gown	-10.2378
▁doctor	-10.2378
▁snack	-10.2378
ion	-10.24
▁waters	-10.2453
▁shovels	-10.2466
able	-10.2467
▁hike	-10.2468
▁ethnic	-10.247
▁steel	-10.247
▁partially	-10.247
▁furry	-10.247
▁pottery	-10.2472
▁teaching	-10.2475
▁fan	-10.251
▁buy	-10.257
▁crafts	-10.2578
▁leads	-10.258
▁lounge	-10.26
▁calf	-10.26
▁still	-10.26
▁slightly	-10.26
g	-10.262
▁discussing	-10.2624
▁record	-10.2627
▁billboard	-10.2637
▁jockey	-10.2639
▁teammate	-10.2641
▁tight	-10.2644
▁card	-10.2701
▁entertain	-10.271
▁cool	-10.2727
▁kayaking	-10.2731
▁dusk	-10.2731
▁fluffy	-10.2731
▁furniture	-10.2731
▁mobile	-10.2731
▁more	-10.2732
▁broken	-10.2732
▁had	-10.2734
▁shaved	-10.2734
▁It	-10.2739
▁cleans	-10.2754
ment	-10.2764
▁soda	-10.2768
▁thin	-10.2774
▁customer	-10.2774
▁camping	-10.2778
▁thumbs	-10.2781
▁clouds	-10.2784
▁shops	-10.2789
▁turning	-10.2789
▁tattooed	-10.2791
▁writ	-10.2805
▁seats	-10.2841
▁leap	-10.2845
ian	-10.2864
▁clay	-10.2865
▁great	-10.2865
▁religious	-10.2865
▁bleachers	-10.2865
▁clapping	-10.2865
▁overhead	-10.2869
▁engaged	-10.2875
▁crouching	-10.2875
▁training	-10.2877
▁free	-10.2889
▁parents	-10.2896
▁cheek	-10.2908
on	-10.2913
▁rainy	-10.2914
▁strike	-10.2916
▁F	-10.295
▁sandwich	-10.2998
▁most	-10.2999
▁advertising	-10.3
▁patch	-10.3
of	-10.3005
▁doll	-10.3033
▁spoon	-10.304
▁jet	-10.3041
▁trunk	-10.3046
▁duck	-10.3049
▁protesting	-10.3087
▁creat	-10.3103
▁engine	-10.3116
▁similar	-10.3133
▁stall	-10.3137
▁factory	-10.3137
▁gymnasium	-10.3137
▁slacks	-10.3137
▁trashcan	-10.3137
▁moment	-10.3137
▁cello	-10.3138
▁clad	-10.3155
▁loom	-10.3183
x	-10.3185
▁candles	-10.3189
▁plac	-10.3211
American	-10.3228
looking	-10.3237
▁coloring	-10.324
▁though	-10.3274
▁Football	-10.3276
▁fencing	-10.3276
▁section	-10.3276
▁variet	-10.3276
▁downhill	-10.3276
war	-10.3276
▁hug	-10.3304
▁flute	-10.3322
▁grinding	-10.3322
▁splash	-10.3325
▁tourist	-10.3325
▁peer	-10.3327
▁follows	-10.3334
▁cheer	-10.3346
age	-10.3347
k	-10.3388
▁listen	-10.34
▁cooks	-10.3407
▁score	-10.3408
▁O	-10.3412
▁ornate	-10.3413
▁chalk	-10.3416
▁yoga	-10.3417
▁chinese	-10.3417
▁fetch	-10.3417
▁tape	-10.3424
▁R	-10.3426
▁w	-10.3435
▁gymnastics	-10.3441
ul	-10.3449
▁focus	-10.3458
▁glove	-10.346
▁following	-10.346
▁kilt	-10.3466
▁re	-10.3469
▁numbers	-10.3469
▁teen	-10.3486
▁tourists	-10.3509
midst	-10.3523
▁covers	-10.3537
▁relax	-10.3538
▁exhibit	-10.3559
▁Middle	-10.3559
▁television	-10.3559
▁reflection	-10.356
▁dunk	-10.3561
▁paddles	-10.3562
▁branches	-10.3562
▁folded	-10.3569
A	-10.3593
▁come	-10.3607
▁horn	-10.3617
ch	-10.3696
▁weaving	-10.3704
▁flat	-10.3704
▁AT	-10.3714
▁tea	-10.3725
▁curve	-10.373
▁cage	-10.3749
▁chase	-10.3754
▁parachute	-10.3759
▁material	-10.3759
ying	-10.3781
▁far	-10.3815
ized	-10.3817
▁athletes	-10.3832
▁rows	-10.3832
▁batter	-10.3842
▁spraying	-10.3847
▁Elder	-10.3851
▁wheelbarrow	-10.3851
▁forehead	-10.3851
▁dead	-10.3851
▁rear	-10.3853
C	-10.3857
▁wheelie	-10.3858
▁closely	-10.3866
▁fak	-10.3876
▁sprinkler	-10.3909
▁scen	-10.3925
weight	-10.3952
▁shower	-10.3978
▁tropical	-10.4001
▁theater	-10.4001
▁beanie	-10.4001
▁fireman	-10.4007
▁belly	-10.4008
▁Red	-10.4008
▁whom	-10.4016
▁gestures	-10.4072
▁K	-10.4075
▁pins	-10.408
▁larger	-10.4084
▁listens	-10.4098
▁chopp	-10.4135
▁sides	-10.4142
▁chess	-10.4152
▁Couple	-10.4152
▁nature	-10.4152
▁groceries	-10.4152
circular	-10.4152
▁peek	-10.4153
▁nighttime	-10.4153
▁hotel	-10.4153
▁pale	-10.4153
▁coaster	-10.4154
▁grabb	-10.4155
▁crouched	-10.4156
el	-10.4168
▁laptops	-10.4189
▁N	-10.4212
▁ages	-10.4213
▁word	-10.4216
▁dot	-10.4276
ical	-10.428
it	-10.4286
▁speak	-10.4298
▁crawl	-10.4306
▁lecture	-10.4306
▁sniff	-10.4306
▁stoop	-10.4307
▁scenery	-10.4307
▁pathway	-10.4307
▁swimmers	-10.4308
▁world	-10.4309
▁casually	-10.4311
▁messy	-10.4312
▁venue	-10.4312
▁aisle	-10.4313
▁practices	-10.4327
▁done	-10.4327
▁stare	-10.434
▁placed	-10.4366
▁apple	-10.437
ling	-10.4403
▁bricks	-10.4403
lit	-10.4409
▁tires	-10.442
▁observes	-10.4422
▁own	-10.4458
▁visit	-10.4462
▁juice	-10.4462
▁movie	-10.4462
▁puppies	-10.4462
▁tripod	-10.4462
▁carefully	-10.4463
▁rally	-10.4463
▁chat	-10.4463
▁firemen	-10.4466
▁eastern	-10.447
▁carts	-10.4478
▁saying	-10.4498
▁notes	-10.4504
▁sized	-10.4505
▁strip	-10.4514
▁draw	-10.4528
▁firefighters	-10.455
▁moped	-10.4554
▁peers	-10.4565
▁hugs	-10.4565
▁shin	-10.458
▁St	-10.46
▁turns	-10.4608
▁canvas	-10.4621
▁rollerskating	-10.4621
▁chalkboard	-10.4621
▁chatting	-10.4621
▁shoreline	-10.4622
▁wares	-10.4623
▁binoculars	-10.4628
P	-10.4628
ive	-10.464
▁viewing	-10.4644
▁approaching	-10.466
▁motion	-10.4687
▁me	-10.4721
▁jumped	-10.4722
▁touche	-10.474
round	-10.4749
red	-10.4763
▁races	-10.4764
se	-10.4781
▁pigtails	-10.4782
▁seven	-10.4782
▁yarn	-10.4782
▁celebration	-10.4782
▁hind	-10.4782
▁rollerblading	-10.4782
▁supplies	-10.4782
▁skinny	-10.4782
▁dough	-10.4783
▁tiny	-10.4786
▁link	-10.4797
▁missing	-10.4797
▁snowshoes	-10.4798
▁rolled	-10.4803
▁surfs	-10.4808
▁rack	-10.4851
▁turban	-10.4852
▁logo	-10.4854
▁firefighter	-10.4855
▁passenger	-10.4855
▁mini	-10.4941
▁environment	-10.4946
▁pause	-10.4946
▁umpire	-10.4946
▁stump	-10.4946
▁sunlight	-10.4947
▁alleyway	-10.4947
▁London	-10.4947
▁descent	-10.4948
▁kisses	-10.4951
ting	-10.496
arious	-10.4964
▁presents	-10.4965
▁real	-10.4967
▁oven	-10.4969
▁complete	-10.4977
▁win	-10.5013
▁feather	-10.5021
▁march	-10.5043
▁stripe	-10.5048
style	-10.5055
▁teammates	-10.5062
v	-10.5096
▁shadows	-10.5103
▁modern	-10.5113
▁industr	-10.5113
▁silly	-10.5113
▁tail	-10.5119
▁masks	-10.512
▁played	-10.5121
▁learning	-10.514
▁torch	-10.5152
▁shades	-10.5164
▁trip	-10.5168
▁H	-10.5179
▁expression	-10.5189
▁hoops	-10.5192
▁hut	-10.5199
▁meet	-10.5215
▁bowls	-10.522
▁eggs	-10.5234
▁roll	-10.5269
▁displays	-10.5278
▁While	-10.5282
▁consist	-10.5282
▁embracing	-10.5282
▁frozen	-10.5282
▁stomach	-10.5282
▁almost	-10.5282
▁arcade	-10.5282
▁chainsaw	-10.5282
▁semi	-10.5282
▁quickly	-10.5283
▁test	-10.5288
▁opens	-10.529
▁rollerskates	-10.5296
▁mass	-10.5313
z	-10.5324
▁rod	-10.5331
ist	-10.5344
▁products	-10.5353
▁wig	-10.5355
▁camel	-10.5363
▁landing	-10.5386
▁admir	-10.5387
ful	-10.5429
ter	-10.543
▁vendors	-10.5445
▁racers	-10.5445
aseball	-10.5454
▁contest	-10.5455
▁alcohol	-10.5455
▁butterfly	-10.5455
▁medium	-10.5455
▁soap	-10.5455
▁handrail	-10.5456
I	-10.5462
▁Students	-10.5462
Baby	-10.5465
▁pin	-10.5465
▁rapids	-10.547
▁Famil	-10.5475
▁bib	-10.5484
▁midst	-10.5493
▁crates	-10.5517
▁pads	-10.5518
▁notebook	-10.5535
ky	-10.5535
▁nail	-10.5543
▁houses	-10.5556
▁words	-10.5558
▁flips	-10.5562
▁perch	-10.5564
▁comes	-10.5565
▁lighting	-10.5619
▁touch	-10.5619
▁chin	-10.5629
▁gallery	-10.563
▁trench	-10.563
▁chocolate	-10.563
▁suspenders	-10.563
▁indian	-10.5631
▁mechanic	-10.5632
▁spotted	-10.5632
▁service	-10.5632
▁Pedestrians	-10.5636
▁scale	-10.5639
▁lower	-10.5665
out	-10.5669
▁bagpipes	-10.5673
ll	-10.5675
▁interacting	-10.568
▁pine	-10.5687
▁build	-10.569
▁within	-10.5694
▁g	-10.5705
▁leotard	-10.5716
▁Olympics	-10.5716
▁gift	-10.5717
▁owner	-10.572
▁rolls	-10.5725
▁call	-10.5727
▁bin	-10.5729
▁bamboo	-10.5809
▁debris	-10.5809
▁elaborate	-10.5809
▁shawl	-10.5809
▁valley	-10.5809
▁bulldozer	-10.5809
▁decorative	-10.581
▁rooftop	-10.5811
▁scrubs	-10.5818
▁squirt	-10.5821
▁drawn	-10.5831
▁strapp	-10.5844
ie	-10.586
▁tricycle	-10.5898
▁He	-10.5902
▁camels	-10.5905
▁collect	-10.5929
camera	-10.5943
▁stones	-10.5956
▁games	-10.5959
▁we	-10.5966
▁milk	-10.5991
▁rice	-10.5991
▁lacrosse	-10.5991
▁turquoise	-10.5991
▁double	-10.5991
▁knitting	-10.5991
▁underwear	-10.5992
▁built	-10.5994
▁drap	-10.6003
one	-10.602
▁cab	-10.6026
hif	-10.6041
▁begins	-10.6052
ir	-10.6075
▁sailboat	-10.6083
▁boxer	-10.6107
▁scaffold	-10.6108
la	-10.6111
▁tights	-10.6119
▁machines	-10.6122
▁poor	-10.6172
▁p	-10.6175
▁late	-10.6175
▁wires	-10.6175
sh	-10.6176
▁amount	-10.6176
▁information	-10.6176
▁monument	-10.6176
▁helicopter	-10.6176
▁stairway	-10.6176
▁mill	-10.6176
▁brass	-10.6177
▁playfully	-10.6178
▁Cheerleaders	-10.6178
▁rollerblades	-10.6185
▁Tourists	-10.6201
▁cameraman	-10.621
top	-10.6213
▁diver	-10.6245
▁wash	-10.625
▁crown	-10.6271
▁hotdog	-10.6273
▁Olympic	-10.6273
▁wrestler	-10.6275
ted	-10.6275
ur	-10.6286
▁cute	-10.6288
▁blankets	-10.6321
▁wild	-10.636
▁odd	-10.6361
▁process	-10.6364
▁locat	-10.6364
▁chisel	-10.6365
▁bathtub	-10.6365
▁contraption	-10.6365
▁identical	-10.6365
▁lounging	-10.6365
▁merchandise	-10.6365
▁pinata	-10.6365
▁target	-10.6365
▁trolley	-10.6365
▁Mohawk	-10.6365
▁monkey	-10.6365
▁demonstration	-10.6365
▁joy	-10.6365
▁stretches	-10.6366
▁approaches	-10.6366
▁mower	-10.637
▁praying	-10.6373
▁r	-10.6399
▁tackled	-10.6401
▁writes	-10.6403
▁beads	-10.6413
▁swimsuits	-10.6415
▁stepp	-10.6435
sized	-10.6436
▁skiers	-10.6438
▁po	-10.6452
▁couples	-10.646
▁human	-10.6461
▁angel	-10.6463
▁sack	-10.6465
▁gesture	-10.6465
▁Kid	-10.6466
▁camp	-10.6485
▁enter	-10.6488
▁wheeled	-10.6489
▁hid	-10.6534
▁company	-10.6557
▁highchair	-10.6557
▁lime	-10.6557
▁marble	-10.6557
▁wife	-10.6557
▁mohawk	-10.6557
▁plain	-10.6557
▁surgery	-10.6557
▁highway	-10.6559
▁Lot	-10.6563
▁brushes	-10.6565
▁story	-10.6568
▁mountainside	-10.6568
▁mow	-10.6574
▁tour	-10.6625
▁briefcase	-10.6656
▁beat	-10.666
▁pillar	-10.6663
ily	-10.6709
▁heavily	-10.6753
▁shaggy	-10.6753
▁tiger	-10.6753
▁steam	-10.6753
▁location	-10.6753
▁main	-10.6754
▁sledding	-10.6754
▁find	-10.6754
▁demonstrating	-10.6754
▁stilts	-10.6756
▁hills	-10.6758
▁were	-10.6759
▁f	-10.6759
▁cargo	-10.6767
▁interesting	-10.6767
▁fishes	-10.677
▁followed	-10.6772
▁scooters	-10.6797
▁gazes	-10.6805
▁loaded	-10.6809
▁pretending	-10.6812
▁jogs	-10.6814
▁aprons	-10.684
▁toddlers	-10.6847
▁pumpkin	-10.6858
▁portrait	-10.686
▁pedestrian	-10.6862
led	-10.6871
▁lifted	-10.6872
▁jumper	-10.6903
▁will	-10.6916
▁war	-10.6922
ular	-10.6949
▁burgundy	-10.6953
▁cycling	-10.6953
▁beret	-10.6953
▁butcher	-10.6953
▁sad	-10.6953
▁breakdancing	-10.6953
▁workshop	-10.6953
▁homemade	-10.6954
▁Band	-10.6954
▁snowsuit	-10.6954
▁carve	-10.6958
▁shiny	-10.6966
▁support	-10.6967
▁axe	-10.6978
▁sleep	-10.6986
▁newspapers	-10.6992
▁bra	-10.7047
▁de	-10.7062
▁goat	-10.7063
▁farmer	-10.7072
▁teens	-10.7083
▁grind	-10.709
▁bush	-10.709
T	-10.7093
▁cans	-10.7096
ning	-10.7097
country	-10.7109
wood	-10.711
▁featur	-10.711
▁cameras	-10.7122
▁cape	-10.7135
▁displayed	-10.7147
▁figures	-10.7147
▁autumn	-10.7157
▁banjo	-10.7157
▁cheese	-10.7157
▁smooth	-10.7157
▁cotton	-10.7157
▁Musician	-10.7157
▁jeep	-10.7157
▁raincoat	-10.7157
▁policemen	-10.716
▁label	-10.716
▁snowball	-10.7165
▁posters	-10.7167
▁dragg	-10.7173
▁sidelines	-10.7181
ping	-10.7187
▁tired	-10.719
▁punching	-10.7215
▁colorfully	-10.7231
ng	-10.7235
▁boards	-10.7239
▁rifle	-10.727
▁Dogs	-10.7276
ack	-10.7284
and	-10.7318
ish	-10.7323
▁disc	-10.7323
▁vend	-10.7365
▁breath	-10.7365
▁extreme	-10.7365
▁laboratory	-10.7365
▁miniature	-10.7365
▁Army	-10.7365
▁aerial	-10.7366
▁dad	-10.7372
ol	-10.7374
▁Orient	-10.7376
▁got	-10.7381
▁battle	-10.7386
▁studying	-10.7388
▁burning	-10.739
▁containers	-10.7399
ation	-10.7409
▁egg	-10.7426
E	-10.7449
▁wrestlers	-10.7468
▁places	-10.7484
▁monitor	-10.7486
▁nun	-10.7495
▁clearing	-10.7508
▁vacuum	-10.7509
dressed	-10.7521
▁separate	-10.7536
est	-10.7546
ent	-10.7548
▁planting	-10.7558
▁blood	-10.7567
▁headdress	-10.7577
▁Blue	-10.7578
▁Firefighter	-10.7578
▁laundromat	-10.7578
▁graduation	-10.7578
▁leggings	-10.7578
▁science	-10.7578
▁scoop	-10.7578
▁tournament	-10.7578
▁shepherd	-10.7579
▁underground	-10.758
fashioned	-10.7582
▁businessman	-10.7583
▁gaz	-10.7584
▁retriever	-10.7586
▁handling	-10.7591
▁stretched	-10.7594
▁rings	-10.7595
▁splashed	-10.7612
▁lips	-10.7627
▁columns	-10.7645
rimmed	-10.7646
▁images	-10.7649
▁entering	-10.7655
ry	-10.7665
▁fashion	-10.7677
▁tackl	-10.7677
▁pots	-10.768
▁treat	-10.7701
▁brother	-10.7702
▁chefs	-10.7703
▁ducks	-10.7723
▁snacks	-10.7733
us	-10.7753
ital	-10.7765
▁cop	-10.7769
▁involv	-10.7786
▁rust	-10.7795
▁Hawaii	-10.7795
▁gesturing	-10.7795
▁toothbrush	-10.7795
▁warehouse	-10.7795
▁socializing	-10.7795
▁Hockey	-10.7796
▁dumpster	-10.7796
▁Asia	-10.7796
▁driveway	-10.7796
▁trim	-10.7797
▁tablecloth	-10.7797
▁beverages	-10.7797
▁include	-10.7801
▁rush	-10.7813
▁merr	-10.7817
▁sleeves	-10.7828
is	-10.7828
land	-10.783
▁follow	-10.7835
▁too	-10.7847
ite	-10.7902
▁attractive	-10.7904
▁nets	-10.7913
▁mannequin	-10.7923
▁pirate	-10.7924
▁tuxedo	-10.7925
▁product	-10.7926
▁speaker	-10.7929
▁create	-10.7987
▁designs	-10.7995
▁menu	-10.8008
▁drop	-10.8017
▁flannel	-10.8018
▁kiosk	-10.8018
▁reception	-10.8018
▁somewhere	-10.8018
▁supermarket	-10.8018
▁department	-10.8018
▁conductor	-10.8018
▁instructor	-10.8018
▁projector	-10.802
▁daytime	-10.802
▁belongings	-10.8023
M	-10.8032
▁Runners	-10.8035
▁suburb	-10.8039
▁squats	-10.804
▁framed	-10.8041
ated	-10.8045
▁washe	-10.8046
▁artists	-10.8046
▁crayons	-10.8048
▁skills	-10.8058
▁Multip	-10.8075
▁sailing	-10.8075
▁operates	-10.8077
▁handle	-10.8109
▁cloud	-10.8142
▁employee	-10.8153
▁divers	-10.8169
by	-10.8174
▁pretend	-10.8177
▁us	-10.8216
▁aged	-10.8226
▁picks	-10.8232
▁unusual	-10.8241
▁reflect	-10.8244
▁faci	-10.8245
▁Shepherd	-10.8245
▁Spectator	-10.8245
▁auditorium	-10.8245
▁terminal	-10.8245
▁caucasian	-10.8245
▁festive	-10.8245
▁scaling	-10.8245
▁cherry	-10.8245
▁sideways	-10.8245
▁pilot	-10.8245
▁skyline	-10.8247
▁clock	-10.8249
▁lock	-10.8251
▁level	-10.8252
▁Fire	-10.8273
▁decorations	-10.8278
O	-10.829
▁canal	-10.8292
▁topless	-10.83
▁lasso	-10.8307
▁spot	-10.8332
▁fit	-10.8362
▁drag	-10.8366
▁spotlight	-10.838
▁repairs	-10.8381
▁shape	-10.8383
▁nurse	-10.8385
▁mouths	-10.8391
▁crack	-10.8439
▁types	-10.8464
ce	-10.8469
▁School	-10.8478
▁activity	-10.8478
▁meadow	-10.8478
▁thick	-10.8478
▁staff	-10.8478
▁British	-10.8478
▁blurry	-10.8478
▁eyeglasses	-10.8478
▁unload	-10.8478
▁Shirtless	-10.8478
▁lion	-10.8478
▁return	-10.8482
▁bound	-10.8483
▁marked	-10.8488
▁fireworks	-10.8489
▁waterway	-10.8494
▁letters	-10.8512
▁travel	-10.855
▁shad	-10.8568
▁bottoms	-10.8575
▁cows	-10.8579
▁logs	-10.8584
▁statues	-10.8591
▁guards	-10.8599
B	-10.8609
▁mug	-10.862
▁curtain	-10.8622
▁shield	-10.8622
▁upward	-10.8624
▁candle	-10.8624
et	-10.8627
▁extend	-10.8694
▁Mexic	-10.8715
▁babies	-10.8716
▁champagne	-10.8716
▁foliage	-10.8716
▁harbor	-10.8716
▁hydrant	-10.8716
▁olive	-10.8716
▁campfire	-10.8716
▁passersby	-10.8716
▁blurred	-10.8716
▁tarp	-10.8716
▁browsing	-10.8716
▁lining	-10.8716
▁else	-10.8716
▁Mother	-10.8716
▁ATM	-10.8716
▁whistle	-10.8716
▁wade	-10.8716
▁bedroom	-10.8716
▁blazer	-10.8717
▁Skateboarder	-10.8718
▁scissors	-10.8719
id	-10.8719
▁bundled	-10.8723
▁shoppers	-10.8728
▁skies	-10.8728
▁boarding	-10.8734
Eastern	-10.8739
▁bring	-10.8744
▁ma	-10.8748
▁crashing	-10.8751
▁purchase	-10.8771
▁v	-10.8793
▁bikinis	-10.8806
▁hotdogs	-10.8833
▁ridd	-10.8859
▁age	-10.8861
▁direct	-10.8871
▁punch	-10.8889
▁interact	-10.8891
D	-10.8923
▁magazines	-10.8928
▁polish	-10.893
▁tags	-10.8935
▁photographers	-10.8948
▁fry	-10.8956
▁horizon	-10.8959
▁Canadian	-10.896
▁Hispanic	-10.896
▁aquarium	-10.896
▁pencil	-10.896
▁razor	-10.896
▁scarves	-10.896
▁skull	-10.896
▁victory	-10.896
▁zone	-10.896
▁avoid	-10.896
▁rickshaw	-10.896
▁sharp	-10.896
▁shelf	-10.896
▁burie	-10.896
▁series	-10.896
▁aqua	-10.896
▁transit	-10.896
▁South	-10.8961
▁surprised	-10.8962
▁ingredients	-10.8963
▁yelling	-10.8969
▁upper	-10.897
▁bystanders	-10.8972
ther	-10.8986
▁j	-10.8992
▁focused	-10.9001
▁protesters	-10.9004
▁cleaner	-10.9006
▁characters	-10.902
W	-10.9026
▁bananas	-10.9034
▁relaxe	-10.9081
▁boxers	-10.9089
▁bagg	-10.9114
▁love	-10.9127
R	-10.9127
▁booths	-10.9154
▁arch	-10.9161
green	-10.9162
▁launch	-10.9181
board	-10.9196
▁than	-10.9208
▁cellphones	-10.9209
▁assort	-10.921
▁chopsticks	-10.921
▁temple	-10.921
▁Smiling	-10.921
▁bronco	-10.921
▁emergency	-10.921
eval	-10.921
▁fellow	-10.921
▁sailor	-10.9211
▁want	-10.9213
▁advertisements	-10.9221
no	-10.9221
line	-10.9225
▁extended	-10.9232
▁spike	-10.9238
▁earrings	-10.9248
▁Se	-10.9285
▁receiv	-10.9299
▁care	-10.9303
ro	-10.9309
▁receive	-10.9337
▁checked	-10.934
▁blocking	-10.9358
▁sh	-10.9361
▁muzzle	-10.9365
▁celebrate	-10.9368
▁handbag	-10.937
▁pig	-10.9371
▁ticket	-10.9373
▁crate	-10.9375
▁beers	-10.9391
▁protect	-10.9394
▁stars	-10.94
▁cowboys	-10.9408
ha	-10.9424
▁amid	-10.9445
▁wrap	-10.9455
▁coast	-10.9462
▁China	-10.9466
▁Close	-10.9466
▁Square	-10.9466
▁casino	-10.9466
▁christmas	-10.9466
▁dinosaur	-10.9466
▁natural	-10.9466
▁scientist	-10.9466
▁senior	-10.9466
▁morning	-10.9466
▁community	-10.9466
▁Native	-10.9466
▁buffet	-10.9466
▁snake	-10.9466
▁earphones	-10.9466
▁soft	-10.9466
▁stirring	-10.9466
cular	-10.9467
▁plow	-10.9467
▁paperwork	-10.9468
▁Green	-10.9468
▁antique	-10.9469
▁stir	-10.947
▁capture	-10.9474
▁tv	-10.9477
▁numbered	-10.9479
▁mic	-10.9481
▁filming	-10.9512
▁used	-10.9518
▁roses	-10.9527
▁search	-10.9537
▁sprayed	-10.9547
▁prepared	-10.9572
▁farmers	-10.9585
▁passed	-10.9602
▁experiment	-10.9632
▁poodle	-10.9636
▁marker	-10.9636
▁McDonald	-10.9636
▁dump	-10.9637
▁peak	-10.9637
▁thumb	-10.9638
▁skin	-10.9651
ra	-10.9674
ally	-10.9691
▁motorcyclists	-10.9702
wn	-10.9703
▁clowns	-10.9722
▁join	-10.9726
▁Cowboy	-10.9729
▁bmx	-10.9729
▁commerc	-10.9729
▁harmonica	-10.9729
▁tribal	-10.9729
▁personnel	-10.9729
▁establishment	-10.9729
▁quarterback	-10.9729
▁lush	-10.9729
▁flock	-10.9729
▁bartender	-10.9729
▁transport	-10.9729
▁European	-10.973
▁afternoon	-10.9731
▁sponsor	-10.9731
▁deer	-10.9734
▁jumpsuits	-10.9741
▁accompanie	-10.9742
▁injured	-10.9749
▁foam	-10.975
▁asking	-10.9755
laid	-10.9757
▁dryer	-10.9763
▁floats	-10.9768
▁pointed	-10.9779
▁We	-10.9803
▁sail	-10.9804
ery	-10.982
L	-10.9834
▁employees	-10.9837
▁wheeler	-10.9843
iming	-10.9848
▁pictured	-10.9894
▁maneuver	-10.9906
▁garment	-10.9906
▁tutu	-10.9906
▁awning	-10.9908
▁begin	-10.9909
▁pad	-10.9915
▁descend	-10.993
white	-10.9952
▁Ma	-10.9955
▁lighted	-10.9971
▁interview	-10.9977
▁tell	-10.9983
▁India	-10.9997
▁connect	-10.9999
▁Toddler	-10.9999
▁holiday	-10.9999
▁puppet	-10.9999
▁racquet	-10.9999
▁surg	-10.9999
▁Basketball	-10.9999
▁Dark	-11
▁raking	-11
▁portable	-11
▁icy	-11
▁sat	-11
▁ten	-11.0001
▁eight	-11.0001
▁bay	-11.0004
▁directly	-11.0004
▁tow	-11.0004
▁historic	-11.0007
▁freshly	-11.0009
▁twirling	-11.001
▁tuba	-11.0011
▁mountaintop	-11.0015
▁mess	-11.0024
▁n	-11.0034
▁attack	-11.0037
▁crops	-11.0039
SA	-11.0052
ri	-11.006
▁sheets	-11.0064
ew	-11.0094
tuck	-11.0113
ct	-11.013
▁news	-11.0135
▁pop	-11.0144
▁strik	-11.0171
ver	-11.0181
▁boulder	-11.0183
▁pocket	-11.0185
ia	-11.0186
▁cheerleader	-11.0186
▁organ	-11.0197
▁approach	-11.0207
shaped	-11.0229
▁zip	-11.0232
▁desks	-11.0238
▁rafting	-11.0242
▁trucks	-11.0251
▁competitive	-11.0273
▁intense	-11.0273
▁apart	-11.0277
▁sound	-11.0277
▁Soldier	-11.0277
▁perhaps	-11.0277
▁system	-11.0277
▁elevator	-11.0277
▁maintenance	-11.0277
▁numer	-11.0277
▁Protesters	-11.0277
▁much	-11.0277
▁rowboat	-11.0277
▁beginning	-11.0277
▁stance	-11.0277
▁protection	-11.0278
▁backseat	-11.0278
▁riot	-11.0281
▁adorn	-11.0281
▁screaming	-11.0282
▁contents	-11.0289
▁demonstrate	-11.0292
▁waterskiing	-11.0293
▁flowing	-11.0304
sses	-11.0313
▁mus	-11.0316
▁package	-11.0317
F	-11.0317
▁scouts	-11.0341
▁pipes	-11.035
▁rescue	-11.0351
▁con	-11.0371
▁clothed	-11.0392
air	-11.0393
▁text	-11.04
▁hear	-11.0405
▁apples	-11.0444
▁acting	-11.0444
▁complet	-11.0465
▁stretch	-11.0467
▁barricade	-11.0468
▁plank	-11.047
▁entertains	-11.0474
▁medi	-11.0475
▁panel	-11.0482
▁youths	-11.0484
▁arrang	-11.0485
▁even	-11.0492
▁shoots	-11.0516
▁press	-11.0529
▁bounce	-11.054
▁bicycling	-11.0563
▁depict	-11.0563
▁knock	-11.0563
▁progress	-11.0563
▁treadmill	-11.0563
▁unhappy	-11.0563
▁unknown	-11.0563
▁wilderness	-11.0563
▁clarinet	-11.0563
▁fedora	-11.0563
▁flood	-11.0563
▁grasp	-11.0563
▁pony	-11.0563
▁Number	-11.0563
▁reddish	-11.0563
▁archway	-11.0563
▁fat	-11.0563
▁cave	-11.0563
▁dragon	-11.0564
▁last	-11.0564
▁goatee	-11.0567
▁speeds	-11.0568
▁workout	-11.0571
▁juggles	-11.0572
▁fell	-11.0577
▁warmly	-11.0579
ma	-11.0605
▁Adults	-11.061
▁exiting	-11.0612
▁stacked	-11.0623
▁yo	-11.0624
▁seagulls	-11.0626
um	-11.0627
ary	-11.0632
▁waiter	-11.0648
▁kayaks	-11.0662
▁engage	-11.0663
▁photographing	-11.067
▁climbers	-11.0681
▁barefooted	-11.0682
▁upwards	-11.0682
▁pillars	-11.0699
▁co	-11.0701
▁stunts	-11.0708
▁hook	-11.071
ne	-11.0713
▁feathers	-11.0723
li	-11.0741
▁khakis	-11.0749
▁cigarettes	-11.0752
▁official	-11.0762
▁split	-11.0764
▁column	-11.0765
▁purses	-11.0773
▁golfer	-11.0782
▁jog	-11.0782
▁skaters	-11.0791
▁pillows	-11.08
▁special	-11.0809
▁unique	-11.0853
▁elder	-11.0853
▁America	-11.0855
▁flaming	-11.0857
▁metro	-11.0857
▁accident	-11.0857
▁asphalt	-11.0857
▁cafeteria	-11.0857
▁clutter	-11.0857
▁shelter	-11.0857
▁vintage	-11.0857
▁wield	-11.0857
▁vegetation	-11.0857
▁Time	-11.0857
▁least	-11.0857
▁convention	-11.0857
▁social	-11.0857
▁Bald	-11.0857
▁waitress	-11.0857
▁hunche	-11.0857
▁sparring	-11.0857
▁Muslim	-11.0857
enga	-11.0857
▁cries	-11.0857
▁picket	-11.0858
▁lens	-11.0859
▁Look	-11.0859
▁propped	-11.0859
▁necklaces	-11.0863
▁sparks	-11.0864
▁conducting	-11.0871
▁bowler	-11.0887
▁chips	-11.0906
▁hurdles	-11.0908
▁snowman	-11.0917
▁whole	-11.0924
▁clutch	-11.0929
▁signing	-11.0965
▁say	-11.1
ped	-11.1005
hose	-11.1012
tion	-11.1019
as	-11.1044
▁task	-11.1066
▁bracelet	-11.1067
▁fist	-11.1067
▁watermelon	-11.1068
▁banana	-11.1068
il	-11.1082
ant	-11.1087
ain	-11.1088
waiting	-11.1114
▁don	-11.1116
▁toast	-11.113
▁classic	-11.1136
▁sip	-11.1137
▁cruise	-11.1159
▁automobile	-11.116
▁caution	-11.116
▁hammock	-11.116
▁pacifier	-11.116
▁pyramid	-11.116
▁substance	-11.116
▁uphill	-11.116
▁Miami	-11.116
▁nightclub	-11.116
▁badminton	-11.116
▁saddle	-11.116
▁spring	-11.116
▁canopy	-11.116
▁cattle	-11.116
▁sundress	-11.116
▁bookstore	-11.116
▁fog	-11.1161
▁exercising	-11.1161
▁illuminated	-11.1164
▁completely	-11.1168
▁mixer	-11.1172
▁early	-11.1177
▁checkers	-11.1179
▁ra	-11.1183
▁greenery	-11.1188
▁Co	-11.119
▁piles	-11.1191
▁sipp	-11.1191
▁file	-11.121
▁paws	-11.1218
▁tips	-11.1219
pard	-11.1226
tish	-11.1232
▁texting	-11.1234
▁hips	-11.1249
erous	-11.1262
▁belts	-11.1269
im	-11.1275
▁guide	-11.1314
▁nails	-11.1322
ball	-11.134
▁jockeys	-11.1377
▁fold	-11.1378
▁ribbons	-11.1397
▁hip	-11.1417
cause	-11.1424
▁Claus	-11.1439
▁mur	-11.1467
▁quiet	-11.1469
▁wip	-11.147
▁potato	-11.1471
pplies	-11.1472
▁Customer	-11.1473
▁Spanish	-11.1473
▁congregate	-11.1473
▁dolphin	-11.1473
▁elbow	-11.1473
▁excitement	-11.1473
▁facility	-11.1473
▁fireplace	-11.1473
▁harp	-11.1473
▁mascot	-11.1473
▁powder	-11.1473
▁trophy	-11.1473
▁visor	-11.1473
▁cheerleading	-11.1473
▁buggy	-11.1473
▁deli	-11.1473
▁bunny	-11.1473
▁Nike	-11.1473
▁adolescent	-11.1473
ohn	-11.1473
▁collection	-11.1473
▁Snowboarder	-11.1474
▁dribbles	-11.1474
▁soar	-11.1474
▁litter	-11.1475
▁countryside	-11.1476
▁bakery	-11.1479
▁braided	-11.1479
▁waterfront	-11.1481
▁ruins	-11.1485
▁fatigues	-11.1486
▁carrier	-11.1486
▁mounted	-11.149
▁paintings	-11.1492
▁newly	-11.1493
▁served	-11.1498
▁roadside	-11.1501
▁involved	-11.1506
▁beams	-11.1514
▁She	-11.1515
▁steering	-11.1525
ap	-11.1548
▁organiz	-11.1551
wish	-11.156
▁sweaters	-11.1563
coming	-11.1566
▁vacuuming	-11.1575
▁stopp	-11.159
▁attend	-11.1594
▁travels	-11.1596
▁parka	-11.1599
▁monitors	-11.161
▁bo	-11.1612
▁strollers	-11.1629
▁strap	-11.1639
▁Asians	-11.1649
ve	-11.168
▁cigar	-11.1699
▁doctors	-11.1703
▁stores	-11.1703
▁stair	-11.1705
▁Multi	-11.1712
ness	-11.1734
jump	-11.1747
▁viewer	-11.175
▁swords	-11.1756
▁change	-11.1786
▁ties	-11.1788
▁Bull	-11.1795
▁Walmart	-11.1795
▁canyon	-11.1795
▁lobby	-11.1795
▁megaphone	-11.1795
▁recent	-11.1795
▁register	-11.1795
▁riverbank	-11.1795
▁weird	-11.1795
▁Sooner	-11.1795
▁circuit	-11.1795
▁terrier	-11.1795
▁mime	-11.1795
▁accept	-11.1795
▁wool	-11.1795
▁radio	-11.1795
▁cash	-11.1795
▁Num	-11.1796
▁inflated	-11.1796
▁sight	-11.1797
▁soup	-11.1799
▁Friends	-11.18
▁roadway	-11.1802
▁headset	-11.1803
mp	-11.1805
pong	-11.1805
▁slam	-11.1807
▁mist	-11.1817
do	-11.1826
▁harvesting	-11.1835
▁nearly	-11.1841
▁leader	-11.1842
▁guid	-11.1863
▁mixed	-11.1877
▁flames	-11.1882
▁incline	-11.1883
▁directing	-11.1888
▁trains	-11.1913
ki	-11.1917
▁spots	-11.1926
▁finished	-11.1927
▁admire	-11.1927
▁tri	-11.1937
▁my	-11.1953
otted	-11.1954
▁gardening	-11.1997
▁ordering	-11.1997
▁scratch	-11.2004
▁horns	-11.2005
op	-11.2011
▁bundle	-11.2029
▁companion	-11.2031
▁toilet	-11.2033
▁diner	-11.2034
H	-11.2035
▁monk	-11.2036
▁baton	-11.2037
filled	-11.2041
▁retrieve	-11.2045
▁en	-11.2059
▁lands	-11.2063
legged	-11.208
▁m	-11.2096
ke	-11.2098
▁turtle	-11.2128
▁Coca	-11.2128
▁Scot	-11.2128
▁Surfer	-11.2128
▁activities	-11.2128
▁boogie	-11.2128
▁bungee	-11.2128
▁carousel	-11.2128
▁easel	-11.2128
▁enclosed	-11.2128
▁kickboxing	-11.2128
▁lipstick	-11.2128
▁salon	-11.2128
▁veil	-11.2128
▁vibrant	-11.2128
▁major	-11.2128
▁foggy	-11.2128
▁flour	-11.2129
▁peach	-11.2129
▁jack	-11.2129
▁vary	-11.2129
▁bored	-11.2129
▁soil	-11.2129
▁tracksuit	-11.2129
▁attendant	-11.2129
▁xylophone	-11.213
▁tomatoes	-11.213
▁dried	-11.2133
▁clothesline	-11.2133
▁Rock	-11.2133
▁upset	-11.2141
▁wander	-11.2142
▁sunhat	-11.2143
▁may	-11.2144
ating	-11.215
▁Player	-11.2152
▁length	-11.2152
▁shines	-11.2156
son	-11.216
▁sculpting	-11.2163
▁bridesmaids	-11.2165
▁motorbikes	-11.2167
▁years	-11.2177
▁award	-11.2189
▁navigate	-11.2193
mo	-11.221
▁sprays	-11.2233
▁tiles	-11.2244
▁decide	-11.2276
▁thre	-11.2285
finished	-11.2336
▁ping	-11.2338
ence	-11.2348
ging	-11.2361
at	-11.2363
▁operate	-11.2373
▁arrow	-11.2378
▁whe	-11.2398
ty	-11.241
▁flame	-11.241
▁surfers	-11.2414
▁painter	-11.2416
▁stacks	-11.2427
▁pro	-11.2452
oven	-11.2465
▁serious	-11.2469
▁grand	-11.2471
▁border	-11.2473
▁breakfast	-11.2473
▁period	-11.2473
▁quad	-11.2473
▁robot	-11.2473
▁yawning	-11.2473
▁smell	-11.2473
▁oil	-11.2473
▁marsh	-11.2473
▁folk	-11.2474
▁synchroniz	-11.2474
▁shelves	-11.2474
▁napping	-11.2474
▁mule	-11.2474
▁cabinet	-11.2474
▁torn	-11.2474
▁worn	-11.2474
▁cityscape	-11.2476
▁baked	-11.2477
▁dozen	-11.2479
▁redhead	-11.2481
▁weight	-11.2496
▁ex	-11.2503
▁braids	-11.2505
▁explaining	-11.2509
▁tap	-11.2512
co	-11.253
▁lanterns	-11.2541
▁Nin	-11.255
▁shaves	-11.2551
▁buck	-11.2569
▁foods	-11.2577
▁wi	-11.2609
▁nurses	-11.2612
▁sacks	-11.2642
▁fle	-11.2648
▁rails	-11.265
▁blocked	-11.2652
▁rag	-11.2653
capped	-11.2655
▁stay	-11.2663
▁signal	-11.2676
cart	-11.2688
▁sprinklers	-11.2692
▁materials	-11.2695
sure	-11.2714
▁cheeks	-11.2715
N	-11.2725
▁gaze	-11.2726
▁opened	-11.2729
ta	-11.273
▁turkey	-11.2733
▁sister	-11.2737
▁kimono	-11.2737
▁cookie	-11.2739
▁cable	-11.274
▁canoes	-11.2747
▁bead	-11.275
▁complex	-11.2754
▁vault	-11.276
tan	-11.2773
▁discuss	-11.2774
turned	-11.2779
▁strolls	-11.2782
clad	-11.2782
▁hammering	-11.2799
▁wh	-11.2825
▁comfort	-11.2827
▁ref	-11.2828
▁install	-11.283
niversity	-11.283
▁Beautiful	-11.283
▁ambulance	-11.283
▁barren	-11.283
▁gliding	-11.283
▁piggyback	-11.283
▁preparation	-11.283
▁skydiving	-11.283
▁slicing	-11.283
▁sunbathing	-11.283
▁Dirt	-11.283
▁mouse	-11.283
▁seesaw	-11.283
▁trimming	-11.283
▁maybe	-11.283
▁review	-11.2831
▁select	-11.2831
▁pressure	-11.2831
▁Food	-11.2831
▁utilit	-11.2831
▁Park	-11.2831
▁hoist	-11.2831
▁message	-11.2831
▁parallel	-11.2831
▁prayer	-11.2833
▁Elmo	-11.2833
typing	-11.2833
▁pickup	-11.2833
▁goof	-11.2834
▁Swimmer	-11.2837
▁leashes	-11.2846
os	-11.2848
▁height	-11.285
▁filmed	-11.2851
▁dribbl	-11.2852
▁nicely	-11.2853
▁opponents	-11.2855
▁angle	-11.2857
▁solder	-11.286
▁picker	-11.2864
▁parasailing	-11.287
▁blower	-11.2873
▁War	-11.2884
▁Cyclists	-11.2893
les	-11.2899
▁retriev	-11.2907
yo	-11.2909
▁spins	-11.291
▁monks	-11.293
▁watermelons	-11.2941
▁purchas	-11.297
ug	-11.2989
▁handles	-11.2989
qu	-11.2997
ding	-11.3036
▁explor	-11.3038
▁remov	-11.3067
▁suck	-11.3076
K	-11.3088
ance	-11.3103
▁possession	-11.3105
▁clap	-11.3106
▁character	-11.3109
▁bows	-11.3111
▁bagpipe	-11.3112
▁cooler	-11.3116
▁swan	-11.3116
ity	-11.3133
▁fork	-11.314
ably	-11.314
▁microscopes	-11.3148
▁thought	-11.3155
wheeled	-11.3165
▁sold	-11.317
▁offering	-11.3171
▁let	-11.3185
▁vertical	-11.3197
▁cobble	-11.3201
▁Brunette	-11.3201
▁ancient	-11.3201
▁barbecuing	-11.3201
▁coveralls	-11.3201
▁handheld	-11.3201
▁overpass	-11.3201
▁political	-11.3201
▁resident	-11.3201
▁seafood	-11.3201
▁league	-11.3201
▁Father	-11.3201
▁elevated	-11.3201
▁scattered	-11.3201
▁such	-11.3201
▁wrapping	-11.3201
▁dropping	-11.3201
▁sex	-11.3201
▁Ice	-11.3202
▁rollerblader	-11.3202
▁cartoon	-11.3203
▁comb	-11.3208
▁drift	-11.3209
▁Dancers	-11.321
▁similarly	-11.3211
▁patiently	-11.3213
▁muzzled	-11.3213
▁handlebars	-11.322
▁acrobatic	-11.3226
▁barking	-11.3233
▁Ro	-11.3247
ton	-11.3258
lo	-11.3259
ill	-11.3277
▁You	-11.3279
▁descending	-11.3297
ung	-11.331
da	-11.3312
▁banners	-11.3322
ilitary	-11.3327
▁posed	-11.3382
▁film	-11.3401
rd	-11.3408
▁wakeboard	-11.3409
▁mitt	-11.3421
▁dolls	-11.3458
am	-11.3461
▁mats	-11.3468
▁brid	-11.3481
▁partner	-11.3488
ba	-11.349
▁rose	-11.3494
▁da	-11.3496
▁cell	-11.3498
way	-11.3501
▁parent	-11.3506
▁kayaker	-11.3512
piece	-11.3528
what	-11.3539
▁squa	-11.3549
▁struggl	-11.355
▁grills	-11.3567
▁bump	-11.3573
lin	-11.358
azz	-11.3584
▁High	-11.3585
▁Orange	-11.3585
▁Picture	-11.3585
▁campsite	-11.3585
▁crib	-11.3585
▁destination	-11.3585
▁dishwasher	-11.3585
▁families	-11.3585
▁favor	-11.3585
▁floppy	-11.3585
▁javelin	-11.3585
▁measuring	-11.3585
▁priest	-11.3585
▁quilt	-11.3585
▁relay	-11.3585
▁salad	-11.3585
▁survey	-11.3585
▁sweatpants	-11.3585
▁puff	-11.3585
▁crazy	-11.3585
▁schoolgirl	-11.3585
▁self	-11.3585
▁spend	-11.3585
▁scrap	-11.3586
▁campus	-11.3586
▁distant	-11.3586
▁headgear	-11.3586
▁abandoned	-11.3588
▁fuzz	-11.3588
▁earth	-11.3588
▁prob	-11.3588
▁checkout	-11.3591
▁overcoat	-11.3592
▁harnesses	-11.3597
▁cling	-11.3603
▁forms	-11.3606
▁chased	-11.3608
ave	-11.3609
▁i	-11.3612
▁thinking	-11.3622
▁ho	-11.3634
ut	-11.364
▁buses	-11.3641
▁citizens	-11.3646
▁packages	-11.3714
▁walker	-11.3725
▁celebrates	-11.3727
▁note	-11.3744
▁Mi	-11.3749
▁helmeted	-11.3775
▁angry	-11.3775
▁gifts	-11.3789
▁sheer	-11.3793
▁parts	-11.3812
▁suite	-11.3817
▁pedal	-11.3822
▁dots	-11.3823
▁exit	-11.3823
▁ch	-11.3836
ith	-11.3851
ened	-11.3856
▁walked	-11.386
▁innertube	-11.3888
▁fountains	-11.3888
▁mo	-11.3889
▁bodysuit	-11.3889
▁coconut	-11.3892
▁scout	-11.3894
▁lip	-11.3894
▁pigeon	-11.3894
▁Worker	-11.3897
ier	-11.3904
▁pie	-11.3907
▁wonder	-11.3912
▁Race	-11.3946
▁hung	-11.3946
▁mount	-11.3963
▁th	-11.3966
▁port	-11.3981
▁wicke	-11.3983
▁sketch	-11.3983
▁mailbox	-11.3983
▁ceremoni	-11.3985
▁collie	-11.3985
▁cubicle	-11.3985
▁curious	-11.3985
▁drain	-11.3985
▁everywhere	-11.3985
▁halter	-11.3985
▁iPod	-11.3985
▁tulips	-11.3985
▁unseen	-11.3985
▁enclosure	-11.3985
▁slot	-11.3985
▁fleece	-11.3985
▁dilapidated	-11.3986
▁padded	-11.3986
▁hover	-11.3986
▁mail	-11.3986
▁technician	-11.3986
▁weave	-11.3986
▁kitten	-11.3986
▁moon	-11.3986
▁cannon	-11.3986
▁backstroke	-11.3986
ring	-11.3986
▁itself	-11.3986
▁railway	-11.3987
▁apparently	-11.3987
▁loose	-11.3989
▁basement	-11.3989
▁herd	-11.3989
▁cultural	-11.3992
▁somebody	-11.3997
▁excitedly	-11.3999
▁grip	-11.3999
▁happening	-11.4012
▁drying	-11.4013
▁dyed	-11.4015
▁markings	-11.4018
▁guests	-11.4022
▁pr	-11.4048
▁tugg	-11.4051
▁barn	-11.4052
▁popp	-11.4066
▁stockings	-11.4075
▁pedals	-11.4079
▁whiteboard	-11.4082
▁cookies	-11.4092
▁stre	-11.4093
▁led	-11.4102
▁remove	-11.4103
▁shave	-11.4123
▁heat	-11.4123
rel	-11.4129
▁helped	-11.4139
▁concentrat	-11.4143
▁offer	-11.421
pped	-11.4219
▁assist	-11.4236
▁steer	-11.4238
▁trainer	-11.4255
▁strings	-11.4263
▁spin	-11.4275
▁ta	-11.4285
▁fully	-11.4286
▁Car	-11.43
▁ornament	-11.4305
▁pitching	-11.4306
▁await	-11.4307
▁seagull	-11.431
▁curv	-11.4327
▁learn	-11.4334
road	-11.4353
▁hi	-11.4356
wheeler	-11.436
▁stocking	-11.437
yro	-11.438
▁ladders	-11.4386
▁Do	-11.4393
▁puzzle	-11.4393
▁emerge	-11.4396
▁address	-11.4402
▁Korea	-11.4402
▁Ladies	-11.4402
▁Marathon	-11.4402
▁Yellow	-11.4402
▁concession	-11.4402
▁confetti	-11.4402
▁district	-11.4402
▁earmuffs	-11.4402
▁french	-11.4402
▁remote	-11.4402
▁storage	-11.4402
▁windbreaker	-11.4402
▁paintbrush	-11.4402
▁talent	-11.4402
▁teddy	-11.4402
▁upright	-11.4402
▁Day	-11.4402
▁Market	-11.4402
▁leo	-11.4402
▁unison	-11.4402
▁equestrian	-11.4402
▁storm	-11.4402
▁attraction	-11.4402
▁English	-11.4402
▁cashier	-11.4402
▁wheat	-11.4402
▁crest	-11.4402
▁shack	-11.4402
▁selection	-11.4402
▁heavyset	-11.4403
oe	-11.4404
▁floaties	-11.4407
▁Long	-11.4409
▁armor	-11.4415
▁Performer	-11.4416
▁release	-11.4417
▁Skier	-11.4418
▁Legos	-11.442
▁unit	-11.4429
▁hooping	-11.4452
▁sausages	-11.4456
▁rabbits	-11.4472
ine	-11.4483
▁h	-11.4501
▁films	-11.4504
ot	-11.4506
▁sweatshirts	-11.4535
▁violins	-11.4537
▁pockets	-11.4543
ci	-11.4559
▁attach	-11.4572
▁tuxedos	-11.458
uck	-11.4581
ental	-11.4588
▁screens	-11.4592
▁collide	-11.4596
▁pre	-11.4614
▁best	-11.4617
▁seeming	-11.4631
▁fir	-11.4635
▁Dr	-11.4639
nd	-11.4643
▁sp	-11.4671
▁singers	-11.4683
▁cheers	-11.4684
▁shed	-11.4687
▁cause	-11.4704
gg	-11.4704
▁prop	-11.471
▁controls	-11.4716
ac	-11.4721
▁Th	-11.4738
▁dessert	-11.4741
▁defender	-11.4745
▁washer	-11.4751
▁cycle	-11.4751
ue	-11.4752
aking	-11.4759
made	-11.4788
ries	-11.4794
▁flash	-11.4797
▁rub	-11.4827
▁captur	-11.4831
▁pain	-11.4834
▁found	-11.4837
▁French	-11.4837
▁Golden	-11.4837
▁architecture	-11.4837
▁cathedral	-11.4837
▁corridor	-11.4837
▁cushion	-11.4837
▁eager	-11.4837
▁exotic	-11.4837
▁hispanic	-11.4837
▁liquor	-11.4837
▁metallic	-11.4837
▁princess	-11.4837
▁ritual	-11.4837
▁snowstorm	-11.4837
▁husband	-11.4837
▁operation	-11.4837
▁spider	-11.4837
▁ankle	-11.4837
▁random	-11.4837
▁taste	-11.4837
▁hopping	-11.4837
▁roping	-11.4837
▁simultaneously	-11.4837
▁pub	-11.4837
▁solo	-11.4837
▁strawberry	-11.4837
▁baking	-11.4837
▁bug	-11.4837
▁winning	-11.4838
▁Cafe	-11.4838
▁cabin	-11.4838
▁ob	-11.4838
▁cob	-11.4839
▁Texas	-11.484
▁woodland	-11.4842
▁mallet	-11.4842
▁curling	-11.4848
▁Teenagers	-11.486
▁seeds	-11.4862
▁arra	-11.4866
▁formally	-11.4867
pe	-11.4872
▁cats	-11.4872
▁weeds	-11.4876
▁stride	-11.4877
▁poke	-11.4884
▁participants	-11.4889
▁pans	-11.489
▁hauling	-11.4894
timate	-11.4895
▁took	-11.4895
▁snowboards	-11.4897
hand	-11.4897
▁grins	-11.491
▁wakeboarding	-11.4917
▁Lo	-11.493
▁aboard	-11.4931
▁Y	-11.4931
▁cooked	-11.494
scent	-11.4941
▁weights	-11.4955
▁carried	-11.4969
earded	-11.4984
tt	-11.4991
▁muzzles	-11.4997
▁sum	-11.5009
▁goats	-11.5039
▁All	-11.5049
▁toes	-11.505
▁se	-11.5056
▁phones	-11.507
▁skateboarders	-11.5074
▁reclin	-11.5082
▁handed	-11.5095
▁concentrate	-11.5118
trio	-11.5127
▁devices	-11.5132
litary	-11.5139
oo	-11.5148
▁gr	-11.5154
med	-11.5174
▁ax	-11.5181
▁barrels	-11.5192
▁downward	-11.5197
▁jar	-11.5199
▁boot	-11.52
▁rake	-11.5212
▁island	-11.5221
▁railings	-11.5229
▁bell	-11.5235
▁siting	-11.5236
teen	-11.5239
drawn	-11.5243
woman	-11.5244
▁Easter	-11.5256
te	-11.5256
ge	-11.5267
▁stain	-11.527
▁thing	-11.528
na	-11.5282
▁Team	-11.5287
▁tomato	-11.5289
▁magnif	-11.529
▁Snow	-11.5291
▁respond	-11.5291
▁Monopoly	-11.5291
▁Onlooker	-11.5291
▁Rollerblades	-11.5291
▁cardigan	-11.5291
▁graphic	-11.5291
▁headscarves	-11.5291
▁lavender	-11.5291
▁memorial	-11.5291
▁professor	-11.5291
▁reveal	-11.5291
▁spatula	-11.5291
▁sunshine	-11.5291
▁marina	-11.5291
▁culture	-11.5291
▁Amish	-11.5291
▁binder	-11.5291
▁dangerous	-11.5291
▁everyone	-11.5292
▁combat	-11.5292
▁gig	-11.5292
ssenger	-11.5292
▁Arabic	-11.5292
▁rubble	-11.5292
▁submerged	-11.5292
▁SpongeBob	-11.5293
▁spandex	-11.5293
▁tongs	-11.5293
▁cartwheel	-11.5294
▁lost	-11.5294
▁potatoes	-11.5294
▁Work	-11.5295
▁businessmen	-11.5296
▁obscured	-11.5298
▁welder	-11.53
▁NY	-11.5301
▁Light	-11.5301
▁zoo	-11.5303
▁pok	-11.5305
▁meter	-11.5307
▁silk	-11.5308
▁exchange	-11.5315
▁given	-11.5319
▁constructing	-11.5329
▁features	-11.533
▁towed	-11.5333
▁bust	-11.534
▁hides	-11.5341
ell	-11.5353
▁legged	-11.5359
▁ha	-11.536
▁assisting	-11.5369
▁teache	-11.5379
ture	-11.5388
ever	-11.5389
▁Cars	-11.5393
▁closes	-11.5395
▁chains	-11.5443
car	-11.5443
▁crash	-11.5445
▁recline	-11.5473
▁seating	-11.5477
ear	-11.5488
▁str	-11.5523
▁sailboats	-11.5526
▁inline	-11.5526
▁floors	-11.5528
▁tip	-11.5537
▁rubb	-11.5552
▁engag	-11.5567
▁rounds	-11.5574
▁Fan	-11.5581
be	-11.5591
▁oncoming	-11.5605
▁kinds	-11.5614
work	-11.5623
▁kites	-11.5638
▁kneel	-11.5649
▁wand	-11.565
▁exercises	-11.565
▁clos	-11.5652
▁chickens	-11.5659
▁write	-11.5666
▁snowmobile	-11.5669
▁smock	-11.5669
▁diaper	-11.567
▁newlywed	-11.5671
▁wrist	-11.5671
▁bowtie	-11.5671
▁elephants	-11.5673
▁question	-11.5673
▁jogger	-11.5673
▁cord	-11.5673
▁limb	-11.5674
▁sari	-11.5675
▁competitor	-11.5675
▁backward	-11.5676
ckey	-11.5677
house	-11.5683
▁stock	-11.5699
▁paw	-11.5711
▁patrol	-11.5719
G	-11.5719
paved	-11.572
some	-11.5729
▁Br	-11.5736
▁awe	-11.5745
▁sash	-11.5766
▁Gentlem	-11.5766
▁Disney	-11.5768
▁Motorcycle	-11.5768
▁apparatus	-11.5768
▁bronze	-11.5768
▁crystal	-11.5768
▁dentist	-11.5768
▁ensemble	-11.5768
▁except	-11.5768
▁merchant	-11.5768
▁procedure	-11.5768
▁resort	-11.5768
▁rooster	-11.5768
▁Every	-11.5768
▁rising	-11.5768
▁janitor	-11.5768
▁agility	-11.5768
▁Mouse	-11.5768
▁answer	-11.5768
▁mingle	-11.5768
▁ditch	-11.5768
▁hairnet	-11.5768
▁steal	-11.5768
▁vacation	-11.5768
▁Gray	-11.5768
▁Apple	-11.5768
▁crutches	-11.5768
▁Wall	-11.5768
▁elementary	-11.5768
▁pulley	-11.5768
▁tightrope	-11.5768
▁Speedo	-11.5768
▁gum	-11.5768
▁vast	-11.5768
▁exhibition	-11.5769
▁tanned	-11.5769
▁wineglasses	-11.5769
▁Singer	-11.577
▁trap	-11.577
▁chil	-11.5772
▁pastries	-11.5773
▁girlfriend	-11.5773
▁retail	-11.5773
▁language	-11.5774
▁escape	-11.5774
▁capri	-11.5776
▁delivery	-11.5777
▁overcast	-11.5778
▁scope	-11.5778
▁peel	-11.5779
▁shit	-11.5782
▁artistic	-11.5784
▁stained	-11.5797
▁Wi	-11.5798
▁moss	-11.5802
▁our	-11.5804
▁noodles	-11.5806
▁sling	-11.5815
▁lettering	-11.5821
▁lade	-11.5828
▁manual	-11.5834
▁surroundings	-11.5845
▁symbols	-11.5848
▁putt	-11.5856
▁non	-11.586
▁competitors	-11.5861
▁positioned	-11.5879
▁exits	-11.5881
day	-11.5884
▁entertainer	-11.5912
▁la	-11.5918
▁wheelchairs	-11.5922
nit	-11.5923
▁tickets	-11.5944
lung	-11.5996
striped	-11.6005
▁buttons	-11.6021
▁ro	-11.6021
ad	-11.6026
▁Mo	-11.6026
ese	-11.6028
ust	-11.6034
▁ran	-11.6034
▁dis	-11.6057
ches	-11.6074
▁dome	-11.6081
▁Be	-11.6102
▁rugs	-11.6126
▁snap	-11.6127
▁donkeys	-11.614
hoppers	-11.6146
▁skill	-11.6149
▁need	-11.615
▁docked	-11.6154
▁caricature	-11.6169
▁slab	-11.6173
▁sleds	-11.6173
▁pancake	-11.6173
▁state	-11.6174
▁jug	-11.6177
▁onlooker	-11.6177
▁bun	-11.6178
▁dim	-11.6181
▁bale	-11.6185
field	-11.6191
▁greet	-11.6198
body	-11.6206
high	-11.6212
potted	-11.6215
▁sculptures	-11.622
▁slip	-11.6225
▁Bicycle	-11.6228
▁releas	-11.625
▁health	-11.6256
▁frolic	-11.6257
▁horizontal	-11.6264
▁weigh	-11.6265
▁peaceful	-11.6265
▁list	-11.6265
▁Europe	-11.6266
▁express	-11.6267
▁Boston	-11.6268
▁Great	-11.6268
▁Horse	-11.6268
▁Pizza	-11.6268
▁Professional	-11.6268
▁Water	-11.6268
▁apparel	-11.6268
▁captain	-11.6268
▁cemetery	-11.6268
▁cinder	-11.6268
▁dangling	-11.6268
▁dominoes	-11.6268
▁scantily	-11.6268
▁article	-11.6268
▁beyond	-11.6268
▁chaps	-11.6268
▁confused	-11.6268
▁drunk	-11.6268
▁contemplating	-11.6268
▁lumber	-11.6268
▁pinned	-11.6268
▁parachuting	-11.6268
▁defensive	-11.6268
▁turtleneck	-11.6268
▁pitbull	-11.6268
▁skipping	-11.6268
▁pride	-11.6268
▁nine	-11.6268
▁disk	-11.6268
▁Rug	-11.6268
▁starring	-11.6268
▁browse	-11.6268
▁tunic	-11.6268
▁juggler	-11.6269
▁knitted	-11.6269
▁swimwear	-11.6269
▁gain	-11.6269
▁skimp	-11.627
▁Obama	-11.6271
▁lid	-11.6272
▁Star	-11.6272
▁l	-11.6272
▁tagged	-11.6276
▁streamers	-11.6277
▁baseman	-11.6278
▁interested	-11.628
▁chang	-11.6281
▁tightly	-11.6283
▁tote	-11.6285
▁assembled	-11.6292
ddresses	-11.6297
▁gloved	-11.6298
▁ador	-11.6303
▁hooked	-11.6306
▁brownish	-11.6317
▁rises	-11.6332
▁tubes	-11.6341
▁Bicyclists	-11.6342
▁judges	-11.635
▁fighters	-11.6356
▁decorate	-11.6358
superman	-11.6369
▁awaits	-11.6381
▁guitarists	-11.6392
dding	-11.6393
▁Bus	-11.641
▁straps	-11.6416
ip	-11.6429
▁du	-11.6449
▁crab	-11.6476
▁tricycles	-11.6532
j	-11.6568
au	-11.6577
lays	-11.6577
ts	-11.658
▁wetsuits	-11.6582
▁Ra	-11.6597
me	-11.6608
▁aid	-11.6617
▁tin	-11.6639
dot	-11.6643
art	-11.6653
▁electronics	-11.668
▁vase	-11.6695
▁Re	-11.6696
▁dandelion	-11.6699
▁weapon	-11.67
▁State	-11.67
▁Cyclist	-11.6702
▁folder	-11.6705
▁gymnastic	-11.6711
▁Po	-11.6713
▁lantern	-11.6714
▁protester	-11.672
▁assembl	-11.6725
▁haul	-11.6725
▁bad	-11.6726
cut	-11.6732
▁trays	-11.6735
back	-11.6742
▁flu	-11.6743
lt	-11.6753
head	-11.6761
▁kiddi	-11.6775
▁battl	-11.6777
▁plush	-11.6784
tation	-11.6788
▁intricate	-11.679
▁should	-11.679
▁mattress	-11.6792
▁Bike	-11.6793
▁Brazil	-11.6794
▁Greyhound	-11.6794
▁Halloween	-11.6794
▁Oklahoma	-11.6794
▁anvil	-11.6794
▁artificial	-11.6794
▁cockpit	-11.6794
▁conveyor	-11.6794
▁fishermen	-11.6794
▁gondola	-11.6794
▁hurry	-11.6794
▁important	-11.6794
▁knives	-11.6794
▁meditating	-11.6794
▁pavilion	-11.6794
▁salmon	-11.6794
▁skeleton	-11.6794
▁backhoe	-11.6794
▁France	-11.6794
▁Member	-11.6794
▁Subway	-11.6794
▁breast	-11.6794
▁stairwell	-11.6794
▁Local	-11.6794
▁patriotic	-11.6794
▁popcorn	-11.6794
▁powerpoint	-11.6794
▁chubby	-11.6794
▁seaweed	-11.6794
▁spill	-11.6794
▁Chef	-11.6794
▁index	-11.6794
▁fluore	-11.6794
▁cluster	-11.6794
▁Out	-11.6794
▁Bride	-11.6794
▁cutoff	-11.6795
▁mesh	-11.6795
▁bookbag	-11.6795
▁Well	-11.6795
▁holes	-11.6796
▁currently	-11.6796
▁rustic	-11.6797
attered	-11.6797
esus	-11.6799
▁cylinder	-11.6799
▁brand	-11.6801
▁better	-11.6802
▁earbuds	-11.6802
▁soaked	-11.6803
▁punk	-11.6803
▁reporter	-11.6805
ure	-11.6808
▁ridge	-11.6808
▁host	-11.681
▁streak	-11.681
▁glider	-11.681
▁donations	-11.6817
stride	-11.6826
▁pant	-11.683
▁partly	-11.683
▁welds	-11.6832
▁goers	-11.6835
▁beans	-11.6837
▁De	-11.6839
▁Big	-11.6846
▁wipe	-11.685
▁force	-11.6858
iling	-11.686
▁delivering	-11.686
▁appearing	-11.6865
▁Bikers	-11.6868
▁samples	-11.6873
▁struggles	-11.6885
▁wallet	-11.6885
▁towels	-11.6886
▁rafts	-11.689
▁saris	-11.6898
▁saxophones	-11.6921
▁kayakers	-11.6931
▁cables	-11.6934
▁Mr	-11.6934
▁tutus	-11.698
▁slopes	-11.6984
▁explore	-11.6991
ement	-11.701
▁shapes	-11.7012
▁amused	-11.7016
▁climbed	-11.7024
Y	-11.7028
▁wigs	-11.7089
▁bowing	-11.7111
▁hop	-11.7124
▁controll	-11.7135
▁footballer	-11.7137
▁cr	-11.7139
▁parachutes	-11.714
lly	-11.7143
▁kilts	-11.7151
▁pairs	-11.7152
▁sweat	-11.7157
▁gowns	-11.7193
five	-11.7208
▁chip	-11.7214
▁dunes	-11.7219
eep	-11.7224
▁suitcases	-11.723
unk	-11.7233
sque	-11.7239
▁decorat	-11.7247
▁grin	-11.7249
▁zombie	-11.7251
▁pail	-11.7251
▁sponge	-11.7254
▁oar	-11.7256
▁symbol	-11.7257
▁rabbit	-11.7257
▁harvest	-11.7257
▁Adult	-11.7257
▁violinist	-11.7258
room	-11.7267
▁deliver	-11.7269
time	-11.7291
od	-11.7298
Cola	-11.73
free	-11.7301
blue	-11.7302
▁struggle	-11.7305
ig	-11.7306
painted	-11.731
deep	-11.731
raw	-11.7311
eyed	-11.7316
off	-11.7317
▁su	-11.7323
▁bats	-11.7333
▁advertise	-11.734
▁baker	-11.7341
rumming	-11.7344
▁wineglass	-11.7348
▁College	-11.7349
▁Tennis	-11.7349
▁Yankee	-11.7349
▁brochure	-11.7349
▁geese	-11.7349
▁headfirst	-11.7349
▁interior	-11.7349
▁kettle	-11.7349
▁lizard	-11.7349
▁mascara	-11.7349
▁minivan	-11.7349
▁monster	-11.7349
▁rehearsing	-11.7349
▁seashore	-11.7349
▁snowbank	-11.7349
▁zebra	-11.7349
▁loud	-11.7349
▁scruffy	-11.7349
▁Walk	-11.7349
▁tether	-11.7349
▁platter	-11.735
▁ginger	-11.735
▁joke	-11.735
▁ripped	-11.735
▁vocalist	-11.735
▁junk	-11.735
▁studies	-11.735
▁strong	-11.735
agle	-11.735
▁skillet	-11.735
▁handkerchief	-11.735
▁brooms	-11.735
▁Washington	-11.7351
▁contact	-11.7351
▁ferry	-11.7351
▁thread	-11.7351
▁slowly	-11.7352
▁damaged	-11.7352
▁overhang	-11.7353
▁scary	-11.7354
▁occupied	-11.7354
▁Deer	-11.7354
▁Ford	-11.7354
▁butter	-11.7355
▁mi	-11.7357
▁trombone	-11.7357
▁emerg	-11.7357
▁know	-11.7359
▁playhouse	-11.736
▁gay	-11.736
▁scared	-11.7361
▁wakeboarder	-11.7363
▁blindfolded	-11.7363
▁glow	-11.7364
▁fourth	-11.7364
▁dye	-11.7368
▁frames	-11.7368
▁billiards	-11.7368
▁chart	-11.7369
itting	-11.7372
▁grown	-11.7372
▁magic	-11.7382
▁winds	-11.7383
wear	-11.7386
ory	-11.7399
ho	-11.7409
bi	-11.7411
▁keys	-11.7411
▁per	-11.7416
▁add	-11.7417
▁styled	-11.7418
the	-11.7425
▁greeting	-11.7428
▁prevent	-11.7435
▁hamburgers	-11.7438
▁washed	-11.7438
▁presse	-11.7441
king	-11.7445
▁Hell	-11.7447
▁sorts	-11.7451
▁eyed	-11.7454
▁snaps	-11.7455
▁limbs	-11.746
▁views	-11.7472
pp	-11.7479
▁So	-11.748
ard	-11.7482
bo	-11.7486
▁kimonos	-11.7498
▁br	-11.75
▁squeez	-11.7509
▁secur	-11.751
▁seal	-11.7534
ette	-11.7537
▁garments	-11.7547
▁McDonalds	-11.7552
▁maker	-11.7558
▁tram	-11.7564
▁para	-11.7568
▁judge	-11.7571
▁raining	-11.7588
▁cann	-11.7626
lar	-11.7633
▁ca	-11.7636
▁leotards	-11.7651
▁owners	-11.7654
▁starts	-11.766
▁huts	-11.7667
▁focuse	-11.7672
▁coverings	-11.7697
▁darker	-11.7715
▁flo	-11.7715
▁cloths	-11.7716
▁burn	-11.7735
▁records	-11.776
ess	-11.7763
▁buys	-11.7763
scending	-11.7766
▁ga	-11.7776
▁barriers	-11.7778
▁bandage	-11.779
▁undershirt	-11.7804
que	-11.7804
▁Go	-11.7807
▁mops	-11.7808
iz	-11.7811
tic	-11.7821
▁Outdoor	-11.7839
▁lamps	-11.7839
▁noses	-11.784
▁tambourine	-11.7841
▁beaker	-11.7841
▁grain	-11.7843
▁blossom	-11.7843
▁surgeon	-11.7844
▁hamburger	-11.7844
▁slice	-11.7845
▁citizen	-11.7845
▁earring	-11.7847
▁bears	-11.7852
▁page	-11.7858
▁season	-11.7868
ground	-11.7876
▁Ten	-11.7878
pipe	-11.7885
▁fighter	-11.7886
stand	-11.7889
foam	-11.7889
type	-11.789
The	-11.7897
▁dip	-11.7903
▁kit	-11.7903
them	-11.7926
▁trek	-11.7927
▁count	-11.7931
▁elegant	-11.7933
▁Shop	-11.7934
▁broad	-11.7934
▁glide	-11.7934
▁unidentifi	-11.7937
▁Teen	-11.7937
▁Photo	-11.7938
▁Eleven	-11.7938
▁alligator	-11.7938
▁arrive	-11.7938
▁blowtorch	-11.7938
▁carpenter	-11.7938
▁convertible	-11.7938
▁gallop	-11.7938
▁grandmother	-11.7938
▁hopscotch	-11.7938
▁jackhammer	-11.7938
▁locomotive	-11.7938
▁maintain	-11.7938
▁ollie	-11.7938
▁rappel	-11.7938
▁sauna	-11.7938
▁sleigh	-11.7938
▁stethoscope	-11.7938
▁playpen	-11.7938
▁pregnant	-11.7938
▁clipboard	-11.7938
▁windsurfer	-11.7938
▁final	-11.7938
▁insect	-11.7938
▁Italian	-11.7938
▁winner	-11.7938
▁nothing	-11.7938
▁chunk	-11.7938
▁newsstand	-11.7938
▁Buddhist	-11.7938
▁swamp	-11.7938
▁send	-11.7938
▁portion	-11.7938
▁breakdancer	-11.7938
▁determined	-11.7938
▁might	-11.7938
▁eagle	-11.7939
▁stoplight	-11.7939
▁entertainment	-11.7939
▁Israel	-11.7939
▁penguin	-11.7939
▁Happy	-11.7942
▁Seattle	-11.7942
▁defense	-11.7942
▁punches	-11.7943
▁national	-11.7943
iew	-11.7947
▁frowning	-11.7948
▁pastry	-11.795
▁Photographer	-11.7951
▁trousers	-11.7952
▁pastel	-11.7954
▁Starbucks	-11.7958
▁drumsticks	-11.7963
▁pretzels	-11.7963
▁woodworking	-11.7966
▁greenhouse	-11.7968
▁Sports	-11.7969
▁soaking	-11.7971
wis	-11.7972
▁backpacker	-11.7974
▁Hikers	-11.7975
▁hairstyle	-11.7975
▁boa	-11.7977
▁shouting	-11.7978
▁mar	-11.7986
▁arched	-11.7992
▁butt	-11.7992
▁aim	-11.7994
▁olympics	-11.7998
▁patrons	-11.7998
mer	-11.8004
▁classical	-11.8006
ger	-11.8026
▁shined	-11.8026
▁lanes	-11.8032
▁oars	-11.8038
▁fairy	-11.8056
▁meats	-11.8059
▁rakes	-11.8061
▁vaulting	-11.8066
iv	-11.8079
ex	-11.8083
▁trot	-11.8088
▁crop	-11.8101
itty	-11.8106
let	-11.811
▁stools	-11.8117
▁Le	-11.8123
▁guides	-11.8123
▁bracelets	-11.8124
▁nud	-11.8125
gar	-11.8128
rom	-11.813
▁professionals	-11.814
▁sails	-11.815
▁poodles	-11.8153
ane	-11.8176
▁shields	-11.8176
MA	-11.8185
▁projected	-11.8188
ised	-11.8192
▁pinstripe	-11.8197
▁mixe	-11.8201
▁fed	-11.8233
▁obstacles	-11.8267
▁bins	-11.8269
mming	-11.8286
▁strips	-11.8299
▁surfboards	-11.8327
▁Over	-11.8341
▁ends	-11.8355
▁parasail	-11.8391
▁bicycler	-11.8397
skier	-11.8398
rong	-11.8403
▁letter	-11.8404
io	-11.843
com	-11.8434
▁spar	-11.845
▁orders	-11.8451
▁Bicyclist	-11.847
▁decoration	-11.8471
▁dart	-11.8477
▁sample	-11.8479
▁year	-11.8488
▁feel	-11.8497
▁rocker	-11.85
nna	-11.8501
▁study	-11.8502
ons	-11.8509
▁circles	-11.8512
ti	-11.8514
▁ja	-11.8524
▁skip	-11.8526
▁labor	-11.8528
▁Latin	-11.856
▁glanc	-11.8561
phon	-11.8561
▁Teenage	-11.8561
▁loaf	-11.8562
▁blank	-11.8562
▁quarter	-11.8563
▁Concert	-11.8563
▁Nintendo	-11.8563
▁Patrick	-11.8563
▁Segway	-11.8563
▁adjacent	-11.8563
▁banquet	-11.8563
▁bonfire	-11.8563
▁congregating	-11.8563
▁entire	-11.8563
▁exterior	-11.8563
▁footbridge	-11.8563
▁gorilla	-11.8563
▁limo	-11.8563
▁llama	-11.8563
▁mushroom	-11.8563
▁parasol	-11.8563
▁problem	-11.8563
▁region	-11.8563
▁saluting	-11.8563
▁satchel	-11.8563
▁shoeshine	-11.8563
▁shrubbery	-11.8563
▁squinting	-11.8563
▁vessel	-11.8563
▁workbench	-11.8563
▁price	-11.8563
▁Chicago	-11.8563
▁anchor	-11.8563
▁California	-11.8563
▁cowgirl	-11.8563
▁scoring	-11.8563
▁possible	-11.8563
▁flashlight	-11.8563
▁breed	-11.8563
▁volunteer	-11.8563
▁tribe	-11.8563
▁hidden	-11.8563
▁grinning	-11.8563
▁blade	-11.8563
▁petals	-11.8563
▁metropoli	-11.8563
▁wok	-11.8563
▁Spiderman	-11.8563
▁Wii	-11.8563
▁warning	-11.8563
▁Music	-11.8564
▁procession	-11.8564
▁windowsill	-11.8564
udio	-11.8564
▁function	-11.8564
▁perfect	-11.8564
apan	-11.8565
▁stationary	-11.8567
▁physical	-11.8567
▁Artist	-11.8568
▁poker	-11.8569
▁torches	-11.857
▁sift	-11.8573
ould	-11.8576
▁San	-11.8577
▁shrubs	-11.8578
▁constructed	-11.8581
ga	-11.8582
▁hawk	-11.8583
▁pav	-11.8586
ama	-11.8586
endors	-11.8587
▁workmen	-11.8588
▁sews	-11.859
▁shingles	-11.859
▁fine	-11.8597
▁instructions	-11.8608
▁chops	-11.8608
▁travelers	-11.8611
earing	-11.8617
old	-11.8618
▁burgers	-11.862
▁La	-11.8621
▁wal	-11.8626
▁matches	-11.8627
ake	-11.8627
▁Nav	-11.8628
▁lung	-11.8629
▁supported	-11.8633
▁gated	-11.8637
▁tun	-11.8639
▁glowing	-11.8641
▁Con	-11.8643
▁skyscrapers	-11.8645
▁mean	-11.8688
po	-11.8689
▁landed	-11.8689
our	-11.87
▁east	-11.8706
▁coconuts	-11.8712
▁hoe	-11.8713
ok	-11.8714
▁seeing	-11.8727
▁sisters	-11.8731
▁Ho	-11.8732
bar	-11.8735
▁fiddle	-11.8744
▁Bo	-11.8762
▁splits	-11.8768
▁bounces	-11.8784
om	-11.879
▁canoeing	-11.8791
▁peaks	-11.8793
▁k	-11.8811
nder	-11.8824
▁brothers	-11.8842
mi	-11.8856
olic	-11.8862
▁muscle	-11.8876
▁wit	-11.8877
oon	-11.8887
▁spik	-11.8889
▁Bar	-11.8894
ak	-11.8923
▁shots	-11.895
ick	-11.8999
▁drawings	-11.9002
▁fla	-11.9016
llow	-11.9053
▁pump	-11.9064
set	-11.9087
ong	-11.9096
▁twin	-11.9098
▁snorkel	-11.9102
▁taxis	-11.9107
▁banks	-11.9113
▁lollipop	-11.913
▁sweet	-11.9133
▁Biker	-11.9138
▁Tourist	-11.9138
▁pajama	-11.9138
▁crayon	-11.9138
mic	-11.9156
▁fort	-11.9158
▁sculpt	-11.9159
▁explain	-11.916
elve	-11.9169
circle	-11.917
▁prize	-11.9174
length	-11.9181
bread	-11.9181
screen	-11.9181
book	-11.9182
▁squir	-11.9182
▁once	-11.9188
▁enthusiastic	-11.9192
ador	-11.9198
un	-11.9201
▁provid	-11.9209
swing	-11.9211
fa	-11.922
▁potter	-11.9222
▁proud	-11.9225
▁acrobat	-11.9228
▁East	-11.9228
▁worship	-11.9228
assengers	-11.9229
▁master	-11.9229
▁sprawl	-11.9229
KitchenAid	-11.9229
ietnam	-11.9229
▁Gymnast	-11.9229
▁blacksmith	-11.9229
▁cereal	-11.9229
▁consult	-11.9229
▁crocodile	-11.9229
▁diamond	-11.9229
▁drenche	-11.9229
▁hijab	-11.9229
▁replac	-11.9229
▁slender	-11.9229
▁somersault	-11.9229
▁spiral	-11.9229
▁typewriter	-11.9229
▁warrior	-11.9229
▁windsurfing	-11.9229
▁wizard	-11.9229
▁university	-11.9229
▁marriage	-11.9229
▁queen	-11.9229
▁shrine	-11.9229
▁machete	-11.9229
▁hippie	-11.9229
▁recreation	-11.9229
▁profile	-11.9229
▁suds	-11.9229
▁bloom	-11.9229
▁mittens	-11.9229
▁begging	-11.9229
▁shutter	-11.9229
▁Road	-11.9229
▁gazebo	-11.9229
▁passerby	-11.9229
▁yet	-11.9229
▁route	-11.923
▁coke	-11.923
▁dollhouse	-11.923
▁necktie	-11.923
▁bunk	-11.923
▁onesie	-11.923
▁spear	-11.9231
▁cube	-11.9231
▁teeter	-11.9231
▁World	-11.9231
▁dorm	-11.9232
▁homework	-11.9232
▁brave	-11.9232
▁attentively	-11.9233
▁circus	-11.9233
▁proudly	-11.9233
▁rig	-11.9234
▁watercraft	-11.9234
▁populate	-11.9235
▁tide	-11.9235
▁curled	-11.9235
▁marches	-11.9238
▁What	-11.9238
▁bill	-11.9242
▁growing	-11.9242
▁sweaty	-11.9243
▁assembly	-11.9243
▁won	-11.9244
▁tilted	-11.9245
▁deal	-11.9251
▁trimmed	-11.9252
▁fencers	-11.9253
▁blown	-11.9254
▁conditions	-11.9259
escent	-11.9259
▁Rider	-11.9262
▁backlit	-11.9262
enthusiastically	-11.9268
▁handful	-11.9268
▁batt	-11.9269
▁Not	-11.9271
▁Art	-11.928
▁traverse	-11.9285
▁interviewed	-11.9286
▁sprints	-11.9286
dded	-11.9294
▁defending	-11.9296
▁bangs	-11.9297
▁youngsters	-11.9304
▁medals	-11.9311
▁cupcakes	-11.9317
ims	-11.9325
aw	-11.9331
▁slices	-11.9337
▁surgeons	-11.9337
▁Mar	-11.9348
▁pedaling	-11.935
ike	-11.9356
▁states	-11.9357
▁bi	-11.9357
▁bales	-11.9358
▁relaxed	-11.936
ump	-11.9362
▁bl	-11.937
▁swa	-11.9377
▁hammers	-11.939
BA	-11.9397
▁attired	-11.9406
▁protecting	-11.9418
vin	-11.942
handed	-11.9423
▁fists	-11.9443
▁tasks	-11.9443
hat	-11.9453
▁isle	-11.9459
▁supporting	-11.947
▁sl	-11.9479
▁structures	-11.9493
▁walkers	-11.95
▁chested	-11.95
▁purchases	-11.9502
▁curtains	-11.9502
▁drags	-11.9509
▁pirates	-11.9522
▁ba	-11.9544
uc	-11.955
▁crowns	-11.9576
▁fashionabl	-11.9597
ift	-11.9614
▁expressions	-11.9616
▁posts	-11.9651
▁matur	-11.9663
▁Ba	-11.9678
▁squares	-11.9682
owing	-11.9683
ck	-11.9683
▁spa	-11.9686
▁laps	-11.9716
not	-11.9722
▁em	-11.9727
▁squeeze	-11.974
▁defend	-11.975
ware	-11.9756
▁conveni	-11.9761
▁theme	-11.9776
ded	-11.9778
▁performed	-11.9795
ond	-11.9796
ign	-11.9798
▁telescopes	-11.9817
bed	-11.9819
▁emotion	-11.9821
▁hearts	-11.9826
hy	-11.9828
▁lei	-11.9846
▁bongo	-11.9846
▁technique	-11.9846
▁vine	-11.9848
▁wristband	-11.9848
▁skyscraper	-11.985
▁cupcake	-11.9851
▁sausage	-11.9851
other	-11.9851
gy	-11.9855
wheel	-11.9858
▁camper	-11.9863
▁bone	-11.9865
▁rise	-11.9868
▁roast	-11.9873
▁think	-11.9877
▁size	-11.9878
LE	-11.9887
low	-11.9908
▁layer	-11.9918
▁clasp	-11.9921
▁naps	-11.9923
▁tumbl	-11.9941
enaissance	-11.9943
▁percussion	-11.9943
▁every	-11.9943
▁blur	-11.9943
▁charcoal	-11.9944
▁dispos	-11.9944
▁poverty	-11.9944
▁specimen	-11.9944
▁Barefoot	-11.9944
▁Doctor	-11.9944
▁Individual	-11.9944
▁balconies	-11.9944
▁bazaar	-11.9944
▁clerk	-11.9944
▁coca	-11.9944
▁diligently	-11.9944
▁gambling	-11.9944
▁geometric	-11.9944
▁glacier	-11.9944
▁monopoly	-11.9944
▁ninja	-11.9944
▁normal	-11.9944
▁nuts	-11.9944
▁peddling	-11.9944
▁plugg	-11.9944
▁quite	-11.9944
▁ravine	-11.9944
▁strums	-11.9944
▁sushi	-11.9944
▁tiara	-11.9944
▁trouble	-11.9944
▁tussl	-11.9944
▁mingling	-11.9944
▁parlor	-11.9944
Irish	-11.9944
▁vivid	-11.9944
▁joust	-11.9944
▁outcropping	-11.9944
▁smash	-11.9944
▁forefront	-11.9944
▁sequin	-11.9944
▁growling	-11.9944
▁mustard	-11.9944
▁forklift	-11.9944
▁hundred	-11.9944
▁foil	-11.9944
▁pound	-11.9944
▁Home	-11.9944
▁manicure	-11.9944
▁textile	-11.9944
▁pearl	-11.9944
▁assistance	-11.9944
▁beaut	-11.9944
▁situation	-11.9944
▁bathrobe	-11.9944
▁tucked	-11.9944
▁Renaissance	-11.9944
▁lifeguard	-11.9944
▁trotting	-11.9944
▁doorstep	-11.9944
▁temporary	-11.9944
▁Youth	-11.9945
▁sculptor	-11.9945
▁lovers	-11.9945
▁halfway	-11.9945
▁creation	-11.9946
▁aircraft	-11.9946
▁presumably	-11.9946
▁dollar	-11.9946
▁glances	-11.9946
▁eatery	-11.9946
▁wreck	-11.9947
▁paintball	-11.9947
▁horizontally	-11.9949
▁daylight	-11.9949
▁headdresses	-11.9951
▁quietly	-11.9953
▁sandwiches	-11.9955
solate	-11.9955
▁oddly	-11.9959
▁coral	-11.9961
▁breakdances	-11.9961
▁dreads	-11.9968
▁trade	-11.9972
▁playful	-11.9978
uffe	-11.9986
▁actors	-11.9988
▁pensive	-11.9992
▁seek	-11.9996
ft	-12.0004
▁romantic	-12.0009
▁troops	-12.001
▁roasting	-12.0014
▁couches	-12.0015
▁donuts	-12.0017
ator	-12.002
▁Clause	-12.0022
res	-12.0026
▁sc	-12.0037
▁miss	-12.0038
▁sm	-12.0051
▁darts	-12.0053
▁drawer	-12.0054
▁taller	-12.0071
▁weapons	-12.0074
▁States	-12.0074
▁needs	-12.0081
▁cords	-12.0088
▁defenders	-12.0103
▁blackboard	-12.0109
▁picked	-12.0116
▁manhole	-12.0119
▁gates	-12.012
▁hu	-12.0131
▁barb	-12.0134
▁hol	-12.0153
▁cleaned	-12.0159
▁higher	-12.0163
ked	-12.0172
▁waterside	-12.0174
structing	-12.0179
▁Ga	-12.0182
▁planks	-12.0188
▁pursu	-12.0189
▁referees	-12.019
ountain	-12.0195
▁boulders	-12.0195
har	-12.0215
▁cheerful	-12.0218
▁cakes	-12.0218
aked	-12.0222
▁scratche	-12.0222
▁spikes	-12.0224
▁calling	-12.0238
rab	-12.0256
inted	-12.026
▁speakers	-12.0264
ile	-12.0266
mate	-12.0275
▁o	-12.0287
▁Pe	-12.0298
▁angels	-12.031
▁Mu	-12.0322
▁gi	-12.0323
▁flee	-12.0329
▁sole	-12.0336
▁No	-12.0336
▁Cr	-12.0338
▁vi	-12.0351
▁decid	-12.0372
▁stoo	-12.0392
▁finishe	-12.0406
cat	-12.0417
▁lace	-12.0473
rmed	-12.0488
hole	-12.0497
▁videotap	-12.0508
▁pl	-12.0511
▁sites	-12.0513
▁mark	-12.0537
▁comic	-12.0551
▁super	-12.0557
▁partying	-12.0561
▁navigat	-12.0561
hi	-12.0562
▁wav	-12.0568
ax	-12.057
ber	-12.0602
wards	-12.0604
light	-12.0607
cy	-12.0614
▁waffle	-12.0616
▁hour	-12.0617
▁sombrero	-12.0617
▁medal	-12.0619
▁fixture	-12.062
▁participant	-12.062
▁leave	-12.0622
pt	-12.0629
▁console	-12.0631
▁sub	-12.0638
▁sideline	-12.0646
▁Bank	-12.0646
rew	-12.0654
cross	-12.0658
box	-12.0659
gle	-12.066
pensive	-12.0663
chested	-12.0664
print	-12.0664
american	-12.0665
view	-12.0665
▁bulls	-12.0671
eye	-12.0685
▁multicolor	-12.0692
▁sauce	-12.0694
▁bake	-12.0701
▁nation	-12.0707
▁custom	-12.0709
▁attentive	-12.0709
▁quick	-12.0709
▁mad	-12.071
▁slow	-12.0711
mergency	-12.0712
▁Spider	-12.0712
▁measure	-12.0712
▁confront	-12.0713
▁gorge	-12.0713
▁Angeles	-12.0713
▁Rodeo	-12.0713
▁Thai	-12.0713
▁Train	-12.0713
▁abstract	-12.0713
▁album	-12.0713
▁aluminum	-12.0713
▁amplifier	-12.0713
▁backflip	-12.0713
▁communicating	-12.0713
▁dustpan	-12.0713
▁everything	-12.0713
▁fierce	-12.0713
▁lobster	-12.0713
▁napkin	-12.0713
▁peanut	-12.0713
▁pelican	-12.0713
▁plywood	-12.0713
▁popsicle	-12.0713
▁quartet	-12.0713
▁recipe	-12.0713
▁ruffle	-12.0713
▁shotgun	-12.0713
▁sledgehammer	-12.0713
▁socialize	-12.0713
▁technology	-12.0713
▁tissue	-12.0713
▁troupe	-12.0713
▁Roller	-12.0713
▁potential	-12.0713
▁basin	-12.0713
▁chemistry	-12.0713
▁gently	-12.0713
▁occasion	-12.0713
▁Super	-12.0713
▁impress	-12.0713
▁loving	-12.0713
▁handicapped	-12.0713
▁simpl	-12.0713
▁Game	-12.0713
▁stylish	-12.0713
▁enforc	-12.0713
▁landmark	-12.0713
▁Boat	-12.0713
▁bury	-12.0713
▁knight	-12.0713
▁Christian	-12.0713
omas	-12.0713
▁romp	-12.0713
▁Coke	-12.0713
▁foundation	-12.0713
▁melt	-12.0713
▁Good	-12.0713
▁fam	-12.0713
▁velvet	-12.0713
▁creature	-12.0713
▁Bright	-12.0713
ord	-12.0714
▁baggage	-12.0714
▁Giant	-12.0714
▁BMW	-12.0714
▁smear	-12.0715
▁assistant	-12.0715
▁spell	-12.0715
▁web	-12.0715
▁lunges	-12.0715
▁coworker	-12.0716
▁husky	-12.0718
▁projection	-12.0718
▁coin	-12.0718
▁western	-12.0719
▁runway	-12.0719
▁ballgame	-12.0719
▁mountaineer	-12.072
▁thatched	-12.0723
▁sparkly	-12.0725
▁patches	-12.0725
▁pierc	-12.0726
▁spiky	-12.0726
▁roadwork	-12.0726
▁sparkl	-12.0727
▁badge	-12.0729
▁cue	-12.0731
▁rim	-12.0731
▁fliers	-12.0732
▁expans	-12.0736
▁Summ	-12.0737
▁bullet	-12.074
▁peruse	-12.0744
▁hunting	-12.0744
▁Scouts	-12.0747
▁ox	-12.0748
▁save	-12.0748
▁aggressive	-12.0754
▁mothers	-12.0758
▁professionally	-12.0759
▁sprinting	-12.0762
▁lonely	-12.0765
▁cong	-12.0767
sion	-12.0767
cal	-12.0772
▁idea	-12.0775
▁piercings	-12.0777
▁dolly	-12.0779
▁workman	-12.0779
▁Cola	-12.0783
▁rocket	-12.0785
▁discover	-12.0787
▁Met	-12.0792
▁sparklers	-12.0801
cast	-12.0801
▁greenish	-12.0805
▁beater	-12.0805
▁fri	-12.0806
▁Fisherm	-12.0811
▁Pre	-12.0815
▁lett	-12.0816
▁crush	-12.0817
▁pumps	-12.0824
▁Tan	-12.0829
▁blossoms	-12.0839
▁flashing	-12.0841
ute	-12.0842
neck	-12.0848
▁holder	-12.0857
▁pancakes	-12.0862
▁id	-12.0863
▁joggers	-12.087
▁jars	-12.0878
ler	-12.0884
▁videotape	-12.0889
▁photography	-12.0889
▁Beach	-12.089
ors	-12.0898
▁flow	-12.0901
▁wor	-12.0901
▁acrobatics	-12.0916
▁claps	-12.0916
ast	-12.0935
▁bundles	-12.0939
▁batons	-12.094
lack	-12.0961
▁worked	-12.0973
▁texts	-12.0979
▁puddles	-12.0981
aid	-12.0997
▁adventure	-12.1019
▁perche	-12.1024
taught	-12.1044
▁los	-12.1049
▁treats	-12.1063
tal	-12.1067
▁mannequins	-12.1095
heeled	-12.1101
▁roped	-12.1117
ottery	-12.1125
▁hoses	-12.1136
▁Arab	-12.1158
ups	-12.1233
▁prints	-12.1269
▁sees	-12.1273
▁personal	-12.1282
ugh	-12.1288
▁projects	-12.1302
mn	-12.1306
▁secure	-12.1307
▁plan	-12.1326
▁Mom	-12.1344
unt	-12.1348
▁Chi	-12.1352
long	-12.1371
▁bark	-12.14
▁storefronts	-12.1405
▁To	-12.1433
▁intimate	-12.1434
ern	-12.1436
▁boarder	-12.1441
▁snowboarders	-12.1441
ively	-12.1443
▁contestant	-12.1448
▁cocktail	-12.1449
▁lesson	-12.1449
▁pamphlet	-12.145
▁detail	-12.145
▁civilian	-12.1451
▁key	-12.1453
▁graduate	-12.1453
▁bridesmaid	-12.1454
▁construct	-12.1454
▁crouch	-12.1454
▁hedge	-12.1455
▁youngster	-12.1455
▁sparkler	-12.1456
▁sock	-12.1456
▁Ne	-12.1459
▁fre	-12.1463
▁twist	-12.1472
all	-12.1478
▁promot	-12.1484
▁dipp	-12.1485
bu	-12.1486
▁stud	-12.1489
▁streetlight	-12.1492
▁prim	-12.1496
bike	-12.1499
story	-12.1501
▁mag	-12.1504
boy	-12.1506
dyed	-12.1508
▁positions	-12.152
▁surprise	-12.1538
▁spe	-12.1542
▁Colorful	-12.1542
▁solid	-12.1543
▁strain	-12.1543
▁enthusiast	-12.1545
▁rectang	-12.1545
▁refresh	-12.1546
▁choreograph	-12.1546
▁cloak	-12.1546
▁creme	-12.1546
pproximate	-12.1546
▁Autumn	-12.1546
▁Berlin	-12.1546
▁Britain	-12.1546
▁Clown	-12.1546
▁Flag	-12.1546
▁Garden	-12.1546
▁Motorcyclist	-12.1546
▁Newlywed	-12.1546
▁Ocean	-12.1546
▁Pokemon	-12.1546
▁Senior	-12.1546
▁Target	-12.1546
▁amazing	-12.1546
▁applied	-12.1546
▁ceramic	-12.1546
▁cleats	-12.1546
▁congregation	-12.1546
▁doberman	-12.1546
▁honor	-12.1546
▁kickboxer	-12.1546
▁operator	-12.1546
▁prominent	-12.1546
▁rival	-12.1546
▁session	-12.1546
▁sibling	-12.1546
▁spaghetti	-12.1546
▁tailgat	-12.1546
▁ukulele	-12.1546
Radio	-12.1546
▁Museum	-12.1546
▁flexing	-12.1546
▁occurring	-12.1546
▁amazement	-12.1546
▁shaft	-12.1546
▁Bird	-12.1546
▁preschool	-12.1546
▁compact	-12.1546
▁york	-12.1546
▁kill	-12.1546
▁suspens	-12.1546
▁repelling	-12.1546
dobe	-12.1546
▁Batman	-12.1546
▁turntable	-12.1546
▁anticipation	-12.1547
▁wake	-12.1547
▁strand	-12.1547
▁would	-12.1547
▁bulldog	-12.1547
▁comfortable	-12.1547
▁candid	-12.1547
▁dummy	-12.1547
▁passionately	-12.1547
▁oxen	-12.1547
▁ram	-12.1548
▁awkwardly	-12.1548
▁Centr	-12.1548
▁bassist	-12.1549
▁rainstorm	-12.1549
▁fade	-12.1549
▁herbs	-12.1549
▁Gate	-12.155
▁safe	-12.155
▁Back	-12.1551
▁bigger	-12.1552
▁Tw	-12.1553
▁stem	-12.1553
▁arches	-12.1553
▁pasture	-12.1554
▁reflector	-12.1554
▁drumming	-12.1555
▁Bush	-12.1555
▁must	-12.1556
▁indicat	-12.1556
▁hitch	-12.1556
▁globe	-12.1557
▁netting	-12.1557
▁Guitar	-12.1557
▁kept	-12.1557
▁competitively	-12.1559
▁fift	-12.1559
colour	-12.1559
▁Dad	-12.1559
vation	-12.156
▁embe	-12.156
▁grinder	-12.1561
▁countertop	-12.1563
▁forrest	-12.1565
nion	-12.1565
▁pompoms	-12.1567
▁screams	-12.1567
▁Ch	-12.1574
▁frosting	-12.158
▁closer	-12.1581
▁Farm	-12.1583
▁fingernails	-12.1584
mber	-12.1584
tro	-12.1585
▁charg	-12.1585
headed	-12.1586
▁accessories	-12.1591
▁available	-12.1591
▁peppers	-12.1592
▁refreshments	-12.1592
▁kabobs	-12.1592
▁skydiver	-12.1592
▁twirls	-12.1592
▁visitors	-12.1592
▁sleepy	-12.1593
▁airline	-12.1596
▁accents	-12.16
▁rollerskaters	-12.16
▁ascends	-12.1614
▁twisting	-12.1618
▁observed	-12.1619
▁recorder	-12.1621
tie	-12.1629
▁tar	-12.163
▁patroll	-12.1633
▁snorkeling	-12.1637
Free	-12.1638
▁barks	-12.1642
▁ramps	-12.1646
▁marks	-12.1651
▁sizes	-12.1659
▁escalators	-12.1675
enta	-12.1691
▁die	-12.1699
▁experience	-12.1699
▁dandelions	-12.17
▁jugs	-12.1708
▁bearer	-12.171
▁sticker	-12.1713
▁questions	-12.1716
▁pasta	-12.1718
imp	-12.1727
▁Sal	-12.1729
▁backpackers	-12.1731
▁props	-12.1733
▁weathered	-12.1739
ease	-12.1758
▁topic	-12.1771
▁ka	-12.1771
▁flyer	-12.1772
▁buckle	-12.1782
truck	-12.1794
▁Me	-12.18
▁barricades	-12.1835
▁maneuvers	-12.1852
ow	-12.1857
▁keyboards	-12.1858
▁dumps	-12.186
▁markers	-12.1862
▁wraps	-12.1866
▁started	-12.1877
▁expos	-12.1902
▁active	-12.1924
▁bustl	-12.1928
▁bases	-12.1928
▁mine	-12.1928
ose	-12.1939
Ex	-12.1947
oney	-12.1961
▁cradle	-12.1962
▁portraits	-12.1963
▁pumpkins	-12.1963
▁fro	-12.1974
▁jam	-12.2006
ecker	-12.2034
ook	-12.2052
▁Ski	-12.2098
gent	-12.2098
▁onlooking	-12.2112
ron	-12.2115
▁cages	-12.2119
▁notice	-12.2154
▁jets	-12.2171
▁cases	-12.2215
ious	-12.2224
log	-12.2226
hoop	-12.224
den	-12.2255
▁comp	-12.2278
▁squat	-12.2281
ik	-12.2281
ader	-12.2309
▁formations	-12.2321
per	-12.2325
▁hurt	-12.2332
▁lo	-12.235
▁arrangement	-12.2357
▁continue	-12.2358
▁lemon	-12.236
▁donut	-12.2362
▁olympic	-12.2362
▁patron	-12.2362
▁bang	-12.2362
▁brace	-12.2363
▁snowshoe	-12.2364
▁interest	-12.2365
▁stroke	-12.2371
▁crochet	-12.2381
▁shell	-12.2383
color	-12.2387
▁Tri	-12.2388
col	-12.2392
▁Sun	-12.2401
kart	-12.2405
scale	-12.2408
person	-12.2408
wash	-12.2409
bell	-12.2411
▁unwrap	-12.2411
▁manipulat	-12.2416
▁Na	-12.242
east	-12.2423
▁ju	-12.2429
▁tilt	-12.2433
▁blindfold	-12.2433
▁embroider	-12.2443
met	-12.245
climbing	-12.2452
▁brow	-12.2452
stead	-12.2453
▁whist	-12.2455
niform	-12.2455
▁react	-12.2455
▁anticipat	-12.2455
▁pounc	-12.2455
▁draft	-12.2455
▁escort	-12.2455
▁evergreen	-12.2455
▁glitter	-12.2455
▁swirl	-12.2455
▁thrill	-12.2455
▁Beijing	-12.2455
▁Celtic	-12.2455
▁Florida	-12.2455
▁Ikea	-12.2455
▁Labrador	-12.2455
▁Mardi	-12.2455
▁Rescue	-12.2455
▁Tattoo	-12.2455
▁already	-12.2455
▁animated	-12.2455
▁architectural	-12.2455
▁croquet	-12.2455
▁desperate	-12.2455
▁embankment	-12.2455
▁exciting	-12.2455
▁government	-12.2455
▁granite	-12.2455
▁halloween	-12.2455
▁mariachi	-12.2455
▁mulch	-12.2455
▁oxygen	-12.2455
▁pedestal	-12.2455
▁pleasant	-12.2455
▁ribs	-12.2455
▁screwdriver	-12.2455
▁seminar	-12.2455
▁slingshot	-12.2455
▁source	-12.2455
▁statute	-12.2455
▁swaddl	-12.2455
▁turf	-12.2455
▁wildflowers	-12.2455
▁yawns	-12.2455
▁Russia	-12.2455
▁girder	-12.2455
▁reindeer	-12.2455
▁peacock	-12.2455
▁Karate	-12.2455
▁claw	-12.2455
▁footprints	-12.2455
▁decals	-12.2455
▁forearm	-12.2455
▁santa	-12.2455
▁Italy	-12.2455
▁paddy	-12.2455
▁paramedic	-12.2455
▁sweatsuit	-12.2455
▁mexic	-12.2455
▁torso	-12.2455
▁lingerie	-12.2455
▁jagged	-12.2455
▁steady	-12.2455
▁creep	-12.2455
▁spool	-12.2455
▁subject	-12.2455
▁Gras	-12.2455
▁bodies	-12.2455
▁witness	-12.2455
▁mold	-12.2456
mble	-12.2456
▁become	-12.2456
▁strawberries	-12.2456
▁dragster	-12.2456
▁flatbed	-12.2456
egas	-12.2456
▁excavator	-12.2456
▁neatly	-12.2456
▁mock	-12.2456
▁joyfully	-12.2456
▁goose	-12.2457
▁law	-12.2457
▁pout	-12.2457
▁Tall	-12.2457
▁Tour	-12.2457
▁auto	-12.2458
▁arid	-12.2458
▁ladle	-12.2458
▁prun	-12.2458
▁shark	-12.2459
ostume	-12.2459
▁devil	-12.2459
▁joyous	-12.2459
▁Station	-12.2459
▁Hand	-12.2459
▁solider	-12.2459
▁sashes	-12.2459
▁corral	-12.246
▁highlight	-12.246
▁whale	-12.246
▁frog	-12.2461
▁booklet	-12.2461
▁hazard	-12.2463
▁desktop	-12.2463
▁shocked	-12.2463
▁lighthouse	-12.2463
▁seaside	-12.2464
▁oversee	-12.2465
▁concerned	-12.2465
▁mind	-12.2466
▁seriously	-12.2466
▁flap	-12.2467
nicef	-12.2467
▁warmers	-12.2467
▁intensely	-12.2469
▁beak	-12.247
▁dug	-12.247
berry	-12.247
▁lovely	-12.247
▁Island	-12.2472
▁trekk	-12.2473
▁till	-12.2473
rate	-12.2473
▁poorly	-12.2476
▁Rod	-12.2477
▁grimaces	-12.2478
▁came	-12.2478
▁sharpen	-12.2479
▁ranch	-12.248
▁fi	-12.2484
▁bumper	-12.2485
▁straddl	-12.2485
▁dropped	-12.2487
thletes	-12.2488
▁slump	-12.2489
▁commuter	-12.2491
▁operated	-12.2491
▁slipper	-12.2492
▁pe	-12.2497
▁walkie	-12.2498
▁Sp	-12.2501
▁planter	-12.2501
hoops	-12.2504
▁attendees	-12.2504
▁yells	-12.2506
▁controller	-12.2507
▁bout	-12.2507
▁director	-12.2513
fter	-12.2513
▁pineapples	-12.2515
▁steaks	-12.2515
▁Farmers	-12.2516
▁grate	-12.2519
▁handler	-12.2522
ide	-12.2523
▁fairly	-12.2524
rash	-12.2526
▁hide	-12.2529
▁removed	-12.2533
▁hoods	-12.2539
▁cameramen	-12.2541
▁lockers	-12.2546
▁ponder	-12.2548
▁braces	-12.2551
▁lemons	-12.2551
▁shells	-12.2551
▁onions	-12.2553
▁snapp	-12.2558
▁hedges	-12.256
▁streetlights	-12.256
bout	-12.2564
▁tablet	-12.2564
▁badges	-12.2568
▁gla	-12.257
▁fasten	-12.2574
▁taped	-12.2575
▁copy	-12.2579
▁defends	-12.258
▁campers	-12.2583
ood	-12.2597
▁engineer	-12.2597
▁keeper	-12.2598
▁smokey	-12.2603
▁cracker	-12.2613
AR	-12.2614
▁entertained	-12.2619
▁creative	-12.2627
goers	-12.2633
▁slabs	-12.2634
▁sons	-12.2641
▁fo	-12.265
▁created	-12.265
here	-12.2669
▁steers	-12.2672
▁assists	-12.2672
cade	-12.2685
▁downwards	-12.2692
ade	-12.2699
▁el	-12.2701
▁coolers	-12.2705
▁pitchers	-12.271
▁signals	-12.2715
▁toilets	-12.2727
▁diners	-12.2727
▁pu	-12.2733
▁tw	-12.2743
rus	-12.2755
ets	-12.2756
▁lighter	-12.2759
▁officials	-12.2764
ride	-12.2765
▁panels	-12.2773
▁pol	-12.2794
▁pitche	-12.2795
▁cuddl	-12.2798
▁mis	-12.2832
ants	-12.2835
▁examined	-12.2862
▁challenge	-12.2887
▁rifles	-12.2896
▁slop	-12.2904
▁grooms	-12.2905
▁crashe	-12.2918
iff	-12.2919
▁outward	-12.2928
ility	-12.2948
tle	-12.2953
▁sno	-12.2965
ictorian	-12.2992
cola	-12.3013
▁turbans	-12.302
▁tongues	-12.3027
▁je	-12.3029
vo	-12.3082
irway	-12.3102
▁capes	-12.3115
pin	-12.3116
▁lose	-12.3128
ny	-12.3145
stone	-12.3151
▁darkly	-12.3159
▁billboards	-12.3164
▁canes	-12.3165
bb	-12.3168
▁fixed	-12.319
▁Gr	-12.3193
▁spit	-12.3207
▁searche	-12.3224
▁For	-12.3248
its	-12.3252
ible	-12.3269
▁braid	-12.327
▁lives	-12.3271
▁Bra	-12.3288
chief	-12.3299
ntry	-12.3321
lade	-12.3348
ou	-12.3356
▁bonnet	-12.3356
▁troop	-12.3357
▁lamb	-12.3358
▁poncho	-12.336
front	-12.3361
▁burger	-12.3362
▁happen	-12.3363
▁guest	-12.3363
▁rapid	-12.3364
▁Cook	-12.3364
▁spout	-12.3365
▁movement	-12.3365
▁Play	-12.3373
▁locker	-12.3377
▁di	-12.3378
▁En	-12.3379
▁cliffs	-12.3381
▁fil	-12.3382
▁relat	-12.3383
▁coal	-12.3384
▁shout	-12.3386
spectacle	-12.3403
keeper	-12.3404
grown	-12.3406
lock	-12.3406
pace	-12.3407
eastern	-12.3407
crowded	-12.3408
brown	-12.3408
block	-12.3408
flight	-12.3408
hood	-12.3408
▁research	-12.3409
away	-12.3413
▁commut	-12.3416
Cub	-12.3419
aisle	-12.3432
night	-12.3433
▁Isla	-12.3436
icated	-12.3448
▁flor	-12.345
graph	-12.3452
▁Africa	-12.3453
▁slight	-12.3453
ternational	-12.3454
▁graffit	-12.3454
thnic	-12.3454
▁repel	-12.3455
▁exam	-12.3455
▁dramatic	-12.3455
▁represent	-12.3455
▁Heavy	-12.3455
▁deflat	-12.3455
▁MacBook	-12.3455
▁North	-12.3455
▁Parade	-12.3455
▁Parent	-12.3455
▁SquarePants	-12.3455
▁Terrier	-12.3455
▁Truck	-12.3455
▁assignment	-12.3455
▁bookshelf	-12.3455
▁buoy	-12.3455
▁camcorder	-12.3455
▁carpentry	-12.3455
▁chores	-12.3455
▁crotch	-12.3455
▁diagram	-12.3455
▁espresso	-12.3455
▁facade	-12.3455
▁granddaughter	-12.3455
▁grandfather	-12.3455
▁landscaping	-12.3455
▁martini	-12.3455
▁nursing	-12.3455
▁octopus	-12.3455
▁owl	-12.3455
▁pallet	-12.3455
▁plaque	-12.3455
▁pullover	-12.3455
▁restrain	-12.3455
▁reunion	-12.3455
▁scientific	-12.3455
▁slanted	-12.3455
▁souvenir	-12.3455
▁swoop	-12.3455
▁syringe	-12.3455
▁tinker	-12.3455
▁toboggan	-12.3455
▁trapeze	-12.3455
▁trinkets	-12.3455
▁unfold	-12.3455
▁volcano	-12.3455
undred	-12.3455
▁Circu	-12.3455
▁Power	-12.3455
▁Standing	-12.3455
▁cancer	-12.3455
▁incense	-12.3455
▁compris	-12.3455
▁transaction	-12.3455
▁karaoke	-12.3455
▁lettuce	-12.3455
▁enough	-12.3455
▁equipped	-12.3455
▁knead	-12.3455
▁Australia	-12.3455
▁jewelery	-12.3455
olkswagen	-12.3455
▁pokemon	-12.3455
▁require	-12.3455
▁swung	-12.3455
▁cork	-12.3455
▁terrace	-12.3455
▁rebound	-12.3455
▁vista	-12.3455
▁noise	-12.3455
▁afro	-12.3455
▁totter	-12.3455
▁roam	-12.3456
▁copper	-12.3456
▁extinguish	-12.3456
ified	-12.3456
▁barbie	-12.3456
▁parading	-12.3456
▁campground	-12.3456
▁grandson	-12.3456
▁trend	-12.3456
▁speedboat	-12.3456
▁Even	-12.3456
▁Hall	-12.3456
▁Story	-12.3456
▁motorboat	-12.3456
▁toppings	-12.3456
▁canister	-12.3456
▁NYC	-12.3456
▁coastline	-12.3456
▁entry	-12.3456
▁padding	-12.3456
▁dachshund	-12.3456
▁freeway	-12.3456
▁bullhorn	-12.3456
▁sunrise	-12.3456
▁pug	-12.3456
▁restroom	-12.3457
▁fairground	-12.3457
▁reeds	-12.3457
▁notepad	-12.3457
▁Stone	-12.3457
▁cookout	-12.3458
▁midriff	-12.3458
▁mortar	-12.3458
▁Latino	-12.3459
▁zipper	-12.3459
▁Mexico	-12.346
▁proper	-12.346
lway	-12.346
▁media	-12.346
▁adjustment	-12.346
▁dealer	-12.3461
▁Top	-12.3461
▁sewer	-12.3462
▁gone	-12.3462
▁broadly	-12.3462
▁gap	-12.3463
▁program	-12.3463
▁Hotel	-12.3464
▁gir	-12.3464
istic	-12.3464
▁comforter	-12.3466
▁china	-12.3468
▁safely	-12.3468
▁hound	-12.3469
▁beachfront	-12.3469
▁Lone	-12.347
▁invert	-12.347
▁artifacts	-12.3471
▁contemplates	-12.3471
▁crime	-12.3471
▁hail	-12.3474
my	-12.3474
▁inner	-12.3475
▁disab	-12.3475
care	-12.3475
coat	-12.3476
▁layup	-12.3478
can	-12.3479
▁clams	-12.3481
▁exposed	-12.3486
▁headbands	-12.3489
▁ballroom	-12.349
▁melons	-12.3491
▁utensils	-12.3491
▁curls	-12.3491
▁lathe	-12.3493
▁strangely	-12.3493
▁canon	-12.3493
▁saucer	-12.3494
▁weed	-12.3504
▁shear	-12.3505
▁unwrapp	-12.3505
▁cata	-12.3509
▁organize	-12.351
ockeys	-12.3511
▁eyebrows	-12.3511
▁zooms	-12.3511
zed	-12.3516
▁scored	-12.352
▁treads	-12.3521
▁documents	-12.3531
▁veterans	-12.3531
▁caged	-12.3535
▁fitting	-12.3537
▁tunes	-12.3546
▁ponchos	-12.3552
▁wrapper	-12.3552
MC	-12.3558
▁pumping	-12.3566
ates	-12.3567
▁civilians	-12.3572
▁launche	-12.3576
thy	-12.3578
▁seasoning	-12.3581
▁archer	-12.3581
▁sombreros	-12.3582
▁Redhead	-12.3583
▁collected	-12.3587
▁trumpets	-12.3587
yard	-12.3587
but	-12.3597
rest	-12.3598
▁prizes	-12.3602
▁chopped	-12.3613
▁layers	-12.3616
▁completed	-12.3618
▁zipp	-12.3619
▁pages	-12.3623
▁grains	-12.3623
▁pea	-12.3624
▁sponges	-12.3633
▁violinists	-12.3633
▁sprinkl	-12.3634
fives	-12.3634
▁tear	-12.3634
▁sav	-12.3635
ub	-12.3637
▁folders	-12.3647
▁beautifully	-12.3647
▁homes	-12.3653
▁onward	-12.3657
▁wrangl	-12.3661
▁rode	-12.3664
▁separat	-12.3666
▁disco	-12.3672
▁collars	-12.3675
▁Ta	-12.3681
▁cycles	-12.3684
ock	-12.3686
▁possessions	-12.3726
▁attacking	-12.3731
▁Pro	-12.3736
▁viole	-12.3736
▁bucks	-12.3741
▁arrows	-12.3747
ara	-12.375
ican	-12.3752
ley	-12.3756
oyota	-12.3768
▁blacktop	-12.3775
▁hope	-12.3777
▁Cho	-12.3782
▁sales	-12.3782
▁carton	-12.3794
vel	-12.3798
▁fabrics	-12.3804
▁pops	-12.3819
nous	-12.3819
▁Dis	-12.3832
▁pigs	-12.3849
ought	-12.386
ingham	-12.3885
glo	-12.3906
PS	-12.3924
SC	-12.3929
▁caus	-12.3947
OR	-12.3969
▁passer	-12.397
▁heel	-12.3988
▁vaca	-12.4002
▁grasses	-12.4011
oyal	-12.4034
▁notebooks	-12.4041
gers	-12.4051
▁challeng	-12.4057
era	-12.406
▁onion	-12.4062
ipped	-12.4063
▁racks	-12.4084
▁logos	-12.4086
▁motions	-12.4094
door	-12.4126
▁Mor	-12.4128
▁El	-12.4139
▁bathe	-12.4185
▁flutes	-12.4191
▁looms	-12.4202
walk	-12.4214
gan	-12.4237
run	-12.4238
▁Hu	-12.4239
▁backhand	-12.424
▁lu	-12.4257
ham	-12.4268
dem	-12.4305
ndy	-12.4316
▁sprint	-12.4318
rushes	-12.4339
rag	-12.4341
▁wrangle	-12.4341
▁tune	-12.4344
TA	-12.435
▁sprinkle	-12.4379
uzzled	-12.443
▁Du	-12.4441
▁Grand	-12.4442
▁necks	-12.4462
▁beanbag	-12.4468
▁dash	-12.447
▁remain	-12.4471
▁noodle	-12.4474
▁rollerskate	-12.4474
flop	-12.4475
▁era	-12.4476
▁Runner	-12.4477
vest	-12.4501
▁hugg	-12.4502
▁bagel	-12.4503
play	-12.4507
▁exchang	-12.4508
size	-12.4509
▁shap	-12.4511
▁blend	-12.4512
lift	-12.4515
boat	-12.4515
dye	-12.4516
venue	-12.4518
race	-12.4519
ship	-12.4519
▁charge	-12.452
▁cry	-12.4523
Man	-12.4526
stage	-12.4534
tail	-12.4534
rock	-12.4534
▁assemble	-12.4536
▁provide	-12.4537
▁leafs	-12.4543
▁ston	-12.4544
▁peddle	-12.455
▁Rid	-12.455
▁Skateboard	-12.4554
ash	-12.4556
verage	-12.4557
▁current	-12.4562
▁apparent	-12.4563
▁attract	-12.4563
load	-12.4563
▁Marti	-12.4564
▁again	-12.4565
▁trans	-12.4565
▁vari	-12.4565
▁Business	-12.4566
born	-12.4566
▁vocal	-12.4566
assersby	-12.4566
raffiti	-12.4566
olunteer	-12.4566
▁breeze	-12.4566
▁Dressed	-12.4566
▁Employee	-12.4566
▁Engine	-12.4566
▁Foreign	-12.4566
▁Popsicle	-12.4566
▁astronaut	-12.4566
▁certificate	-12.4566
▁collaps	-12.4566
▁colonial	-12.4566
▁pistol	-12.4566
▁reason	-12.4566
▁rummag	-12.4566
▁sym	-12.4566
▁tassel	-12.4566
credibl	-12.4566
ynyrd	-12.4566
▁Ballerina	-12.4566
▁Challenge	-12.4566
▁Commuter	-12.4566
▁Cross	-12.4566
▁Kayak	-12.4566
▁Pink	-12.4566
▁Skynyrd	-12.4566
▁Wonder	-12.4566
▁arrival	-12.4566
▁bluish	-12.4566
▁brief	-12.4566
▁brindle	-12.4566
▁chimney	-12.4566
▁compartment	-12.4566
▁composed	-12.4566
▁eccentric	-12.4566
▁extra	-12.4566
▁eyeliner	-12.4566
▁faucet	-12.4566
▁fishnet	-12.4566
▁flank	-12.4566
▁gladiator	-12.4566
▁grimacing	-12.4566
▁happiness	-12.4566
▁iPad	-12.4566
▁igloo	-12.4566
▁improvise	-12.4566
▁internet	-12.4566
▁investigate	-12.4566
▁license	-12.4566
▁limousine	-12.4566
▁livestock	-12.4566
▁mermaid	-12.4566
▁nylon	-12.4566
▁postcards	-12.4566
▁regalia	-12.4566
▁salute	-12.4566
▁saxaphone	-12.4566
▁saxophonist	-12.4566
▁scrimmage	-12.4566
▁shampoo	-12.4566
▁solution	-12.4566
▁spirit	-12.4566
▁summit	-12.4566
▁twilight	-12.4566
▁typical	-12.4566
▁uneven	-12.4566
▁upraised	-12.4566
▁upstairs	-12.4566
▁victim	-12.4566
▁whisk	-12.4566
▁windmill	-12.4566
▁distor	-12.4566
▁grappl	-12.4566
▁humorous	-12.4566
▁south	-12.4566
▁Francisco	-12.4566
▁classmates	-12.4566
▁fail	-12.4566
▁lanyard	-12.4566
▁pharmacy	-12.4566
▁spanish	-12.4566
▁tasty	-12.4566
▁Twister	-12.4566
▁Teacher	-12.4566
▁charity	-12.4566
▁sedan	-12.4566
▁twenty	-12.4566
▁Revolution	-12.4566
▁announcement	-12.4566
▁europe	-12.4566
▁lemonade	-12.4566
▁stitch	-12.4566
▁Hollywood	-12.4566
▁checkerboard	-12.4566
▁buff	-12.4566
▁swallow	-12.4566
▁delicious	-12.4566
▁tasting	-12.4566
▁smartphone	-12.4567
▁loop	-12.4567
▁Spain	-12.4567
▁boom	-12.4567
▁countries	-12.4567
▁joking	-12.4567
▁sheepdog	-12.4567
▁unpack	-12.4567
otocross	-12.4567
▁situat	-12.4567
▁fanny	-12.4567
▁gang	-12.4567
▁pursuit	-12.4567
▁refrigerator	-12.4567
▁triangle	-12.4567
▁desp	-12.4567
▁mike	-12.4567
▁grating	-12.4567
▁Bridge	-12.4567
▁placard	-12.4567
▁magician	-12.4567
▁boundary	-12.4567
▁alert	-12.4567
▁indig	-12.4567
▁scroll	-12.4568
▁hipster	-12.4568
▁jetty	-12.4568
▁recital	-12.4568
▁chessboard	-12.4568
▁amazed	-12.4568
▁punt	-12.4568
▁centr	-12.4568
▁trough	-12.4569
ished	-12.4569
itive	-12.4569
▁pluck	-12.4569
▁Gentlemen	-12.4569
racial	-12.457
▁detector	-12.457
▁tr	-12.457
▁misses	-12.457
▁Twin	-12.4571
▁observers	-12.4571
▁manner	-12.4571
▁keyboardist	-12.4571
▁twister	-12.4571
▁dude	-12.4571
▁imitat	-12.4571
▁nest	-12.4572
▁grandchild	-12.4573
▁Row	-12.4574
▁poll	-12.4575
illager	-12.4575
▁median	-12.4575
▁Center	-12.4575
▁regard	-12.4575
▁shut	-12.4576
▁passage	-12.4576
▁peacefully	-12.4576
▁flippers	-12.4576
scape	-12.4576
▁dingy	-12.4577
▁tooth	-12.4578
▁distracted	-12.4579
▁recliner	-12.4579
▁Skii	-12.458
▁marking	-12.4581
▁spectate	-12.4581
▁haz	-12.4581
▁stretcher	-12.4581
▁tech	-12.4581
▁divider	-12.4581
▁duty	-12.4582
▁DS	-12.4582
▁hunter	-12.4583
▁Crocs	-12.4584
▁piercing	-12.4586
▁goth	-12.4587
▁unusually	-12.4587
▁busily	-12.4587
▁pep	-12.4589
▁future	-12.459
▁frolick	-12.459
▁puzzled	-12.4591
▁healthy	-12.4592
▁overflowing	-12.4593
robe	-12.4595
▁applauding	-12.4596
▁whispering	-12.4596
▁cramp	-12.4597
▁clasped	-12.4603
▁billowing	-12.4605
▁Love	-12.4605
▁evil	-12.4607
hooping	-12.4608
▁scrubbing	-12.461
▁prey	-12.4611
▁mates	-12.4612
affe	-12.4615
▁signage	-12.4616
▁describe	-12.4617
▁waterski	-12.4618
tch	-12.4619
▁needed	-12.4619
▁grayish	-12.4624
▁pace	-12.4624
▁hilltop	-12.4628
▁pews	-12.4629
▁dodge	-12.4632
ate	-12.4637
▁primar	-12.4639
▁protectors	-12.4641
ctively	-12.4643
▁commo	-12.4645
▁novelt	-12.4647
▁braiding	-12.4648
▁deeply	-12.4651
▁now	-12.4665
▁backside	-12.4666
▁assembles	-12.4667
cific	-12.4667
fully	-12.467
▁movements	-12.4675
▁coals	-12.4675
▁execute	-12.4679
▁sucker	-12.468
▁strokes	-12.4686
▁Cal	-12.4689
RO	-12.469
▁presen	-12.469
ox	-12.4691
▁resemble	-12.4694
▁lego	-12.4697
▁details	-12.4698
▁fixtures	-12.4709
▁wristbands	-12.4721
ril	-12.4727
titled	-12.4731
▁muscles	-12.4736
▁vie	-12.4739
▁parasails	-12.4745
▁informal	-12.4749
▁due	-12.4754
▁res	-12.4764
▁today	-12.4773
ied	-12.4788
▁bowed	-12.4791
bur	-12.4793
ka	-12.4801
▁ascend	-12.4812
▁Adidas	-12.4817
▁desserts	-12.4825
▁Lea	-12.4833
▁pies	-12.4852
rk	-12.4883
▁rags	-12.4886
▁arrange	-12.4897
▁cigars	-12.4918
▁bean	-12.4941
▁waterfalls	-12.4953
ium	-12.4954
▁lightly	-12.499
▁smok	-12.5034
▁able	-12.5045
▁mugs	-12.5048
▁cal	-12.505
shes	-12.5052
chipper	-12.5057
end	-12.5071
▁sto	-12.5087
▁nuns	-12.5106
▁supports	-12.5134
▁fitt	-12.5138
▁sta	-12.5147
ested	-12.5151
▁beats	-12.516
▁infants	-12.5164
▁humans	-12.5167
▁rat	-12.5169
▁busk	-12.5175
gen	-12.52
▁feat	-12.5212
ER	-12.5213
▁collid	-12.5233
going	-12.5264
▁daughters	-12.5271
▁rower	-12.5286
▁sanit	-12.5299
▁mopeds	-12.53
ids	-12.5309
▁menus	-12.5317
▁feature	-12.5321
▁min	-12.5324
rought	-12.5329
▁cuddle	-12.5357
▁mu	-12.5376
▁jo	-12.5379
▁ask	-12.5396
▁chipp	-12.5405
tem	-12.5405
ins	-12.5424
ense	-12.5436
mat	-12.5438
uve	-12.544
RE	-12.5452
▁fiddl	-12.5452
▁Sha	-12.5457
▁sandal	-12.5477
▁wa	-12.5494
arm	-12.5519
▁hero	-12.5528
▁sur	-12.554
▁knits	-12.5558
ista	-12.5563
▁energ	-12.558
chi	-12.5583
▁alter	-12.561
ank	-12.5611
▁spreads	-12.562
▁weld	-12.5629
EN	-12.5639
▁Fisher	-12.5655
hin	-12.5678
▁chop	-12.5694
ON	-12.5696
Do	-12.5707
▁scrambl	-12.5709
▁roman	-12.571
lor	-12.5713
▁chemical	-12.5719
▁root	-12.572
▁document	-12.5721
▁veteran	-12.5721
▁instruction	-12.5723
▁cutout	-12.5724
▁spectator	-12.5726
▁soak	-12.5726
▁jobs	-12.5729
nning	-12.5738
▁traveler	-12.5743
cap	-12.5746
▁overall	-12.5752
▁styl	-12.5754
▁mot	-12.5764
skating	-12.5768
panel	-12.5768
writ	-12.5768
golf	-12.5769
school	-12.5769
orange	-12.5769
▁hous	-12.5773
▁straddle	-12.5775
▁equ	-12.579
hot	-12.5792
▁steadie	-12.5794
zens	-12.5794
▁server	-12.5798
rider	-12.5801
riding	-12.5804
▁sna	-12.5809
▁outline	-12.581
▁blaz	-12.5811
▁crow	-12.5811
ING	-12.5811
▁Ha	-12.5811
▁injur	-12.5812
▁sparse	-12.5814
▁pebbl	-12.5814
▁preserve	-12.5815
▁seren	-12.5815
lementary	-12.5816
▁sac	-12.5816
▁author	-12.5816
quaint	-12.5816
▁Michael	-12.5816
▁distribut	-12.5816
▁encourag	-12.5816
▁geisha	-12.5816
▁opposition	-12.5816
▁remodel	-12.5816
▁scribbl	-12.5816
▁shrug	-12.5816
▁slush	-12.5816
▁stewardess	-12.5816
▁stumbl	-12.5816
uarterback	-12.5816
▁Birmingham	-12.5816
▁Collie	-12.5816
▁Dior	-12.5816
▁Extreme	-12.5816
▁Festival	-12.5816
▁Grouch	-12.5816
▁Iowa	-12.5816
▁Louis	-12.5816
▁Pigeon	-12.5816
▁Traveler	-12.5816
▁appropriate	-12.5816
▁atmosphere	-12.5816
▁benefit	-12.5816
▁briskly	-12.5816
▁buffalo	-12.5816
▁chorus	-12.5816
▁colleague	-12.5816
▁crevice	-12.5816
▁crisp	-12.5816
▁droplets	-12.5816
▁envelope	-12.5816
▁eyeshadow	-12.5816
▁frustrated	-12.5816
▁fuchsia	-12.5816
▁garter	-12.5816
▁gender	-12.5816
▁geyser	-12.5816
▁gnaw	-12.5816
▁handgun	-12.5816
▁identify	-12.5816
▁loudspeaker	-12.5816
▁nervous	-12.5816
▁palace	-12.5816
▁pantyhose	-12.5816
▁parrot	-12.5816
▁perspective	-12.5816
▁proceed	-12.5816
▁shrimp	-12.5816
▁shuffl	-12.5816
▁sightseeing	-12.5816
▁slalom	-12.5816
▁snuggling	-12.5816
▁stencil	-12.5816
▁swiftly	-12.5816
▁timber	-12.5816
▁trophies	-12.5816
▁twenties	-12.5816
▁worried	-12.5816
▁Corp	-12.5816
▁Pitcher	-12.5816
▁consider	-12.5816
▁crossbones	-12.5816
▁extravagant	-12.5816
▁headlamp	-12.5816
▁Racing	-12.5816
▁choice	-12.5816
▁keg	-12.5816
▁access	-12.5816
▁frightened	-12.5816
aredevil	-12.5816
▁intercept	-12.5816
▁hurl	-12.5816
▁please	-12.5816
▁speck	-12.5816
▁stories	-12.5817
▁automat	-12.5817
▁biscuit	-12.5817
▁entryway	-12.5817
Miller	-12.5817
▁hello	-12.5817
▁property	-12.5817
▁tickl	-12.5817
▁Tree	-12.5817
▁pouch	-12.5817
▁dramatically	-12.5817
▁miniskirt	-12.5817
▁wound	-12.5817
▁preteen	-12.5817
Paul	-12.5817
▁sunbathers	-12.5817
▁correct	-12.5817
▁cuff	-12.5817
▁dugout	-12.5817
▁Paris	-12.5817
▁delight	-12.5817
▁latter	-12.5817
▁version	-12.5817
▁fool	-12.5817
empt	-12.5817
▁crank	-12.5817
▁pulp	-12.5817
▁camo	-12.5817
▁rays	-12.5817
▁sick	-12.5817
▁cellist	-12.5817
▁daring	-12.5817
▁corset	-12.5817
▁cornfield	-12.5818
▁posses	-12.5818
▁salesman	-12.5818
▁concentration	-12.5818
▁leisurely	-12.5818
▁dozes	-12.5818
▁disinterested	-12.5818
▁waste	-12.5818
▁earpiece	-12.5819
▁production	-12.5819
▁trudg	-12.582
▁reel	-12.582
▁fling	-12.582
▁boss	-12.582
▁Palestinian	-12.582
▁opportunity	-12.582
▁barbell	-12.5821
▁dove	-12.5821
▁shipping	-12.5821
▁jaw	-12.5822
uslim	-12.5822
▁grid	-12.5822
▁grim	-12.5823
▁Penn	-12.5823
▁slim	-12.5824
▁tangle	-12.5824
▁exhausted	-12.5824
▁daycare	-12.5825
▁union	-12.5825
▁grownup	-12.5826
▁Canada	-12.5827
screw	-12.5827
▁fringe	-12.5827
▁Officer	-12.5827
▁ethnicity	-12.5827
▁dj	-12.583
▁Sled	-12.5831
▁vertically	-12.5831
▁boyfriend	-12.5831
▁archery	-12.5831
▁cola	-12.5832
painting	-12.5832
▁rafters	-12.5832
▁Hug	-12.5832
▁bot	-12.5833
▁End	-12.5833
▁thigh	-12.5836
▁God	-12.5837
ddy	-12.5841
▁dueling	-12.5841
▁talkie	-12.5844
▁Bill	-12.5846
▁Welcome	-12.5847
▁cot	-12.5848
▁consumer	-12.5849
▁House	-12.5852
▁Ferr	-12.5854
▁ornately	-12.5855
▁rein	-12.5855
▁prepp	-12.5857
opy	-12.5859
▁grapes	-12.5862
FL	-12.5863
▁toned	-12.5867
mon	-12.5868
▁whitewater	-12.5871
▁plum	-12.5879
▁bloody	-12.5886
▁routines	-12.5887
▁sunbathes	-12.5888
▁kart	-12.5888
▁spare	-12.589
▁crashed	-12.5893
▁shine	-12.5894
▁Fat	-12.5894
▁carrots	-12.5901
▁prays	-12.5902
▁conducts	-12.5902
same	-12.5909
▁relative	-12.591
▁roots	-12.5914
▁tubs	-12.5916
▁pa	-12.5916
▁vers	-12.5918
▁waterskis	-12.5924
▁scramble	-12.5925
▁May	-12.5926
▁remains	-12.5926
▁bagels	-12.5927
▁gra	-12.593
▁Grandm	-12.595
▁Line	-12.5956
cuba	-12.5959
▁pamphlets	-12.5966
▁feeling	-12.5968
▁squatt	-12.5978
▁hours	-12.5979
▁waffles	-12.5979
▁dam	-12.598
▁received	-12.5983
▁vines	-12.5993
▁bones	-12.5993
evil	-12.5993
▁sweets	-12.6006
▁twins	-12.6006
▁date	-12.6007
▁pastor	-12.6013
▁tambourines	-12.6032
▁mos	-12.6033
amper	-12.6045
▁sweats	-12.6048
▁Camera	-12.6048
▁hops	-12.6049
arching	-12.6059
▁crabs	-12.6063
ilot	-12.6066
▁respective	-12.6068
▁specialize	-12.6076
ora	-12.6084
▁bowties	-12.6085
▁newlyweds	-12.6085
▁wrists	-12.6085
▁hatch	-12.6089
▁staying	-12.6089
ache	-12.6094
olv	-12.6118
▁advance	-12.6119
▁wish	-12.612
▁washers	-12.6121
▁ornaments	-12.6125
▁shadowed	-12.6138
▁bodysuits	-12.6138
ience	-12.6147
gie	-12.6157
▁sucks	-12.6166
rank	-12.6181
oh	-12.6185
▁Pi	-12.6209
▁painters	-12.6232
▁hooks	-12.6261
▁Kl	-12.6291
▁experiments	-12.6313
tops	-12.6328
▁loves	-12.6331
▁Fair	-12.6331
ude	-12.634
▁sw	-12.6354
▁Roman	-12.6371
powered	-12.6379
▁lassos	-12.6386
▁Ri	-12.639
▁def	-12.6392
ving	-12.6413
ummer	-12.6443
▁mob	-12.646
▁showering	-12.648
▁briefcases	-12.6491
shir	-12.6508
▁patt	-12.6511
▁neu	-12.6518
▁mustach	-12.6542
▁Las	-12.6548
oking	-12.6563
illa	-12.6572
rmen	-12.6581
▁rent	-12.6589
▁rods	-12.6591
▁links	-12.6631
risk	-12.6636
mar	-12.6651
mal	-12.6658
evel	-12.6701
▁instruct	-12.6737
corn	-12.6739
▁Mount	-12.6742
tted	-12.6752
▁Ya	-12.6754
▁spoons	-12.68
ray	-12.6803
▁ally	-12.6823
▁sodas	-12.6828
▁Pop	-12.6832
rade	-12.6864
▁Side	-12.687
▁unicycles	-12.6871
ual	-12.6905
oni	-12.6913
imi	-12.6928
surf	-12.6946
avan	-12.6968
ism	-12.6974
▁ru	-12.6988
▁terr	-12.701
TO	-12.7015
▁com	-12.7031
une	-12.7032
ff	-12.7041
▁conduct	-12.7053
▁pray	-12.7069
▁Fam	-12.7077
▁resembl	-12.7081
paint	-12.7103
tically	-12.711
▁travers	-12.7123
CE	-12.7126
climb	-12.7126
▁choos	-12.7128
water	-12.7129
▁scar	-12.7144
▁blind	-12.7146
▁skewer	-12.7146
▁horseshoe	-12.7147
▁Lin	-12.7148
▁carrot	-12.7148
▁tread	-12.715
▁pineapple	-12.715
▁steak	-12.715
▁accent	-12.715
▁involve	-12.7152
▁protector	-12.7152
▁rollerskater	-12.7152
quin	-12.7152
wind	-12.7153
▁Hiker	-12.7154
▁sneaker	-12.7155
▁Farmer	-12.7157
▁met	-12.7165
▁slat	-12.717
▁smirk	-12.717
▁loiter	-12.7171
▁dec	-12.7175
▁woodwork	-12.7183
parent	-12.7185
Shirt	-12.7194
workers	-12.7195
hawk	-12.7196
cake	-12.7196
special	-12.7197
horn	-12.7197
skirt	-12.7197
thumbs	-12.7197
weather	-12.7197
pattern	-12.7197
throw	-12.7197
Asian	-12.7197
rink	-12.7197
love	-12.7198
uniform	-12.7198
level	-12.72
▁dispens	-12.72
leap	-12.7201
burn	-12.7206
with	-12.7207
▁Run	-12.7209
hold	-12.7214
▁report	-12.7216
▁skydive	-12.7218
▁contort	-12.722
lected	-12.7228
▁retai	-12.7229
▁Wait	-12.723
▁supervise	-12.7236
▁demolish	-12.7236
▁origin	-12.7237
▁ethnicit	-12.7238
▁thir	-12.7238
▁corr	-12.7238
▁smart	-12.7241
▁awkward	-12.7241
▁Indi	-12.7242
▁excavat	-12.7243
visib	-12.7244
ricket	-12.7244
atrons	-12.7245
▁volley	-12.7245
▁Color	-12.7245
xford	-12.7245
ditional	-12.7245
▁Tinker	-12.7245
▁client	-12.7245
▁diploma	-12.7245
▁gadget	-12.7245
erizon	-12.7245
▁Athletic	-12.7245
▁Canyon	-12.7245
▁Coffee	-12.7245
▁Doberman	-12.7245
▁England	-12.7245
▁Excit	-12.7245
▁Factory	-12.7245
▁Field	-12.7245
▁Georg	-12.7245
▁Heineken	-12.7245
▁Image	-12.7245
▁Memorial	-12.7245
▁Mercedes	-12.7245
▁Monster	-12.7245
▁Nurse	-12.7245
▁Participant	-12.7245
▁Restaurant	-12.7245
▁Scientist	-12.7245
▁Short	-12.7245
▁Tibetan	-12.7245
▁Tower	-12.7245
▁Walgreens	-12.7245
▁appliance	-12.7245
▁arguing	-12.7245
▁arriving	-12.7245
▁bookcase	-12.7245
▁bratwurst	-12.7245
▁broccoli	-12.7245
▁bullfight	-12.7245
▁burlap	-12.7245
▁cactus	-12.7245
▁calligraphy	-12.7245
▁carcass	-12.7245
▁clover	-12.7245
▁crumb	-12.7245
▁detergent	-12.7245
▁dojo	-12.7245
▁duties	-12.7245
▁engrav	-12.7245
▁falcon	-12.7245
▁faux	-12.7245
▁flamboyant	-12.7245
▁flexible	-12.7245
▁freezer	-12.7245
▁glue	-12.7245
▁gurney	-12.7245
▁habit	-12.7245
▁iMac	-12.7245
▁iPhone	-12.7245
▁knoll	-12.7245
▁lattice	-12.7245
▁mechanism	-12.7245
▁moored	-12.7245
▁moustache	-12.7245
▁particular	-12.7245
▁perplexed	-12.7245
▁pitchfork	-12.7245
▁plugs	-12.7245
▁poultry	-12.7245
▁private	-12.7245
▁replica	-12.7245
▁result	-12.7245
▁squints	-12.7245
▁strength	-12.7245
▁supervising	-12.7245
▁sync	-12.7245
▁throat	-12.7245
▁tobacco	-12.7245
▁toenails	-12.7245
▁urinat	-12.7245
▁viewfinder	-12.7245
▁vigil	-12.7245
▁vigorous	-12.7245
▁windshield	-12.7245
▁wreath	-12.7245
▁yacht	-12.7245
▁Bud	-12.7245
▁armchair	-12.7245
▁banister	-12.7245
▁easy	-12.7245
▁gypsy	-12.7245
▁intrigu	-12.7245
▁maze	-12.7245
▁rugged	-12.7245
▁scowl	-12.7245
▁windsurfs	-12.7245
▁affection	-12.7245
▁explosion	-12.7245
▁gleeful	-12.7245
▁obliv	-12.7245
▁slouch	-12.7245
▁Buy	-12.7245
▁Mariach	-12.7245
▁chinatown	-12.7245
▁stalks	-12.7245
▁compound	-12.7245
▁lodge	-12.7245
▁renovat	-12.7245
▁rotat	-12.7245
▁Tech	-12.7245
▁bluff	-12.7245
▁dominate	-12.7245
▁plaster	-12.7245
▁supervision	-12.7245
▁cascad	-12.7245
▁click	-12.7245
▁shuttle	-12.7245
▁fortune	-12.7245
▁beetle	-12.7245
▁liberty	-12.7245
▁burrito	-12.7245
▁violence	-12.7245
▁ferret	-12.7245
▁advantage	-12.7245
▁passageway	-12.7245
▁align	-12.7245
▁milkshake	-12.7245
▁reenactment	-12.7245
▁moose	-12.7245
▁starfish	-12.7245
▁chute	-12.7245
▁hatchet	-12.7245
▁emblem	-12.7245
▁Marine	-12.7245
▁Hang	-12.7245
▁gutter	-12.7245
▁rottweiler	-12.7245
▁emptie	-12.7245
▁rigging	-12.7245
▁nipple	-12.7245
▁foul	-12.7245
▁comfortably	-12.7246
▁kitty	-12.7246
▁snail	-12.7246
▁excavation	-12.7246
▁pinwheel	-12.7246
ehind	-12.7246
▁brandish	-12.7246
▁duct	-12.7246
▁Cricket	-12.7246
airie	-12.7246
▁grandma	-12.7246
▁rins	-12.7246
▁Series	-12.7246
Tube	-12.7246
▁installation	-12.7246
▁Businessman	-12.7246
▁organization	-12.7246
▁vandali	-12.7246
▁brake	-12.7246
▁Doll	-12.7247
▁Egy	-12.7247
▁goalkeeper	-12.7247
aura	-12.7247
▁sandpit	-12.7247
▁Cure	-12.7247
▁budd	-12.7248
▁kel	-12.7248
▁midday	-12.7248
▁buzz	-12.7248
▁household	-12.7248
▁farmland	-12.7248
abst	-12.7248
▁pian	-12.7248
▁clenched	-12.7248
▁dripping	-12.7248
▁vat	-12.7249
▁propeller	-12.7249
oise	-12.7249
ushing	-12.7249
▁effort	-12.7249
▁touchdown	-12.7249
▁via	-12.725
▁impo	-12.725
▁Cand	-12.725
▁maid	-12.7251
curity	-12.7251
▁mattresses	-12.7251
▁occupy	-12.7251
▁stapl	-12.7251
▁startled	-12.7252
▁Hard	-12.7252
▁bail	-12.7254
antic	-12.7254
rchaeologist	-12.7254
▁tye	-12.7254
CH	-12.7254
▁gut	-12.7254
▁PC	-12.7255
▁splatter	-12.7257
▁divided	-12.7258
▁mosque	-12.7259
▁West	-12.7259
▁Or	-12.726
▁portly	-12.726
▁handsaw	-12.7261
▁massage	-12.7262
ntly	-12.7262
▁pic	-12.7263
▁outfielder	-12.7263
▁dine	-12.7264
▁arrested	-12.7265
▁ripple	-12.7265
culin	-12.7266
▁coil	-12.7266
▁Climber	-12.7267
▁spokes	-12.7268
▁grade	-12.7271
▁skim	-12.7271
▁cath	-12.7273
▁pranc	-12.7277
▁outfield	-12.7278
▁wildly	-12.7278
▁cock	-12.7279
▁welcome	-12.728
▁Hol	-12.7282
▁frowns	-12.7283
▁darkness	-12.7286
▁condoms	-12.7287
▁defended	-12.7294
▁did	-12.7294
▁cruiser	-12.7295
▁Shirt	-12.7296
▁hairdo	-12.7296
cover	-12.7296
▁steeple	-12.73
cro	-12.7304
▁packet	-12.7308
▁lakeside	-12.7309
▁bal	-12.7311
erry	-12.7313
▁researcher	-12.7313
▁autographs	-12.7313
▁sunflowers	-12.7313
▁propell	-12.7315
▁setup	-12.7326
▁bulbs	-12.7328
▁marshmallows	-12.7328
▁graze	-12.7329
▁grassland	-12.7331
hats	-12.7339
▁sin	-12.7341
▁horseshoes	-12.7343
▁Mac	-12.7344
pi	-12.7351
eague	-12.7353
▁laborer	-12.7356
▁promote	-12.7356
▁scare	-12.7358
▁chemicals	-12.7359
▁skit	-12.7361
▁poolside	-12.7367
agged	-12.7379
▁lambs	-12.7389
▁Racer	-12.7396
wearing	-12.7399
▁continues	-12.7404
We	-12.7413
enty	-12.7413
unny	-12.7415
▁ver	-12.7416
▁kicker	-12.7419
▁cocktails	-12.742
▁lessons	-12.742
working	-12.7426
▁throughout	-12.7426
▁liner	-12.7437
▁sweating	-12.7447
▁leis	-12.745
▁bongos	-12.745
▁techniques	-12.745
▁sweeper	-12.7455
uit	-12.7468
rg	-12.7484
hero	-12.7493
scar	-12.751
ost	-12.7517
cc	-12.7519
ordina	-12.7522
nny	-12.7527
▁skillful	-12.7532
▁Fre	-12.7534
zag	-12.7536
▁stickers	-12.754
▁diapers	-12.7559
ari	-12.7561
▁raging	-12.7564
▁bells	-12.7575
▁Bi	-12.7597
stern	-12.7609
▁fare	-12.7615
carts	-12.7619
▁innertubes	-12.7621
▁whip	-12.763
▁announc	-12.7633
▁cells	-12.7635
▁partners	-12.7637
▁wakeboards	-12.764
ello	-12.764
nda	-12.7642
▁compl	-12.7648
abs	-12.7651
▁swans	-12.7652
▁offerings	-12.7652
▁seed	-12.7654
▁mansion	-12.7655
▁turkeys	-12.7668
▁stays	-12.7671
ropped	-12.768
▁tort	-12.7681
cell	-12.7685
▁sco	-12.7685
▁tackler	-12.7687
▁seller	-12.7697
ria	-12.7699
▁companions	-12.7699
seat	-12.7731
cious	-12.7738
BS	-12.7738
▁lassoing	-12.7741
▁lad	-12.7761
trum	-12.7768
▁viewers	-12.7782
each	-12.7786
▁golfers	-12.7794
▁lac	-12.7794
▁cha	-12.7797
sign	-12.7799
▁awnings	-12.781
iffe	-12.7818
▁Cam	-12.7837
▁handbags	-12.7842
▁fu	-12.7847
boarder	-12.7853
▁sil	-12.786
▁observ	-12.7873
▁buttoned	-12.7887
link	-12.7895
▁spotlights	-12.7906
▁op	-12.7913
amin	-12.7918
▁respirat	-12.7922
cks	-12.7924
▁wr	-12.795
inated	-12.7957
icken	-12.7959
▁atv	-12.7966
▁judg	-12.7974
vic	-12.7991
ark	-12.8004
boo	-12.8024
uce	-12.8025
NE	-12.8045
ttractive	-12.8063
ctive	-12.8073
ngry	-12.8076
ken	-12.8109
dge	-12.8109
za	-12.8123
▁Nu	-12.813
▁Steve	-12.8212
▁pur	-12.8254
aster	-12.8271
GI	-12.8277
▁bro	-12.8312
▁brim	-12.8318
ES	-12.832
▁ne	-12.8321
▁pi	-12.8323
▁pursue	-12.8334
tude	-12.8336
▁polar	-12.8373
use	-12.8389
ecked	-12.8399
▁rad	-12.8405
face	-12.8423
dense	-12.8446
formal	-12.8462
hio	-12.8471
▁rid	-12.8472
rch	-12.8492
ound	-12.8499
▁Monk	-12.8512
how	-12.8512
sks	-12.8533
orm	-12.854
▁Che	-12.8547
▁sew	-12.8547
rod	-12.856
▁si	-12.8563
▁teach	-12.8623
▁Fin	-12.863
aving	-12.8633
uk	-12.8647
pti	-12.8677
▁latin	-12.8681
unning	-12.8682
▁scrub	-12.8686
dropped	-12.8689
▁swe	-12.8692
▁na	-12.8698
pie	-12.8701
▁Toy	-12.8716
▁yell	-12.8748
▁twirl	-12.8762
dir	-12.8763
tress	-12.8779
▁novel	-12.8792
dress	-12.8799
etting	-12.8809
▁chandelier	-12.8811
▁rollerblade	-12.8813
▁snowfall	-12.8813
▁bulb	-12.8814
▁marshmallow	-12.8814
stre	-12.8814
▁sunbathe	-12.8815
fest	-12.8815
▁eyebrow	-12.8816
▁kabob	-12.8817
▁pepper	-12.8817
▁refreshment	-12.8818
▁hunt	-12.8818
▁Sport	-12.8818
▁zoom	-12.8819
ockey	-12.8819
▁handlebar	-12.882
▁bystander	-12.882
▁Teenager	-12.8823
▁visitor	-12.8823
▁pew	-12.8823
▁decor	-12.8825
▁actor	-12.8825
▁shopper	-12.8826
▁propel	-12.8826
▁firework	-12.883
▁headlight	-12.8832
▁describ	-12.8835
▁grave	-12.8836
band	-12.8844
clud	-12.8844
wall	-12.8845
▁frost	-12.8846
▁slum	-12.8848
▁Camp	-12.8849
▁Tab	-12.885
bag	-12.8851
iver	-12.8852
plane	-12.8853
potty	-12.8859
▁va	-12.886
maker	-12.8863
NO	-12.8863
nail	-12.8863
foot	-12.8863
frame	-12.8864
peace	-12.8864
two	-12.8864
scene	-12.8864
floor	-12.8864
jacket	-12.8864
action	-12.8864
zoo	-12.8864
match	-12.8865
kick	-12.8865
bearded	-12.8866
dance	-12.8867
walled	-12.8867
▁arc	-12.8869
skate	-12.8869
▁husk	-12.887
post	-12.887
well	-12.8874
▁trad	-12.8874
▁journal	-12.8875
bet	-12.8879
ripe	-12.8879
tended	-12.8881
gue	-12.8882
▁Hous	-12.8887
▁arrest	-12.8889
ext	-12.8897
▁respect	-12.8898
innie	-12.8898
▁fas	-12.8906
▁shredd	-12.8908
ggling	-12.8908
▁Gree	-12.8909
▁tux	-12.8909
year	-12.891
▁Deli	-12.891
▁mode	-12.891
ative	-12.891
▁gentle	-12.8911
▁Domino	-12.8911
▁triang	-12.8911
▁elev	-12.8911
olleyball	-12.8911
▁bleache	-12.8911
mpact	-12.8911
▁delicate	-12.8911
▁euro	-12.8912
iberty	-12.8912
pposing	-12.8912
▁neighbor	-12.8912
ibbon	-12.8912
uiznos	-12.8912
▁Lab	-12.8912
▁excess	-12.8912
▁nibbl	-12.8912
Hollister	-12.8912
dominant	-12.8912
▁Amsterdam	-12.8912
▁Carnival	-12.8912
▁Carolina	-12.8912
▁Citizen	-12.8912
▁Club	-12.8912
▁Company	-12.8912
▁Cruz	-12.8912
▁Dalmatian	-12.8912
▁Dalmation	-12.8912
▁Guard	-12.8912
▁Haiti	-12.8912
▁Hind	-12.8912
▁Lakers	-12.8912
▁Michigan	-12.8912
▁Needle	-12.8912
▁Pacific	-12.8912
▁Pretty	-12.8912
▁Rollerblader	-12.8912
▁Saint	-12.8912
▁Service	-12.8912
▁Silhouette	-12.8912
▁Sleep	-12.8912
▁Special	-12.8912
▁Toronto	-12.8912
▁Trader	-12.8912
▁aerodynamic	-12.8912
▁affectionately	-12.8912
▁aloud	-12.8912
▁amphitheater	-12.8912
▁ashtray	-12.8912
▁bleeding	-12.8912
▁bookshelves	-12.8912
▁boutique	-12.8912
▁burst	-12.8912
▁celery	-12.8912
▁cherries	-12.8912
▁choke	-12.8912
▁collage	-12.8912
▁conceal	-12.8912
▁corgi	-12.8912
▁corporat	-12.8912
▁cucumber	-12.8912
▁cultivat	-12.8912
▁custodian	-12.8912
▁dangle	-12.8912
▁description	-12.8912
▁didgeridoo	-12.8912
▁dumbbell	-12.8912
▁eclectic	-12.8912
▁encounter	-12.8912
▁faint	-12.8912
▁festivities	-12.8912
▁flexibility	-12.8912
▁foosball	-12.8912
▁fowl	-12.8912
▁freedom	-12.8912
▁furnace	-12.8912
▁garish	-12.8912
▁general	-12.8912
▁hookah	-12.8912
▁interrupt	-12.8912
▁investigating	-12.8912
▁kangaroo	-12.8912
▁lagoon	-12.8912
▁lampshade	-12.8912
▁marquee	-12.8912
▁muffin	-12.8912
▁outstreached	-12.8912
▁oval	-12.8912
▁packaging	-12.8912
▁paragliding	-12.8912
▁partition	-12.8912
▁perfume	-12.8912
▁pharmacist	-12.8912
▁pizzeria	-12.8912
▁proclaim	-12.8912
▁prosthetic	-12.8912
▁qualit	-12.8912
▁queue	-12.8912
▁quintet	-12.8912
▁rehearse	-12.8912
▁response	-12.8912
▁rhythm	-12.8912
▁roulette	-12.8912
▁scrabble	-12.8912
▁shroud	-12.8912
▁slinky	-12.8912
▁sungalsses	-12.8912
▁sunshade	-12.8912
▁synthesizer	-12.8912
▁tapestry	-12.8912
▁texas	-12.8912
▁triathlon	-12.8912
▁underpass	-12.8912
▁venture	-12.8912
▁wharf	-12.8912
▁Border	-12.8912
▁Ranger	-12.8912
▁etching	-12.8912
▁pegs	-12.8912
▁reced	-12.8912
▁referenc	-12.8912
▁teepee	-12.8912
▁tinsel	-12.8912
Skater	-12.8912
▁David	-12.8912
▁Pupp	-12.8912
▁Tiger	-12.8912
▁aloft	-12.8912
▁jester	-12.8912
▁pendant	-12.8912
▁salt	-12.8912
▁wrinkle	-12.8912
Alaska	-12.8912
▁literature	-12.8912
▁analyz	-12.8912
▁meander	-12.8912
▁Capit	-12.8912
▁ruler	-12.8912
▁harle	-12.8912
▁minute	-12.8912
▁sideburns	-12.8912
azon	-12.8912
▁Guin	-12.8912
▁Theater	-12.8912
▁altar	-12.8912
▁disaster	-12.8912
▁improvement	-12.8912
▁crude	-12.8912
▁Minne	-12.8912
▁Life	-12.8912
▁blast	-12.8912
ckab	-12.8912
enice	-12.8912
▁Chinatown	-12.8912
▁Afro	-12.8912
▁modifie	-12.8912
▁championship	-12.8912
▁spectating	-12.8912
▁signify	-12.8912
▁lease	-12.8912
▁siding	-12.8912
irgin	-12.8912
narch	-12.8912
▁Yong	-12.8912
▁judo	-12.8912
▁smith	-12.8912
▁footpath	-12.8912
▁marine	-12.8912
▁filter	-12.8912
▁hollow	-12.8912
▁oboe	-12.8912
▁florist	-12.8912
▁alien	-12.8912
▁Winnie	-12.8912
▁Camel	-12.8912
▁Spark	-12.8912
▁Wedding	-12.8912
▁mood	-12.8912
▁percussionist	-12.8912
▁Rail	-12.8912
▁Basket	-12.8912
▁beef	-12.8913
▁Metro	-12.8913
▁reaction	-12.8913
▁Labor	-12.8913
▁contemporary	-12.8913
▁Sister	-12.8913
ackson	-12.8913
▁piling	-12.8913
▁hurri	-12.8913
▁Shelt	-12.8913
▁wax	-12.8913
▁fran	-12.8913
▁exist	-12.8913
▁retro	-12.8913
▁astonish	-12.8913
omino	-12.8913
▁prisoner	-12.8913
maran	-12.8913
▁digger	-12.8914
▁Hero	-12.8914
illian	-12.8914
vid	-12.8914
▁His	-12.8914
▁bushel	-12.8914
▁gracefully	-12.8914
▁placid	-12.8914
▁stating	-12.8914
▁Wine	-12.8914
▁pebbles	-12.8914
▁treatment	-12.8915
▁waders	-12.8915
▁manager	-12.8915
nual	-12.8915
▁anxiously	-12.8915
▁contently	-12.8915
kwon	-12.8915
▁silverware	-12.8915
▁Sub	-12.8915
▁ID	-12.8916
▁spun	-12.8916
▁smartly	-12.8917
▁showroom	-12.8917
▁Olympian	-12.8917
▁pagoda	-12.8917
▁pristine	-12.8917
taff	-12.8917
▁sparsely	-12.8917
▁glare	-12.8917
▁felt	-12.8918
uff	-12.8918
▁flatten	-12.8919
▁properly	-12.8919
▁idle	-12.8919
▁electricity	-12.8919
▁strainer	-12.8919
▁tipping	-12.892
▁supporters	-12.892
▁poem	-12.892
lled	-12.892
▁Hot	-12.892
▁known	-12.8921
▁mailboxes	-12.8921
▁idly	-12.8921
ploy	-12.8921
▁Beatle	-12.8922
▁soon	-12.8923
▁lenses	-12.8924
▁obstruct	-12.8925
▁kerchief	-12.8925
▁later	-12.8925
▁lapel	-12.8926
▁gallon	-12.8926
▁shuck	-12.8928
▁partial	-12.8928
vision	-12.8928
▁thank	-12.893
▁regular	-12.8935
pads	-12.8937
▁uniquely	-12.8937
▁scann	-12.8938
▁demolished	-12.8939
▁role	-12.8943
stomp	-12.8943
▁plushie	-12.8943
▁sidecar	-12.8944
▁snarling	-12.8946
▁prom	-12.8947
▁headpiece	-12.8951
▁trial	-12.8953
▁clips	-12.8954
▁Pen	-12.8955
▁inspector	-12.8955
▁preservers	-12.8958
▁sphere	-12.8959
▁accompanying	-12.8959
indow	-12.8964
Grill	-12.8967
▁vial	-12.8968
llen	-12.8969
▁hos	-12.8972
▁tango	-12.8979
▁fillet	-12.8981
▁assess	-12.8983
▁22	-12.8983
iously	-12.8986
▁harvested	-12.8987
▁manipulate	-12.8988
▁figurines	-12.8993
Class	-12.8995
▁blender	-12.8996
▁loitering	-12.9
2"	-12.9001
▁spectacle	-12.9002
AT	-12.9003
▁filed	-12.9006
▁twine	-12.9006
▁Runn	-12.901
▁dice	-12.9011
▁headlights	-12.9011
▁snowfalls	-12.9011
▁Monks	-12.9014
verish	-12.9015
▁businesses	-12.9018
▁My	-12.9022
proof	-12.9029
▁blinds	-12.903
▁skewers	-12.903
▁ward	-12.9035
▁hitter	-12.9038
▁thatch	-12.904
▁reclined	-12.904
▁obscure	-12.9044
▁teller	-12.9044
▁cutouts	-12.9048
▁Rob	-12.9048
▁Bicycler	-12.9051
▁battery	-12.9054
▁crocheting	-12.9054
▁beanbags	-12.9066
▁tears	-12.9083
▁bonnets	-12.9084
▁spouts	-12.9084
▁Fast	-12.9089
rching	-12.9091
▁polished	-12.9094
▁plume	-12.9095
▁arrangements	-12.9103
hungry	-12.9103
▁thousand	-12.9103
▁cit	-12.9105
izing	-12.9117
▁graduates	-12.9121
▁contestants	-12.9122
▁sparing	-12.9124
cloth	-12.9145
▁eras	-12.9147
▁command	-12.9148
bul	-12.9152
▁ill	-12.9153
▁attic	-12.9157
IL	-12.9162
▁Fo	-12.9164
▁panting	-12.9167
▁lollipops	-12.9176
▁thoughtful	-12.9177
bbing	-12.919
▁Form	-12.9196
▁Swi	-12.9198
her	-12.9201
itter	-12.9204
▁Outdoors	-12.9213
▁beakers	-12.9215
▁burns	-12.9217
oles	-12.9217
eeps	-12.9226
▁zombies	-12.9232
▁pails	-12.9232
▁Dal	-12.9236
▁nav	-12.9241
▁wondering	-12.9247
▁vases	-12.9251
▁buns	-12.9267
▁caricatures	-12.9269
▁tagg	-12.9281
▁smocks	-12.9288
▁snowmobiles	-12.9288
▁wands	-12.9289
▁comical	-12.9291
rin	-12.9291
▁wo	-12.9306
hu	-12.931
▁Whe	-12.9335
▁paraglide	-12.9337
unch	-12.9353
rape	-12.9361
RA	-12.9363
▁forth	-12.9364
uch	-12.9369
▁conven	-12.9372
ridge	-12.9414
▁scrubb	-12.9445
KE	-12.949
toned	-12.9523
ume	-12.9555
iki	-12.9575
▁mac	-12.9612
ems	-12.9614
▁cl	-12.9656
ancy	-12.9667
NA	-12.9695
shaven	-12.9706
bil	-12.9722
imm	-12.9725
HA	-12.9726
▁expo	-12.9746
▁Pan	-12.9763
▁victori	-12.9766
▁Ka	-12.9768
itation	-12.9791
▁Bunch	-12.9795
opping	-12.9821
cher	-12.9824
EL	-12.985
organ	-12.9862
cou	-12.989
hop	-12.989
pra	-12.9897
▁attache	-12.996
▁hel	-12.9965
▁bodyboard	-12.9999
ubby	-13
IS	-13.0011
spiration	-13.0014
izz	-13.0021
▁Gi	-13.003
mused	-13.0052
rov	-13.0055
▁Live	-13.0057
WI	-13.0096
▁Hul	-13.0116
MP	-13.0117
dical	-13.0141
▁clin	-13.0159
▁Bur	-13.0169
rick	-13.0185
▁sti	-13.02
▁Com	-13.0226
istant	-13.0242
TH	-13.0256
oid	-13.028
glider	-13.0282
clined	-13.0366
amm	-13.0371
▁clutche	-13.0393
lowers	-13.0412
rise	-13.0426
▁prec	-13.0447
didas	-13.0455
town	-13.0504
star	-13.0512
dresser	-13.0556
▁plat	-13.0563
atively	-13.0574
▁fli	-13.0577
vention	-13.0588
tri	-13.0593
skin	-13.0607
▁Pum	-13.061
ffi	-13.0629
hur	-13.0658
nned	-13.0668
thon	-13.0696
acky	-13.07
▁execut	-13.0703
▁knot	-13.0707
nished	-13.071
▁incomplete	-13.0718
▁obscur	-13.0721
suited	-13.0735
▁ignor	-13.0754
rolling	-13.0757
lantern	-13.0762
▁giggl	-13.0766
▁celebrat	-13.0785
▁dodg	-13.0792
▁graz	-13.0793
▁utiliz	-13.0795
▁figurine	-13.0813
▁illuminat	-13.0814
▁sunflower	-13.0814
▁autograph	-13.0814
▁content	-13.0816
▁Scout	-13.0817
▁condition	-13.0818
▁fingernail	-13.0818
▁drumstick	-13.0818
▁pretzel	-13.0818
▁fatigue	-13.082
▁Student	-13.082
▁donation	-13.082
▁binocular	-13.082
▁Lego	-13.0821
▁goggle	-13.0822
▁shingle	-13.0826
▁perus	-13.0827
hous	-13.0829
▁unto	-13.0838
mark	-13.0839
▁billow	-13.084
turn	-13.0842
▁cruis	-13.0844
game	-13.0846
▁CD	-13.0847
roof	-13.0848
▁fram	-13.0856
▁gam	-13.0857
▁consum	-13.0858
▁Cat	-13.0859
buttoned	-13.086
Welcome	-13.0861
pack	-13.0861
Love	-13.0861
completed	-13.0861
cycle	-13.0862
beater	-13.0862
dog	-13.0863
dancing	-13.0863
scope	-13.0863
drift	-13.0863
know	-13.0864
bound	-13.0864
cafe	-13.0864
clear	-13.0864
mouth	-13.0864
yellow	-13.0864
grass	-13.0865
visible	-13.0865
picker	-13.0865
black	-13.0866
New	-13.0866
gym	-13.0866
shake	-13.0867
▁Again	-13.0868
▁cram	-13.0872
naked	-13.0873
▁produc	-13.0875
▁sampl	-13.0877
▁crim	-13.0879
▁Climb	-13.088
bone	-13.0881
loom	-13.0883
▁erect	-13.0887
ackle	-13.0889
▁distract	-13.0889
clothed	-13.0892
usks	-13.09
▁inflate	-13.0903
▁damage	-13.0904
abby	-13.0904
▁inspir	-13.0907
▁anxious	-13.0907
▁Speed	-13.0909
urance	-13.091
▁careful	-13.0911
lurry	-13.0911
nglish	-13.0911
▁depart	-13.0911
urgeons	-13.0911
▁illustrat	-13.0911
ystanders	-13.0911
▁develop	-13.0911
▁civil	-13.0911
▁embl	-13.0911
▁Christ	-13.0911
▁Far	-13.0911
fensive	-13.0911
scribe	-13.0911
▁parachuti	-13.0911
ehicle	-13.0911
iolinist	-13.0911
isitors	-13.0911
rofile	-13.0911
eteran	-13.0911
▁handicap	-13.0911
▁technic	-13.0912
uddhist	-13.0912
▁Third	-13.0912
▁advert	-13.0912
▁churn	-13.0912
▁dream	-13.0912
▁prescription	-13.0912
▁request	-13.0912
▁secret	-13.0912
▁suggest	-13.0912
▁zig	-13.0912
Aladdin	-13.0912
Bienvenu	-13.0912
amurai	-13.0912
hihuahua	-13.0912
krain	-13.0912
mputee	-13.0912
potties	-13.0912
proxim	-13.0912
▁Angels	-13.0912
▁Arizona	-13.0912
▁Atlanta	-13.0912
▁Baltimore	-13.0912
▁Barcelona	-13.0912
▁Bronco	-13.0912
▁Butcher	-13.0912
▁Cream	-13.0912
▁Department	-13.0912
▁Derby	-13.0912
▁Donald	-13.0912
▁Express	-13.0912
▁Goalie	-13.0912
▁Golf	-13.0912
▁Grandfather	-13.0912
▁Hebrew	-13.0912
▁Illinois	-13.0912
▁Kenya	-13.0912
▁Liverpool	-13.0912
▁Mustang	-13.0912
▁National	-13.0912
▁Odeon	-13.0912
▁Oregon	-13.0912
▁Pepper	-13.0912
▁Pepsi	-13.0912
▁Phoenix	-13.0912
▁Planet	-13.0912
▁President	-13.0912
▁Priest	-13.0912
▁Samsung	-13.0912
▁Stitch	-13.0912
▁Surround	-13.0912
▁Welder	-13.0912
▁Winter	-13.0912
▁Wrestler	-13.0912
▁asparagus	-13.0912
▁biology	-13.0912
▁bistro	-13.0912
▁butterflies	-13.0912
▁casserole	-13.0912
▁chestnut	-13.0912
▁communicate	-13.0912
▁congratulat	-13.0912
▁corndogs	-13.0912
▁cosmetics	-13.0912
▁crocs	-13.0912
▁curry	-13.0912
▁custody	-13.0912
▁decrepit	-13.0912
▁depot	-13.0912
▁destroy	-13.0912
▁engulf	-13.0912
▁entangle	-13.0912
▁eyelashes	-13.0912
▁financial	-13.0912
▁freckled	-13.0912
▁harpsichord	-13.0912
▁hawaii	-13.0912
▁headwrap	-13.0912
▁huddling	-13.0912
▁icicle	-13.0912
▁inflating	-13.0912
▁inquisitive	-13.0912
▁introduc	-13.0912
▁lecturing	-13.0912
▁loaves	-13.0912
▁maracas	-13.0912
▁meditate	-13.0912
▁opinion	-13.0912
▁paraphernalia	-13.0912
▁pausing	-13.0912
▁pillowcase	-13.0912
▁president	-13.0912
▁protrud	-13.0912
▁provocative	-13.0912
▁pylon	-13.0912
▁regrets	-13.0912
▁relationship	-13.0912
▁remember	-13.0912
▁residence	-13.0912
▁saber	-13.0912
▁scythe	-13.0912
▁seamstress	-13.0912
▁seashell	-13.0912
▁seductive	-13.0912
▁shanty	-13.0912
▁sleek	-13.0912
▁snowflake	-13.0912
▁snuggle	-13.0912
▁spaniel	-13.0912
▁squid	-13.0912
▁stereo	-13.0912
▁strait	-13.0912
▁stubble	-13.0912
▁stucco	-13.0912
▁superior	-13.0912
▁surviv	-13.0912
▁syrup	-13.0912
▁tranquil	-13.0912
▁urinal	-13.0912
▁vows	-13.0912
▁wrench	-13.0912
▁yarmulke	-13.0912
purpose	-13.0912
▁Barbie	-13.0912
▁Papa	-13.0912
▁Smoke	-13.0912
▁appreciat	-13.0912
▁bonding	-13.0912
▁claim	-13.0912
▁crucifix	-13.0912
▁funnel	-13.0912
▁majestic	-13.0912
▁promenade	-13.0912
▁sophisticated	-13.0912
▁spindle	-13.0912
▁tatoo	-13.0912
▁wolf	-13.0912
fiving	-13.0912
ompetitive	-13.0912
recogni	-13.0912
▁Actors	-13.0912
▁Dame	-13.0912
▁climate	-13.0912
▁demand	-13.0912
▁goodbye	-13.0912
▁murder	-13.0912
▁peasant	-13.0912
▁successfully	-13.0912
▁heritage	-13.0912
▁portfolio	-13.0912
▁recycl	-13.0912
▁reef	-13.0912
▁skyward	-13.0912
▁wiener	-13.0912
▁headbutt	-13.0912
▁north	-13.0912
▁Harley	-13.0912
▁Scen	-13.0912
▁Tradition	-13.0912
▁atrium	-13.0912
expert	-13.0912
▁Oreo	-13.0912
▁breaststroke	-13.0912
▁contortionist	-13.0912
▁graveyard	-13.0912
▁Interior	-13.0912
▁Russel	-13.0912
▁contemplative	-13.0912
▁fumble	-13.0912
▁Gaza	-13.0912
▁Twenty	-13.0912
▁Airline	-13.0912
▁dealership	-13.0912
Barney	-13.0912
▁oppose	-13.0912
▁oxford	-13.0912
▁wristwatch	-13.0912
▁parasurf	-13.0912
▁sweatband	-13.0912
issan	-13.0912
▁Odd	-13.0912
▁grove	-13.0912
▁retreiv	-13.0912
▁moderate	-13.0912
▁Face	-13.0912
▁adventurous	-13.0912
efore	-13.0912
▁Pooh	-13.0912
▁whizz	-13.0912
▁futon	-13.0912
uitton	-13.0912
▁urn	-13.0912
▁masonry	-13.0912
▁refuse	-13.0912
▁Drummer	-13.0912
▁conifer	-13.0912
▁ivy	-13.0912
▁jelly	-13.0912
▁Statu	-13.0912
▁degree	-13.0912
▁lava	-13.0912
▁crook	-13.0912
▁Shake	-13.0912
▁Diner	-13.0912
▁gesticulates	-13.0912
▁elevation	-13.0912
▁slick	-13.0912
▁viking	-13.0912
nderground	-13.0912
▁Action	-13.0912
▁everybody	-13.0912
▁brook	-13.0912
▁clippers	-13.0912
▁Western	-13.0912
▁thong	-13.0912
▁masterpiece	-13.0912
▁Spring	-13.0912
▁pork	-13.0912
▁Chase	-13.0912
▁gauges	-13.0912
▁overtake	-13.0912
egret	-13.0912
▁dalmatian	-13.0912
▁pollut	-13.0912
▁stylist	-13.0912
▁history	-13.0912
▁Year	-13.0912
▁flapping	-13.0912
▁showgirl	-13.0912
▁Phil	-13.0912
▁groin	-13.0912
▁withdraw	-13.0912
▁plot	-13.0912
▁knob	-13.0912
gauge	-13.0912
▁leak	-13.0912
▁actress	-13.0912
▁lump	-13.0912
▁cough	-13.0912
▁furiously	-13.0912
ghett	-13.0912
▁wrought	-13.0912
▁bedspread	-13.0912
▁jesus	-13.0912
▁cannonball	-13.0912
▁expansive	-13.0912
▁fins	-13.0913
orah	-13.0913
▁Hood	-13.0913
▁promotion	-13.0913
▁fern	-13.0913
▁measurement	-13.0913
▁mono	-13.0913
▁trike	-13.0913
▁Merry	-13.0913
▁captiv	-13.0913
▁afar	-13.0913
HL	-13.0913
▁Keep	-13.0913
▁grace	-13.0913
▁kne	-13.0913
▁mission	-13.0913
▁sax	-13.0913
▁soloist	-13.0913
▁aviator	-13.0913
▁penalt	-13.0913
▁whack	-13.0913
▁Sailor	-13.0913
▁bask	-13.0914
ritish	-13.0914
▁Husk	-13.0914
▁invit	-13.0914
▁coz	-13.0914
ptu	-13.0914
▁medicine	-13.0914
▁insert	-13.0914
▁Dora	-13.0914
aneous	-13.0914
acrosse	-13.0915
▁eyepiece	-13.0915
▁Kite	-13.0915
▁memo	-13.0915
▁Cano	-13.0915
▁insurance	-13.0915
▁Our	-13.0916
▁linger	-13.0916
▁Dodge	-13.0916
▁sledge	-13.0916
AND	-13.0916
▁pear	-13.0916
andom	-13.0917
▁rodent	-13.0917
▁midway	-13.0917
▁linens	-13.0917
tual	-13.0917
▁stew	-13.0917
▁That	-13.0918
▁feast	-13.0918
rapper	-13.0918
▁duet	-13.0918
▁tumbles	-13.0918
▁election	-13.0918
▁immigration	-13.0918
▁transformer	-13.0918
▁Belly	-13.0919
▁edit	-13.0919
▁tabby	-13.0919
▁batteries	-13.0919
▁glassware	-13.0919
▁schoolwork	-13.092
▁dollies	-13.092
▁motorist	-13.092
▁mint	-13.092
sentence	-13.0921
▁chairlift	-13.0921
▁doz	-13.0922
▁Colorfully	-13.0922
▁saver	-13.0923
▁spur	-13.0923
▁sketches	-13.0923
▁cutter	-13.0924
▁Sam	-13.0924
bodie	-13.0924
▁supervised	-13.0925
▁distressed	-13.0925
▁urg	-13.0925
▁Die	-13.0925
suit	-13.0926
▁elegantly	-13.0927
▁sandbox	-13.0928
▁Ira	-13.0928
▁bobb	-13.0929
ternal	-13.0929
▁voic	-13.0929
▁Beer	-13.0929
▁dapple	-13.093
▁Inter	-13.093
▁AID	-13.093
▁stein	-13.093
▁hump	-13.093
▁swarm	-13.0933
oper	-13.0934
▁joint	-13.0935
▁negotiate	-13.0937
urt	-13.0937
▁snooze	-13.0938
▁enjoyment	-13.0941
▁Chan	-13.0942
▁donate	-13.0942
▁needle	-13.0942
▁communications	-13.0946
▁condiments	-13.0946
▁effects	-13.0946
suzu	-13.0946
▁underway	-13.0947
▁encircl	-13.0947
▁waterproof	-13.0948
▁instructed	-13.0948
▁raceway	-13.095
▁LA	-13.0951
▁breastfeeding	-13.0954
▁polishe	-13.0956
▁receiver	-13.0956
▁happened	-13.0962
▁airfield	-13.0963
lanterns	-13.0965
▁Hik	-13.0967
▁Har	-13.0968
▁Capris	-13.0968
▁deaths	-13.0968
▁eject	-13.0969
▁wedg	-13.097
▁Kill	-13.097
annot	-13.0972
endar	-13.0975
▁dispenser	-13.0977
▁illuminate	-13.098
▁potty	-13.0982
tled	-13.0982
▁fear	-13.0986
▁handcuffs	-13.0991
▁twigs	-13.0991
▁spinner	-13.0992
▁pats	-13.0992
▁shi	-13.0994
▁checker	-13.0997
urp	-13.0997
▁recreate	-13.1001
▁shove	-13.1002
▁videotaped	-13.1004
▁Rica	-13.1006
erf	-13.1009
yant	-13.1011
▁CDs	-13.1013
▁celebrated	-13.1015
▁singlet	-13.102
▁smirking	-13.102
▁tender	-13.1022
▁loader	-13.1023
▁slate	-13.1025
▁utilize	-13.103
▁Bare	-13.1033
▁chandeliers	-13.1036
▁whips	-13.1037
▁Toys	-13.1037
▁slipp	-13.1041
▁scan	-13.1049
tis	-13.1053
▁code	-13.1071
▁ignore	-13.1072
▁giggle	-13.1072
lice	-13.1073
bull	-13.1078
arian	-13.1081
▁choose	-13.1082
▁Rub	-13.1085
▁comed	-13.1089
▁explorer	-13.1093
▁Care	-13.11
▁Levi	-13.1104
▁ranger	-13.1119
lves	-13.1123
▁furnish	-13.1132
ipping	-13.1134
▁Perform	-13.1137
▁bomb	-13.1138
▁frie	-13.1144
▁Athlete	-13.116
afari	-13.1175
▁rescuer	-13.1181
figur	-13.119
elf	-13.1194
▁cu	-13.1194
latino	-13.1196
▁expose	-13.1197
▁earn	-13.1224
lks	-13.1229
Bron	-13.124
OS	-13.1274
acle	-13.1297
watch	-13.1334
rail	-13.1338
▁Cast	-13.1368
oyed	-13.1376
rim	-13.1381
zzle	-13.1385
▁Batt	-13.1395
ister	-13.1493
▁Shoppe	-13.1504
▁prep	-13.1512
NC	-13.1515
ja	-13.1543
trical	-13.1554
pad	-13.1578
▁Bol	-13.1593
▁pee	-13.1627
▁Fa	-13.1694
▁Fly	-13.17
▁precis	-13.1708
verhead	-13.1716
▁par	-13.1724
mmel	-13.1731
▁Bag	-13.1737
linked	-13.1757
▁Stev	-13.1838
ncle	-13.1855
▁san	-13.1862
mitten	-13.1892
▁paddler	-13.1896
▁Politic	-13.1902
ttle	-13.1938
▁Dan	-13.195
NY	-13.1979
▁pucker	-13.2007
lot	-13.2027
AD	-13.2046
▁Ben	-13.2075
gh	-13.2093
▁caress	-13.2098
▁hum	-13.2113
ripping	-13.214
▁nip	-13.2178
▁patti	-13.2205
apping	-13.221
dden	-13.2215
olitician	-13.2269
▁shoo	-13.2328
TE	-13.2366
▁Bat	-13.2457
ota	-13.2468
tacks	-13.2471
▁Fu	-13.2521
▁Bear	-13.253
handle	-13.2534
crobatic	-13.2561
iel	-13.257
mong	-13.2627
▁circl	-13.263
▁Cu	-13.2631
rical	-13.2656
yster	-13.2657
west	-13.2663
▁lan	-13.2677
▁week	-13.2687
ffle	-13.2692
par	-13.2702
ht	-13.2829
▁uni	-13.2856
Real	-13.2872
▁Fir	-13.2879
IG	-13.2886
▁cam	-13.2893
▁Min	-13.2898
tip	-13.2907
respectively	-13.2916
▁emit	-13.2953
drive	-13.2966
armed	-13.3045
cial	-13.3046
▁Son	-13.3056
▁gu	-13.3081
uni	-13.3127
▁curl	-13.3129
▁pat	-13.3158
▁THE	-13.3163
ucking	-13.3178
etro	-13.3202
orning	-13.3202
gree	-13.3221
cons	-13.324
lley	-13.3248
Th	-13.327
hol	-13.3273
▁Ori	-13.3274
q	-13.3283
▁Cab	-13.3283
rmos	-13.3288
▁shov	-13.3295
rows	-13.3296
▁Cla	-13.3307
▁handcuff	-13.3311
▁twig	-13.3312
▁juggle	-13.3315
▁grape	-13.3316
▁melon	-13.3316
▁utensil	-13.3316
▁dread	-13.3318
▁Starbuck	-13.3318
▁billiard	-13.3319
▁discus	-13.332
▁Pedestrian	-13.332
▁headphone	-13.3321
decorated	-13.3326
▁Paint	-13.3329
▁accompany	-13.3338
▁applaud	-13.334
▁whisper	-13.334
▁Kil	-13.3343
store	-13.3344
gra	-13.335
▁divid	-13.3352
horse	-13.3356
bins	-13.3356
▁futur	-13.3356
▁Photograph	-13.3358
form	-13.3358
gray	-13.3359
AL	-13.3361
step	-13.3362
point	-13.3362
punk	-13.3362
cock	-13.3362
guard	-13.3362
vaulting	-13.3363
Work	-13.3363
cultural	-13.3363
East	-13.3363
historic	-13.3363
world	-13.3364
patch	-13.3364
built	-13.3364
short	-13.3364
blowing	-13.3364
women	-13.3364
blond	-13.3364
close	-13.3364
wrappe	-13.3364
opened	-13.3364
through	-13.3364
beam	-13.3365
phones	-13.3365
fitting	-13.3365
clock	-13.3365
hockey	-13.3365
both	-13.3367
traffic	-13.3367
pile	-13.3367
force	-13.3369
upper	-13.3369
large	-13.3369
fish	-13.3371
corner	-13.3372
vial	-13.3372
gear	-13.3373
▁specta	-13.3376
▁glob	-13.3378
espa	-13.3379
▁orang	-13.338
most	-13.3382
vested	-13.3382
string	-13.3382
▁cylind	-13.3383
▁demoli	-13.3385
▁Office	-13.3388
▁concern	-13.3389
▁suspend	-13.3389
▁shock	-13.339
▁grou	-13.3393
team	-13.3393
▁Tea	-13.3394
obs	-13.3394
▁archaeologi	-13.3395
marked	-13.3395
Peace	-13.3396
culi	-13.3402
raffic	-13.3402
oggers	-13.3403
mini	-13.3403
▁perfo	-13.3405
ogether	-13.3406
ynchronize	-13.3407
▁wrest	-13.3407
▁passionate	-13.3408
▁graceful	-13.3408
PD	-13.3408
▁angr	-13.3409
▁crayo	-13.3409
▁aviat	-13.341
▁refrigerat	-13.341
▁cosplay	-13.3411
▁Prince	-13.3411
▁Protest	-13.3411
njoying	-13.3411
won	-13.3411
blading	-13.3411
▁danger	-13.3411
▁difficult	-13.3411
▁porc	-13.3411
creaming	-13.3411
oftball	-13.3411
▁suppl	-13.3411
▁drip	-13.3411
▁ecstatic	-13.3411
elicopter	-13.3412
▁brunet	-13.3412
▁Euro	-13.3412
losi	-13.3412
araoke	-13.3412
cumbe	-13.3412
▁Crouch	-13.3412
▁rebuild	-13.3412
▁Phone	-13.3412
▁Sallie	-13.3412
▁compress	-13.3412
▁deflect	-13.3412
▁interpret	-13.3412
▁script	-13.3412
▁sneez	-13.3412
Birthday	-13.3412
Frog	-13.3412
HSBC	-13.3412
November	-13.3412
aguar	-13.3412
asmine	-13.3412
descript	-13.3412
euroscience	-13.3412
famili	-13.3412
lpha	-13.3412
otica	-13.3412
oulevard	-13.3412
sault	-13.3412
uvre	-13.3412
▁Argentina	-13.3412
▁AstroTurf	-13.3412
▁Bubble	-13.3412
▁Cadillac	-13.3412
▁Carmel	-13.3412
▁Church	-13.3412
▁Corona	-13.3412
▁Country	-13.3412
▁County	-13.3412
▁Demonstrator	-13.3412
▁Dolphin	-13.3412
▁Einstein	-13.3412
▁Fashion	-13.3412
▁Front	-13.3412
▁Goofy	-13.3412
▁Grocer	-13.3412
▁Helmeted	-13.3412
▁Hopper	-13.3412
▁Kingdom	-13.3412
▁Lounge	-13.3412
▁Madrid	-13.3412
▁Magazine	-13.3412
▁Major	-13.3412
▁Maker	-13.3412
▁McCain	-13.3412
▁Nesquik	-13.3412
▁Orchestra	-13.3412
▁Packers	-13.3412
▁Parkinson	-13.3412
▁Reporter	-13.3412
▁Seahawks	-13.3412
▁Shadow	-13.3412
▁Smart	-13.3412
▁Springsteen	-13.3412
▁Warrior	-13.3412
▁Watch	-13.3412
▁abdomen	-13.3412
▁accomplish	-13.3412
▁affixed	-13.3412
▁alcove	-13.3412
▁associate	-13.3412
▁barrette	-13.3412
▁bicep	-13.3412
▁boiled	-13.3412
▁bunnies	-13.3412
▁burka	-13.3412
▁buttocks	-13.3412
▁cabbage	-13.3412
▁cacti	-13.3412
▁cautious	-13.3412
▁celebrit	-13.3412
▁centipede	-13.3412
▁charades	-13.3412
▁cleaver	-13.3412
▁collision	-13.3412
▁companies	-13.3412
▁concourse	-13.3412
▁coordinat	-13.3412
▁cottage	-13.3412
▁crevasse	-13.3412
▁crossword	-13.3412
▁culvert	-13.3412
▁cymbal	-13.3412
▁depressed	-13.3412
▁depth	-13.3412
▁detain	-13.3412
▁determination	-13.3412
▁disguise	-13.3412
▁disgust	-13.3412
▁dreary	-13.3412
▁elliptical	-13.3412
▁email	-13.3412
▁enthusiasm	-13.3412
▁equations	-13.3412
▁faith	-13.3412
▁freckles	-13.3412
▁fronds	-13.3412
▁galoshes	-13.3412
▁generation	-13.3412
▁generator	-13.3412
▁gnarl	-13.3412
▁grandpa	-13.3412
▁grungy	-13.3412
▁hummingbird	-13.3412
▁indeterminate	-13.3412
▁inscription	-13.3412
▁jacuzzi	-13.3412
▁jaywalk	-13.3412
▁journey	-13.3412
▁kiln	-13.3412
▁lavish	-13.3412
▁librarian	-13.3412
▁london	-13.3412
▁marionette	-13.3412
▁memorabilia	-13.3412
▁messaging	-13.3412
▁mysterious	-13.3412
▁newscaster	-13.3412
▁nuzzling	-13.3412
▁perpendicular	-13.3412
▁pestle	-13.3412
▁pheasant	-13.3412
▁phrase	-13.3412
▁practitioner	-13.3412
▁quantit	-13.3412
▁recoil	-13.3412
▁reluctant	-13.3412
▁reptile	-13.3412
▁restaraunt	-13.3412
▁rotisserie	-13.3412
▁rucksack	-13.3412
▁sarong	-13.3412
▁satisf	-13.3412
▁schedule	-13.3412
▁scuffle	-13.3412
▁segment	-13.3412
▁shoelaces	-13.3412
▁significant	-13.3412
▁simulat	-13.3412
▁spigot	-13.3412
▁submarine	-13.3412
▁submissi	-13.3412
▁suspect	-13.3412
▁tavern	-13.3412
▁terrorist	-13.3412
▁thoroughfare	-13.3412
▁thoroughly	-13.3412
▁throne	-13.3412
▁tortillas	-13.3412
▁trampled	-13.3412
▁trowel	-13.3412
▁velodrome	-13.3412
▁visual	-13.3412
▁whimsical	-13.3412
Maritim	-13.3412
▁Kawasaki	-13.3412
▁Librar	-13.3412
▁anorak	-13.3412
▁chev	-13.3412
▁clergy	-13.3412
▁diagnos	-13.3412
▁genie	-13.3412
▁luxur	-13.3412
▁magnet	-13.3412
▁psych	-13.3412
▁remind	-13.3412
▁swerv	-13.3412
▁ventilat	-13.3412
▁videographer	-13.3412
▁Airplane	-13.3412
▁Classic	-13.3412
▁amusing	-13.3412
▁chanting	-13.3412
▁concoct	-13.3412
▁confusi	-13.3412
▁debat	-13.3412
▁drug	-13.3412
▁feild	-13.3412
▁fingertips	-13.3412
▁lumberjack	-13.3412
▁mussel	-13.3412
▁retire	-13.3412
▁voting	-13.3412
▁website	-13.3412
▁Swan	-13.3412
▁german	-13.3412
▁instrumentalist	-13.3412
▁Crafts	-13.3412
▁interlock	-13.3412
▁frizzy	-13.3412
DAY	-13.3412
▁Orphans	-13.3412
▁Tired	-13.3412
▁orthodo	-13.3412
▁revers	-13.3412
▁winks	-13.3412
▁Audience	-13.3412
▁dwelling	-13.3412
▁auburn	-13.3412
▁violently	-13.3412
▁Machin	-13.3412
▁adopt	-13.3412
▁explode	-13.3412
▁overloaded	-13.3412
▁Schoolgirl	-13.3412
▁erupt	-13.3412
rumpled	-13.3412
Cyclone	-13.3412
▁eviden	-13.3412
▁Shack	-13.3412
▁Portland	-13.3412
▁Cheese	-13.3412
▁vineyard	-13.3412
▁ecstatically	-13.3412
▁Cind	-13.3412
▁cavern	-13.3412
▁grandparents	-13.3412
▁loft	-13.3412
▁tomb	-13.3412
▁occurred	-13.3412
▁petition	-13.3412
▁clump	-13.3412
▁gavel	-13.3412
▁Castro	-13.3412
▁Pakistani	-13.3412
▁Pipe	-13.3412
▁mache	-13.3412
▁manikin	-13.3412
▁Barber	-13.3412
▁daff	-13.3412
▁exhaustion	-13.3412
▁authority	-13.3412
▁broadcast	-13.3412
▁Sunday	-13.3412
▁breezeway	-13.3412
▁oak	-13.3412
▁gull	-13.3412
▁reenact	-13.3412
▁apex	-13.3412
▁deploy	-13.3412
▁piping	-13.3412
▁daddy	-13.3412
▁juke	-13.3412
▁comedian	-13.3412
▁development	-13.3412
▁swordfish	-13.3412
▁usual	-13.3412
▁fanned	-13.3412
▁forehand	-13.3412
▁Dead	-13.3412
▁executive	-13.3412
▁Room	-13.3412
▁reform	-13.3412
▁unitard	-13.3412
▁Force	-13.3412
▁sideshow	-13.3412
▁skatepark	-13.3412
▁comment	-13.3412
▁candlelight	-13.3412
▁halo	-13.3412
▁Mime	-13.3412
▁silent	-13.3412
▁confrontation	-13.3412
▁seahorse	-13.3413
Chris	-13.3413
▁beech	-13.3413
▁meditation	-13.3413
▁cosplayers	-13.3413
▁Cath	-13.3413
▁data	-13.3413
▁Peter	-13.3413
▁Reflection	-13.3413
▁checkpoint	-13.3413
avior	-13.3413
▁Ship	-13.3413
▁opp	-13.3413
onnie	-13.3413
▁actual	-13.3413
▁Kick	-13.3413
▁sledder	-13.3413
▁wreckage	-13.3413
▁reign	-13.3413
▁wiring	-13.3413
▁dawn	-13.3413
▁suv	-13.3413
▁lama	-13.3413
▁Head	-13.3413
berg	-13.3413
▁pledg	-13.3413
▁risers	-13.3413
▁bulk	-13.3413
▁Wood	-13.3413
▁burrow	-13.3413
▁Pota	-13.3413
▁funeral	-13.3413
▁Wow	-13.3413
berries	-13.3414
▁mason	-13.3414
▁menacing	-13.3414
▁unidentifiable	-13.3414
▁soundboard	-13.3414
▁zipline	-13.3414
▁squash	-13.3414
▁Show	-13.3414
▁Human	-13.3414
▁lunchbox	-13.3414
▁accordi	-13.3414
▁charm	-13.3414
▁toolbox	-13.3414
▁Bob	-13.3414
▁Mix	-13.3414
▁micro	-13.3414
▁Sari	-13.3414
▁representative	-13.3414
▁bareback	-13.3414
▁rectangle	-13.3414
▁panties	-13.3414
▁cordon	-13.3414
▁nursery	-13.3415
▁footrace	-13.3415
▁cure	-13.3415
▁Cold	-13.3415
▁framework	-13.3415
ctical	-13.3415
▁Tye	-13.3415
▁Indoor	-13.3415
▁cors	-13.3415
▁International	-13.3416
▁Wave	-13.3416
▁travelling	-13.3416
▁worshipers	-13.3416
▁loafers	-13.3416
nyl	-13.3416
▁sloth	-13.3416
▁enth	-13.3416
▁interaction	-13.3416
LI	-13.3416
▁icon	-13.3416
▁posture	-13.3417
▁Trash	-13.3417
▁gateway	-13.3417
▁vol	-13.3417
mmuni	-13.3417
▁Hart	-13.3417
entine	-13.3417
▁poof	-13.3417
velers	-13.3417
▁skywalk	-13.3417
▁uncomfortable	-13.3418
▁fanning	-13.3418
▁yolk	-13.3418
▁crag	-13.3419
▁Martin	-13.3419
▁Dave	-13.3419
▁vanity	-13.3419
▁stout	-13.3419
▁turb	-13.3419
▁prof	-13.3419
▁clamp	-13.3419
▁allowed	-13.342
▁coup	-13.342
▁retr	-13.342
▁sent	-13.3421
▁shaver	-13.3421
▁terra	-13.3421
▁canine	-13.3422
▁flare	-13.3422
▁trooper	-13.3422
▁Hut	-13.3423
HELL	-13.3423
▁Cir	-13.3423
▁Cop	-13.3423
Bowl	-13.3423
bracing	-13.3424
▁Lex	-13.3424
ustic	-13.3425
▁cloudless	-13.3426
▁Kni	-13.3426
▁dinn	-13.3426
▁original	-13.3426
▁canad	-13.3426
▁kickball	-13.3426
cotta	-13.3427
▁dazzl	-13.3427
eaceful	-13.3428
▁Cher	-13.3428
▁goodies	-13.3429
▁Balle	-13.3429
▁barge	-13.343
▁howling	-13.343
▁prow	-13.3432
▁wicket	-13.3432
▁punctur	-13.3433
▁batch	-13.3433
▁ban	-13.3434
▁intricately	-13.3435
▁Sky	-13.3435
▁parties	-13.3437
▁conclu	-13.3437
Playboy	-13.3437
▁fireball	-13.3438
▁timeout	-13.3438
occe	-13.3439
▁passion	-13.3439
▁brain	-13.344
▁Dar	-13.3442
▁erected	-13.3443
errible	-13.3444
▁Lite	-13.3445
▁forestry	-13.3446
▁embroidery	-13.3447
▁Land	-13.3448
▁cost	-13.3448
▁threa	-13.3449
▁Cup	-13.3451
acket	-13.3451
▁unti	-13.3456
▁fryer	-13.3457
▁contorted	-13.3457
▁conducted	-13.3458
▁advertised	-13.3458
▁playroom	-13.346
▁sharply	-13.3462
▁Mary	-13.3471
pul	-13.3471
▁Sand	-13.3473
▁mover	-13.3475
▁busker	-13.348
▁Ful	-13.3485
▁eaten	-13.3485
laps	-13.3485
▁sk	-13.3492
meter	-13.3493
▁spotter	-13.3493
▁Painter	-13.3496
▁curler	-13.3497
▁untangle	-13.3497
strate	-13.3497
▁cra	-13.3498
▁papa	-13.3502
▁deco	-13.3512
▁showcase	-13.3514
Pray	-13.3515
lka	-13.3533
tool	-13.3533
ologist	-13.3544
▁provider	-13.3566
Teach	-13.3577
formally	-13.3578
▁Lay	-13.3582
GA	-13.3584
▁clippe	-13.36
▁crunch	-13.3612
ruins	-13.3614
▁sprinter	-13.3619
touch	-13.3624
▁kn	-13.3636
▁snorkeler	-13.3647
▁propp	-13.3657
▁gasp	-13.3668
tti	-13.3673
▁burner	-13.3682
▁hooker	-13.3692
who	-13.3704
kah	-13.3705
▁consol	-13.3709
bear	-13.3719
▁refill	-13.3749
▁Bask	-13.375
▁Gri	-13.3831
▁Pit	-13.384
comb	-13.3859
owntown	-13.3876
razy	-13.3881
gu	-13.3884
bak	-13.3892
Ball	-13.3894
▁emotional	-13.3896
▁ratt	-13.39
▁stake	-13.391
noticed	-13.3931
▁bridle	-13.3935
Fish	-13.3935
tender	-13.3957
▁gro	-13.396
▁spott	-13.3965
▁youthful	-13.3989
▁Mick	-13.4014
table	-13.4017
complexion	-13.4027
▁slo	-13.4099
annel	-13.4134
▁Str	-13.4143
idewalk	-13.4147
eekend	-13.4193
▁demo	-13.4279
olaroid	-13.4326
AM	-13.433
▁resist	-13.4341
HO	-13.4369
anned	-13.4371
SS	-13.4372
udge	-13.4406
gin	-13.4431
aft	-13.4464
fron	-13.4476
catching	-13.4496
▁fra	-13.4554
seum	-13.4559
hang	-13.459
pm	-13.4668
hubby	-13.4717
▁helm	-13.4733
▁han	-13.4775
Doo	-13.4777
ool	-13.4777
unches	-13.4785
river	-13.4791
▁hurdler	-13.4888
▁sn	-13.4925
bility	-13.4925
▁vac	-13.4925
▁quir	-13.4938
▁Sav	-13.4955
▁Cheeri	-13.5006
aga	-13.5015
▁cradl	-13.5044
▁radi	-13.5091
ggle	-13.5136
▁chuck	-13.5173
gic	-13.5188
aught	-13.5259
IF	-13.5269
▁colo	-13.5278
Bot	-13.5293
fender	-13.5296
▁rescu	-13.5338
▁sli	-13.5347
fit	-13.5399
ddles	-13.5422
ami	-13.5425
KI	-13.551
▁clu	-13.5652
get	-13.5665
▁viol	-13.5814
irport	-13.5906
rtwork	-13.5918
erra	-13.594
gainst	-13.5988
▁saf	-13.5999
▁experienc	-13.6077
▁Cameram	-13.6087
▁nec	-13.6115
▁japan	-13.614
racy	-13.6163
▁bandag	-13.6183
▁verbal	-13.6239
urban	-13.6322
specifi	-13.6413
▁triumpha	-13.6433
itz	-13.6434
▁Ru	-13.6446
▁unco	-13.6449
zes	-13.6465
Poli	-13.649
fig	-13.6504
▁bubbl	-13.6525
llard	-13.6532
▁spark	-13.6535
divers	-13.6559
▁frown	-13.6579
▁scream	-13.6582
▁recreat	-13.6587
nish	-13.6589
▁char	-13.6593
▁showcas	-13.6604
bottomed	-13.6607
friend	-13.6612
ulture	-13.6614
▁rap	-13.6615
▁hurdl	-13.663
▁clam	-13.6641
▁spher	-13.6644
▁Capri	-13.6645
▁death	-13.6645
pit	-13.6647
▁condom	-13.6648
▁grimace	-13.6651
▁preserver	-13.6651
▁pompom	-13.6651
▁breakdance	-13.6651
▁shrub	-13.6652
▁trouser	-13.6652
▁Dancer	-13.6653
moving	-13.6653
endor	-13.6653
▁belonging	-13.6654
▁welcom	-13.6654
▁ruin	-13.6655
▁grow	-13.6658
▁flier	-13.6658
craft	-13.6658
▁breastfeed	-13.667
▁snarl	-13.6672
▁overflow	-13.6674
lotte	-13.6678
▁duel	-13.6679
flowing	-13.6679
tention	-13.668
zzy	-13.6684
iate	-13.6685
stroke	-13.6688
rough	-13.6689
▁bundl	-13.6689
▁Will	-13.669
▁trombon	-13.6691
▁siz	-13.6692
regular	-13.6693
track	-13.6694
▁escap	-13.6694
talkie	-13.6694
saucer	-13.6695
duty	-13.6695
came	-13.6695
ripple	-13.6695
Guitar	-13.6695
Com	-13.6696
operated	-13.6696
blown	-13.6696
glass	-13.6696
kept	-13.6696
brand	-13.6696
language	-13.6696
hound	-13.6696
stained	-13.6696
park	-13.6697
pick	-13.6697
roller	-13.6697
dried	-13.6697
pillar	-13.6697
service	-13.6697
chase	-13.6697
What	-13.6697
terrain	-13.6697
fire	-13.6697
focus	-13.6697
possibly	-13.6697
cloudy	-13.6697
appear	-13.6697
including	-13.6697
scooter	-13.6697
wire	-13.6697
distance	-13.6697
mask	-13.6697
while	-13.6698
Rock	-13.6698
break	-13.6698
something	-13.6698
speaking	-13.6698
Long	-13.6698
though	-13.6698
slide	-13.6698
pitch	-13.6698
street	-13.6698
▁antiqu	-13.6698
CD	-13.6698
tech	-13.6698
polo	-13.6698
brick	-13.6699
pool	-13.6699
lens	-13.67
gold	-13.67
bend	-13.67
court	-13.6701
money	-13.6701
bearer	-13.6701
▁Swimm	-13.6701
full	-13.6703
next	-13.6704
stuff	-13.6705
plaid	-13.6706
left	-13.6706
helme	-13.6709
▁abse	-13.671
▁tabl	-13.671
▁massag	-13.671
▁mosqu	-13.6711
▁loos	-13.6713
illage	-13.6714
▁concentr	-13.6715
bow	-13.6716
▁explo	-13.6717
uette	-13.6718
▁gradua	-13.672
riot	-13.6721
▁distress	-13.6721
▁exhaust	-13.6722
jects	-13.6723
▁abandon	-13.6723
▁Luc	-13.6724
▁admi	-13.6726
ELL	-13.673
clining	-13.6731
▁Snowboard	-13.6732
▁audi	-13.6732
▁grocer	-13.6734
▁glamo	-13.6735
dancer	-13.6735
uinn	-13.6735
▁ferr	-13.6736
▁clenche	-13.6736
▁tradition	-13.6736
▁submerge	-13.6737
ransport	-13.6738
▁bulldoz	-13.6738
ifferent	-13.674
ummy	-13.674
▁sigh	-13.6741
▁prison	-13.6741
▁neat	-13.6741
▁leisure	-13.6742
ictoria	-13.6742
▁africa	-13.6742
▁burro	-13.6742
▁refuge	-13.6743
▁crutch	-13.6743
polis	-13.6743
mmering	-13.6743
icyclist	-13.6744
▁eyeglass	-13.6744
▁latte	-13.6744
cepts	-13.6744
▁susp	-13.6744
nthusiastic	-13.6744
questrian	-13.6744
▁occur	-13.6744
eagulls	-13.6745
hampionship	-13.6745
asually	-13.6745
▁jewel	-13.6745
ridesmaids	-13.6745
arbecue	-13.6745
luffy	-13.6745
▁establish	-13.6745
aramedic	-13.6745
atriotic	-13.6745
▁Sharp	-13.6745
▁religio	-13.6745
▁outcrop	-13.6745
PN	-13.6745
anitor	-13.6745
egetable	-13.6745
▁differ	-13.6745
aintenance	-13.6745
▁confer	-13.6745
▁backgrou	-13.6745
▁fright	-13.6745
bservers	-13.6745
fection	-13.6745
iculous	-13.6745
obili	-13.6745
▁Komo	-13.6745
HERE	-13.6745
nhappy	-13.6745
▁Eddie	-13.6745
▁courage	-13.6745
Blockbuster	-13.6745
Bounce	-13.6745
CLA	-13.6745
Gigolo	-13.6745
NICEF	-13.6745
Repent	-13.6745
Rouleur	-13.6745
ShoeGasm	-13.6745
Sublime	-13.6745
abeth	-13.6745
affected	-13.6745
echnologies	-13.6745
fortunate	-13.6745
gravity	-13.6745
hostbuster	-13.6745
labradoodle	-13.6745
lbert	-13.6745
omeranian	-13.6745
ownspeople	-13.6745
rchitects	-13.6745
sequence	-13.6745
ssociation	-13.6745
stitute	-13.6745
treasure	-13.6745
tweiler	-13.6745
wilder	-13.6745
▁Aberdeen	-13.6745
▁Adolescent	-13.6745
▁Altima	-13.6745
▁Beetle	-13.6745
▁Blacksmith	-13.6745
▁Booth	-13.6745
▁Broadway	-13.6745
▁Build	-13.6745
▁Buzz	-13.6745
▁Caution	-13.6745
▁Citroen	-13.6745
▁Clydesdale	-13.6745
▁Corgi	-13.6745
▁DSLR	-13.6745
▁Donut	-13.6745
▁Dragon	-13.6745
▁Drayton	-13.6745
▁Electronics	-13.6745
▁Explorer	-13.6745
▁Fitness	-13.6745
▁Foosball	-13.6745
▁Fruit	-13.6745
▁Genocide	-13.6745
▁Giorgio	-13.6745
▁Gothic	-13.6745
▁Guest	-13.6745
▁Hawk	-13.6745
▁Hendrix	-13.6745
▁Hippie	-13.6745
▁Hyatt	-13.6745
▁Industries	-13.6745
▁Internet	-13.6745
▁Kitchen	-13.6745
▁Manhattan	-13.6745
▁Married	-13.6745
▁Mockingbird	-13.6745
▁Negro	-13.6745
▁Netherlands	-13.6745
▁Official	-13.6745
▁Opening	-13.6745
▁Palace	-13.6745
▁Polaris	-13.6745
▁Portuguese	-13.6745
▁Premier	-13.6745
▁Retriever	-13.6745
▁Safe	-13.6745
▁Saturday	-13.6745
▁Saxophone	-13.6745
▁Sightsee	-13.6745
▁Silk	-13.6745
▁Stretch	-13.6745
▁Sugarland	-13.6745
▁Sweet	-13.6745
▁Sydney	-13.6745
▁Taiwan	-13.6745
▁Temple	-13.6745
▁Texan	-13.6745
▁Tigger	-13.6745
▁Transformer	-13.6745
▁Trolley	-13.6745
▁Turkey	-13.6745
▁Whistle	-13.6745
▁Wizard	-13.6745
▁accelerat	-13.6745
▁accompaniment	-13.6745
▁account	-13.6745
▁afghan	-13.6745
▁afraid	-13.6745
▁agricultur	-13.6745
▁allegiance	-13.6745
▁alpaca	-13.6745
▁apprehend	-13.6745
▁armadillo	-13.6745
▁artichokes	-13.6745
▁bassinet	-13.6745
▁beggar	-13.6745
▁beijing	-13.6745
▁brawl	-13.6745
▁budweiser	-13.6745
▁bungalow	-13.6745
▁burqa	-13.6745
▁caboose	-13.6745
▁calculat	-13.6745
▁camisole	-13.6745
▁canopies	-13.6745
▁caulk	-13.6745
▁cavort	-13.6745
▁century	-13.6745
▁cgt	-13.6745
▁chapel	-13.6745
▁chaperone	-13.6745
▁cinema	-13.6745
▁clause	-13.6745
▁cleavage	-13.6745
▁coffin	-13.6745
▁commit	-13.6745
▁composition	-13.6745
▁conservat	-13.6745
▁converge	-13.6745
▁convoy	-13.6745
▁crepe	-13.6745
▁crucified	-13.6745
▁cuisine	-13.6745
▁currency	-13.6745
▁daschund	-13.6745
▁decision	-13.6745
▁diag	-13.6745
▁dialogue	-13.6745
▁disapprov	-13.6745
▁displeas	-13.6745
▁disturbing	-13.6745
▁downstairs	-13.6745
▁downstream	-13.6745
▁drooling	-13.6745
▁dwarf	-13.6745
▁easily	-13.6745
▁edifice	-13.6745
▁elements	-13.6745
▁empanada	-13.6745
▁exuberan	-13.6745
▁firecracker	-13.6745
▁fishbowl	-13.6745
▁flagpole	-13.6745
▁flavor	-13.6745
▁foothills	-13.6745
▁fossil	-13.6745
▁fundraiser	-13.6745
▁gasoline	-13.6745
▁genocide	-13.6745
▁geograph	-13.6745
▁glimpse	-13.6745
▁grenade	-13.6745
▁griddle	-13.6745
▁groove	-13.6745
▁grotesque	-13.6745
▁headquarters	-13.6745
▁heartbeat	-13.6745
▁hitchhiking	-13.6745
▁hobby	-13.6745
▁identity	-13.6745
▁impatien	-13.6745
▁impersonator	-13.6745
▁inhabit	-13.6745
▁interfere	-13.6745
▁intertwin	-13.6745
▁irritated	-13.6745
▁jostle	-13.6745
▁kebabs	-13.6745
▁knuckle	-13.6745
▁korn	-13.6745
▁leapfrog	-13.6745
▁lesbian	-13.6745
▁levit	-13.6745
▁lightsaber	-13.6745
▁lilac	-13.6745
▁lilies	-13.6745
▁locksmith	-13.6745
▁loincloth	-13.6745
▁lyric	-13.6745
▁mimick	-13.6745
▁moutain	-13.6745
▁multitasking	-13.6745
▁nationalities	-13.6745
▁necessary	-13.6745
▁oatmeal	-13.6745
▁obtain	-13.6745
▁olympian	-13.6745
▁overshadow	-13.6745
▁panhandling	-13.6745
▁pedicab	-13.6745
▁pedicure	-13.6745
▁perimeter	-13.6745
▁pharaoh	-13.6745
▁pilgrim	-13.6745
▁prais	-13.6745
▁purplish	-13.6745
▁pyrotechnic	-13.6745
▁receipt	-13.6745
▁reciev	-13.6745
▁rejoicing	-13.6745
▁relief	-13.6745
▁rendition	-13.6745
▁restrict	-13.6745
▁resurfac	-13.6745
▁sanctuary	-13.6745
▁sapling	-13.6745
▁scrum	-13.6745
▁shamrocks	-13.6745
▁shelving	-13.6745
▁sheriff	-13.6745
▁signature	-13.6745
▁snooker	-13.6745
▁snowmobiling	-13.6745
▁society	-13.6745
▁solicit	-13.6745
▁solitude	-13.6745
▁sousaphone	-13.6745
▁spices	-13.6745
▁stepladder	-13.6745
▁supervisor	-13.6745
▁switch	-13.6745
▁tarmac	-13.6745
▁temperat	-13.6745
▁turret	-13.6745
▁unamused	-13.6745
▁undergarments	-13.6745
▁underpants	-13.6745
▁veggies	-13.6745
▁weightlifting	-13.6745
▁weimaraner	-13.6745
▁yankee	-13.6745
▁yield	-13.6745
Davi	-13.6745
▁Clean	-13.6745
▁Entertain	-13.6745
▁Health	-13.6745
▁Lassie	-13.6745
▁Republic	-13.6745
▁Taxi	-13.6745
▁agitate	-13.6745
▁antlers	-13.6745
▁bayonet	-13.6745
▁bizarre	-13.6745
▁blackjack	-13.6745
▁budget	-13.6745
▁compass	-13.6745
▁contractor	-13.6745
▁dagger	-13.6745
▁dowel	-13.6745
▁excellent	-13.6745
▁excla	-13.6745
▁fawn	-13.6745
▁glassblower	-13.6745
▁growls	-13.6745
▁immediate	-13.6745
▁manufactur	-13.6745
▁mischievous	-13.6745
▁muffl	-13.6745
▁renovations	-13.6745
▁skeptical	-13.6745
▁stupid	-13.6745
Mambo	-13.6745
Radeo	-13.6745
▁Dancing	-13.6745
▁Guns	-13.6745
▁Scooby	-13.6745
▁begun	-13.6745
▁bullpen	-13.6745
▁eerie	-13.6745
▁eyelid	-13.6745
▁mourn	-13.6745
▁obvious	-13.6745
▁pepsi	-13.6745
▁previous	-13.6745
▁seperate	-13.6745
▁Confe	-13.6745
▁anything	-13.6745
▁cabana	-13.6745
▁downpour	-13.6745
▁fingerpaints	-13.6745
▁foyer	-13.6745
▁rich	-13.6745
▁stressed	-13.6745
Deleon	-13.6745
MENT	-13.6745
lliance	-13.6745
▁Baker	-13.6745
▁Cav	-13.6745
▁Raider	-13.6745
▁antenna	-13.6745
▁elongat	-13.6745
▁evad	-13.6745
▁gawk	-13.6745
▁realize	-13.6745
▁ridiculous	-13.6745
▁vampire	-13.6745
▁vents	-13.6745
niversa	-13.6745
warves	-13.6745
▁Lifeguard	-13.6745
▁affair	-13.6745
▁beckon	-13.6745
▁fantas	-13.6745
▁imagination	-13.6745
▁registration	-13.6745
▁eighteen	-13.6745
mpire	-13.6745
▁agape	-13.6745
Thank	-13.6745
dvice	-13.6745
▁armbands	-13.6745
▁disembark	-13.6745
▁luncheon	-13.6745
▁Plac	-13.6745
▁lugg	-13.6745
mustang	-13.6745
▁Chevrolet	-13.6745
▁Glas	-13.6745
▁Takes	-13.6745
▁expectant	-13.6745
▁flustered	-13.6745
▁pyr	-13.6745
▁smudge	-13.6745
▁wisp	-13.6745
▁Hungry	-13.6745
▁Mormon	-13.6745
▁Nice	-13.6745
▁Wiggle	-13.6745
▁fangs	-13.6745
▁knick	-13.6745
▁Edward	-13.6745
▁caterer	-13.6745
swordfight	-13.6745
ustere	-13.6745
▁Chicken	-13.6745
▁flick	-13.6745
annister	-13.6745
▁Facebook	-13.6745
▁Torch	-13.6745
▁abundan	-13.6745
▁slumber	-13.6745
▁SWAT	-13.6745
▁biplane	-13.6745
▁calves	-13.6745
▁departure	-13.6745
▁nowhere	-13.6745
ifesavers	-13.6745
▁sneer	-13.6745
ketch	-13.6745
▁arctic	-13.6745
▁Knits	-13.6745
▁clipping	-13.6745
▁Formula	-13.6745
▁Teh	-13.6745
▁wildlife	-13.6745
▁bohemian	-13.6745
elicatessen	-13.6745
▁Padd	-13.6745
▁fiber	-13.6745
▁snapshot	-13.6745
▁Pyr	-13.6745
▁Sharpie	-13.6745
▁marvel	-13.6745
conscious	-13.6745
▁portray	-13.6745
▁haystack	-13.6745
▁nerd	-13.6745
▁commun	-13.6745
ponents	-13.6745
▁declare	-13.6745
▁musher	-13.6745
▁panoram	-13.6745
▁Forever	-13.6745
▁rips	-13.6745
▁true	-13.6745
ritos	-13.6745
▁staging	-13.6745
▁Bagel	-13.6745
▁Bowling	-13.6745
▁contrac	-13.6745
▁mushing	-13.6745
▁migra	-13.6746
▁Board	-13.6746
▁Swed	-13.6746
▁justice	-13.6746
▁Wheel	-13.6746
▁copilot	-13.6746
EST	-13.6746
▁bobs	-13.6746
▁flurry	-13.6746
splayed	-13.6746
▁crust	-13.6746
▁difficulties	-13.6746
▁illustration	-13.6746
NCE	-13.6746
▁extension	-13.6746
▁battleship	-13.6746
▁coron	-13.6746
▁fuel	-13.6746
fresco	-13.6746
▁Dinner	-13.6746
▁Natha	-13.6746
▁Solei	-13.6746
▁guidebook	-13.6746
▁miles	-13.6746
▁troll	-13.6746
▁Democra	-13.6746
▁midget	-13.6746
▁textbook	-13.6746
ropes	-13.6746
▁Polo	-13.6746
▁cities	-13.6746
▁luck	-13.6746
mination	-13.6746
▁GRA	-13.6746
▁bombard	-13.6746
▁Princess	-13.6746
▁River	-13.6746
▁buddies	-13.6746
▁taco	-13.6746
▁texture	-13.6746
▁jig	-13.6746
▁Royal	-13.6746
▁tugboat	-13.6746
▁marry	-13.6747
▁stiff	-13.6747
ollywood	-13.6747
▁Bell	-13.6747
▁Leak	-13.6747
▁compare	-13.6747
▁Port	-13.6747
ilver	-13.6747
amel	-13.6747
immers	-13.6747
▁seawall	-13.6747
▁accu	-13.6747
▁flamingos	-13.6747
MT	-13.6747
▁Oak	-13.6747
▁Fox	-13.6747
▁refugees	-13.6747
▁Fall	-13.6747
▁winking	-13.6747
▁joyful	-13.6747
▁transl	-13.6748
▁Gump	-13.6748
▁lily	-13.6748
▁john	-13.6748
tinguishe	-13.6748
▁Drink	-13.6748
▁Why	-13.6748
▁Chev	-13.6748
ersey	-13.6748
Anderson	-13.6748
utist	-13.6748
▁Reg	-13.6748
ighttime	-13.6748
▁peep	-13.6748
▁unlock	-13.6748
▁dials	-13.6748
▁swanky	-13.6748
▁prediction	-13.6748
▁pill	-13.6748
▁Bang	-13.6748
haki	-13.6749
▁attachment	-13.6749
▁Rep	-13.6749
▁hoof	-13.6749
▁messily	-13.6749
stered	-13.6749
▁Cool	-13.6749
▁Mag	-13.6749
▁summertime	-13.6749
▁pedi	-13.6749
lpin	-13.675
▁Mark	-13.675
▁desi	-13.675
weeping	-13.675
▁Dominoes	-13.675
▁tuxes	-13.675
Help	-13.675
▁adornment	-13.6751
▁farther	-13.6751
Aloha	-13.6751
▁Gator	-13.6752
▁Pike	-13.6752
▁grater	-13.6752
▁Rabbit	-13.6752
orate	-13.6752
▁chose	-13.6752
▁pomp	-13.6752
▁Cater	-13.6752
gramm	-13.6752
▁waterskies	-13.6753
▁acid	-13.6753
▁ringlet	-13.6753
▁Kris	-13.6753
nergetic	-13.6753
IA	-13.6754
▁shall	-13.6754
ombie	-13.6754
▁shredder	-13.6754
